{
  "encoder": {
    "<pad>": 0,
    "<unk>": 1,
    "<s>": 2,
    "</s>": 3,
    "<mask>": 4,
    "\t": 5,
    "\n": 6,
    " ": 7,
    "!": 8,
    "\"": 9,
    "#": 10,
    "$": 11,
    "%": 12,
    "&": 13,
    "'": 14,
    "(": 15,
    ")": 16,
    "*": 17,
    "+": 18,
    ",": 19,
    "-": 20,
    ".": 21,
    "/": 22,
    "0": 23,
    "1": 24,
    "2": 25,
    "3": 26,
    "4": 27,
    "5": 28,
    "6": 29,
    "7": 30,
    "8": 31,
    "9": 32,
    ":": 33,
    ";": 34,
    "<": 35,
    "=": 36,
    ">": 37,
    "?": 38,
    "@": 39,
    "A": 40,
    "B": 41,
    "C": 42,
    "D": 43,
    "E": 44,
    "F": 45,
    "G": 46,
    "H": 47,
    "I": 48,
    "J": 49,
    "K": 50,
    "L": 51,
    "M": 52,
    "N": 53,
    "O": 54,
    "P": 55,
    "Q": 56,
    "R": 57,
    "S": 58,
    "T": 59,
    "U": 60,
    "V": 61,
    "W": 62,
    "X": 63,
    "Y": 64,
    "Z": 65,
    "[": 66,
    "\\": 67,
    "]": 68,
    "^": 69,
    "_": 70,
    "`": 71,
    "a": 72,
    "b": 73,
    "c": 74,
    "d": 75,
    "e": 76,
    "f": 77,
    "g": 78,
    "h": 79,
    "i": 80,
    "j": 81,
    "k": 82,
    "l": 83,
    "m": 84,
    "n": 85,
    "o": 86,
    "p": 87,
    "q": 88,
    "r": 89,
    "s": 90,
    "t": 91,
    "u": 92,
    "v": 93,
    "w": 94,
    "x": 95,
    "y": 96,
    "z": 97,
    "{": 98,
    "|": 99,
    "}": 100,
    "~": 101,
    "": 102,
    " ": 103,
    "¡": 104,
    "£": 105,
    "¥": 106,
    "§": 107,
    "©": 108,
    "ª": 109,
    "«": 110,
    "¬": 111,
    "­": 112,
    "®": 113,
    "¯": 114,
    "°": 115,
    "±": 116,
    "²": 117,
    "³": 118,
    "´": 119,
    "µ": 120,
    "¶": 121,
    "·": 122,
    "¹": 123,
    "º": 124,
    "»": 125,
    "¼": 126,
    "½": 127,
    "À": 128,
    "Á": 129,
    "Â": 130,
    "Ã": 131,
    "Ä": 132,
    "Å": 133,
    "Æ": 134,
    "Ç": 135,
    "È": 136,
    "É": 137,
    "Ê": 138,
    "Ë": 139,
    "Í": 140,
    "Î": 141,
    "Ò": 142,
    "Ó": 143,
    "Ö": 144,
    "×": 145,
    "Ø": 146,
    "Ú": 147,
    "Ü": 148,
    "Þ": 149,
    "ß": 150,
    "à": 151,
    "á": 152,
    "â": 153,
    "ã": 154,
    "ä": 155,
    "å": 156,
    "æ": 157,
    "ç": 158,
    "è": 159,
    "é": 160,
    "ê": 161,
    "ë": 162,
    "ì": 163,
    "í": 164,
    "î": 165,
    "ï": 166,
    "ð": 167,
    "ñ": 168,
    "ò": 169,
    "ó": 170,
    "ô": 171,
    "õ": 172,
    "ö": 173,
    "÷": 174,
    "ø": 175,
    "ù": 176,
    "ú": 177,
    "û": 178,
    "ü": 179,
    "ý": 180,
    "þ": 181,
    "ÿ": 182,
    "Ā": 183,
    "ā": 184,
    "Ă": 185,
    "ă": 186,
    "ą": 187,
    "Ć": 188,
    "ć": 189,
    "Ĉ": 190,
    "Č": 191,
    "č": 192,
    "ď": 193,
    "Đ": 194,
    "đ": 195,
    "Ē": 196,
    "ē": 197,
    "ĕ": 198,
    "ė": 199,
    "ę": 200,
    "ě": 201,
    "ĝ": 202,
    "Ğ": 203,
    "ğ": 204,
    "ġ": 205,
    "ģ": 206,
    "Ĥ": 207,
    "ĥ": 208,
    "ħ": 209,
    "ĩ": 210,
    "Ī": 211,
    "ī": 212,
    "İ": 213,
    "ı": 214,
    "ĵ": 215,
    "ķ": 216,
    "ļ": 217,
    "Ľ": 218,
    "ľ": 219,
    "Ł": 220,
    "ł": 221,
    "ń": 222,
    "ņ": 223,
    "ň": 224,
    "ŉ": 225,
    "Ŋ": 226,
    "ŋ": 227,
    "Ō": 228,
    "ō": 229,
    "ő": 230,
    "Œ": 231,
    "œ": 232,
    "ŗ": 233,
    "Ř": 234,
    "ř": 235,
    "Ś": 236,
    "ś": 237,
    "Ŝ": 238,
    "ŝ": 239,
    "Ş": 240,
    "ş": 241,
    "Š": 242,
    "š": 243,
    "Ţ": 244,
    "ţ": 245,
    "ť": 246,
    "ū": 247,
    "ŭ": 248,
    "ů": 249,
    "Ű": 250,
    "ű": 251,
    "ų": 252,
    "ź": 253,
    "Ż": 254,
    "ż": 255,
    "Ž": 256,
    "ž": 257,
    "Ɓ": 258,
    "Ɔ": 259,
    "Ɖ": 260,
    "Ǝ": 261,
    "Ɛ": 262,
    "Ƒ": 263,
    "ƒ": 264,
    "Ɣ": 265,
    "ơ": 266,
    "Ʃ": 267,
    "ư": 268,
    "Ʋ": 269,
    "Ʒ": 270,
    "ǐ": 271,
    "ǔ": 272,
    "ǝ": 273,
    "ǣ": 274,
    "ǧ": 275,
    "ɐ": 276,
    "ɑ": 277,
    "ɒ": 278,
    "ɓ": 279,
    "ɔ": 280,
    "ɖ": 281,
    "ə": 282,
    "ɚ": 283,
    "ɛ": 284,
    "ɝ": 285,
    "ɟ": 286,
    "ɡ": 287,
    "ɣ": 288,
    "ɥ": 289,
    "ɨ": 290,
    "ɪ": 291,
    "ɫ": 292,
    "ɬ": 293,
    "ɭ": 294,
    "ɯ": 295,
    "ɰ": 296,
    "ɲ": 297,
    "ɹ": 298,
    "ɻ": 299,
    "ɾ": 300,
    "ʀ": 301,
    "ʁ": 302,
    "ʃ": 303,
    "ʉ": 304,
    "ʊ": 305,
    "ʋ": 306,
    "ʌ": 307,
    "ʍ": 308,
    "ʎ": 309,
    "ʏ": 310,
    "ʒ": 311,
    "ʔ": 312,
    "ʕ": 313,
    "ʜ": 314,
    "ʟ": 315,
    "ʢ": 316,
    "ʤ": 317,
    "ʧ": 318,
    "ʰ": 319,
    "ʱ": 320,
    "ʲ": 321,
    "ʷ": 322,
    "ʻ": 323,
    "ʼ": 324,
    "ʽ": 325,
    "ʾ": 326,
    "ʿ": 327,
    "ˁ": 328,
    "ˆ": 329,
    "ˈ": 330,
    "ˌ": 331,
    "ː": 332,
    "ˠ": 333,
    "́": 334,
    "̃": 335,
    "̄": 336,
    "̅": 337,
    "̈": 338,
    "̍": 339,
    "̕": 340,
    "̞": 341,
    "̟": 342,
    "̣": 343,
    "̤": 344,
    "̥": 345,
    "̪": 346,
    "̯": 347,
    "̱": 348,
    "̶": 349,
    "̸": 350,
    "̽": 351,
    "͡": 352,
    "΄": 353,
    "Ά": 354,
    "Έ": 355,
    "Ί": 356,
    "Ό": 357,
    "Ώ": 358,
    "Α": 359,
    "Β": 360,
    "Γ": 361,
    "Δ": 362,
    "Ε": 363,
    "Ζ": 364,
    "Θ": 365,
    "Ι": 366,
    "Κ": 367,
    "Λ": 368,
    "Μ": 369,
    "Ν": 370,
    "Ξ": 371,
    "Ο": 372,
    "Π": 373,
    "Ρ": 374,
    "Σ": 375,
    "Τ": 376,
    "Υ": 377,
    "Φ": 378,
    "Χ": 379,
    "Ω": 380,
    "ά": 381,
    "έ": 382,
    "ή": 383,
    "ί": 384,
    "α": 385,
    "β": 386,
    "γ": 387,
    "δ": 388,
    "ε": 389,
    "ζ": 390,
    "η": 391,
    "θ": 392,
    "ι": 393,
    "κ": 394,
    "λ": 395,
    "μ": 396,
    "ν": 397,
    "ξ": 398,
    "ο": 399,
    "π": 400,
    "ρ": 401,
    "ς": 402,
    "σ": 403,
    "τ": 404,
    "υ": 405,
    "φ": 406,
    "χ": 407,
    "ψ": 408,
    "ω": 409,
    "ϊ": 410,
    "ό": 411,
    "ύ": 412,
    "ώ": 413,
    "Ђ": 414,
    "Є": 415,
    "І": 416,
    "Ј": 417,
    "А": 418,
    "Б": 419,
    "В": 420,
    "Г": 421,
    "Д": 422,
    "Е": 423,
    "Ж": 424,
    "З": 425,
    "И": 426,
    "Й": 427,
    "К": 428,
    "Л": 429,
    "М": 430,
    "Н": 431,
    "О": 432,
    "П": 433,
    "Р": 434,
    "С": 435,
    "Т": 436,
    "У": 437,
    "Ф": 438,
    "Х": 439,
    "Ц": 440,
    "Ч": 441,
    "Ш": 442,
    "Щ": 443,
    "Ъ": 444,
    "Э": 445,
    "Ю": 446,
    "Я": 447,
    "а": 448,
    "б": 449,
    "в": 450,
    "г": 451,
    "д": 452,
    "е": 453,
    "ж": 454,
    "з": 455,
    "и": 456,
    "й": 457,
    "к": 458,
    "л": 459,
    "м": 460,
    "н": 461,
    "о": 462,
    "п": 463,
    "р": 464,
    "с": 465,
    "т": 466,
    "у": 467,
    "ф": 468,
    "х": 469,
    "ц": 470,
    "ч": 471,
    "ш": 472,
    "щ": 473,
    "ъ": 474,
    "ы": 475,
    "ь": 476,
    "э": 477,
    "ю": 478,
    "я": 479,
    "ё": 480,
    "і": 481,
    "ї": 482,
    "ј": 483,
    "љ": 484,
    "њ": 485,
    "ћ": 486,
    "ў": 487,
    "џ": 488,
    "Ґ": 489,
    "ґ": 490,
    "ғ": 491,
    "ҧ": 492,
    "ҳ": 493,
    "ҷ": 494,
    "Ә": 495,
    "Ա": 496,
    "Բ": 497,
    "Գ": 498,
    "Դ": 499,
    "Ե": 500,
    "Զ": 501,
    "Է": 502,
    "Ը": 503,
    "Թ": 504,
    "Ժ": 505,
    "Ի": 506,
    "Լ": 507,
    "Խ": 508,
    "Ծ": 509,
    "Կ": 510,
    "Հ": 511,
    "Ձ": 512,
    "Ղ": 513,
    "Ճ": 514,
    "Մ": 515,
    "Յ": 516,
    "Ն": 517,
    "Շ": 518,
    "Ո": 519,
    "Չ": 520,
    "Պ": 521,
    "Ջ": 522,
    "Ռ": 523,
    "Ս": 524,
    "Վ": 525,
    "Տ": 526,
    "Ր": 527,
    "Ց": 528,
    "Ւ": 529,
    "Փ": 530,
    "Ք": 531,
    "Օ": 532,
    "Ֆ": 533,
    "ՙ": 534,
    "՚": 535,
    "՛": 536,
    "՜": 537,
    "՝": 538,
    "՞": 539,
    "՟": 540,
    "ա": 541,
    "բ": 542,
    "գ": 543,
    "դ": 544,
    "ե": 545,
    "զ": 546,
    "է": 547,
    "ը": 548,
    "թ": 549,
    "ժ": 550,
    "ի": 551,
    "լ": 552,
    "խ": 553,
    "ծ": 554,
    "կ": 555,
    "հ": 556,
    "ձ": 557,
    "ղ": 558,
    "ճ": 559,
    "մ": 560,
    "յ": 561,
    "ն": 562,
    "շ": 563,
    "ո": 564,
    "չ": 565,
    "պ": 566,
    "ջ": 567,
    "ռ": 568,
    "ս": 569,
    "վ": 570,
    "տ": 571,
    "ր": 572,
    "ց": 573,
    "ւ": 574,
    "փ": 575,
    "ք": 576,
    "օ": 577,
    "ֆ": 578,
    "և": 579,
    "։": 580,
    "֊": 581,
    "ְ": 582,
    "ֱ": 583,
    "ֲ": 584,
    "ִ": 585,
    "ֵ": 586,
    "ֶ": 587,
    "ַ": 588,
    "ָ": 589,
    "ֹ": 590,
    "ּ": 591,
    "ֿ": 592,
    "ׁ": 593,
    "א": 594,
    "ב": 595,
    "ג": 596,
    "ד": 597,
    "ה": 598,
    "ו": 599,
    "ז": 600,
    "ח": 601,
    "ט": 602,
    "י": 603,
    "ך": 604,
    "כ": 605,
    "ל": 606,
    "ם": 607,
    "מ": 608,
    "ן": 609,
    "נ": 610,
    "ס": 611,
    "ע": 612,
    "ף": 613,
    "פ": 614,
    "ץ": 615,
    "צ": 616,
    "ק": 617,
    "ר": 618,
    "ש": 619,
    "ת": 620,
    "ױ": 621,
    "،": 622,
    "ء": 623,
    "آ": 624,
    "أ": 625,
    "ؤ": 626,
    "إ": 627,
    "ئ": 628,
    "ا": 629,
    "ب": 630,
    "ة": 631,
    "ت": 632,
    "ث": 633,
    "ج": 634,
    "ح": 635,
    "خ": 636,
    "د": 637,
    "ذ": 638,
    "ر": 639,
    "ز": 640,
    "س": 641,
    "ش": 642,
    "ص": 643,
    "ض": 644,
    "ط": 645,
    "ظ": 646,
    "ع": 647,
    "غ": 648,
    "ـ": 649,
    "ف": 650,
    "ق": 651,
    "ك": 652,
    "ل": 653,
    "م": 654,
    "ن": 655,
    "ه": 656,
    "و": 657,
    "ى": 658,
    "ي": 659,
    "ً": 660,
    "ٌ": 661,
    "ٍ": 662,
    "َ": 663,
    "ُ": 664,
    "ِ": 665,
    "ّ": 666,
    "ْ": 667,
    "٠": 668,
    "١": 669,
    "٢": 670,
    "٣": 671,
    "٤": 672,
    "٥": 673,
    "٦": 674,
    "٧": 675,
    "٨": 676,
    "٩": 677,
    "ٹ": 678,
    "پ": 679,
    "چ": 680,
    "ڈ": 681,
    "ډ": 682,
    "ژ": 683,
    "ک": 684,
    "گ": 685,
    "ہ": 686,
    "ی": 687,
    "ې": 688,
    "ے": 689,
    "۰": 690,
    "۱": 691,
    "۲": 692,
    "۳": 693,
    "۴": 694,
    "۵": 695,
    "۶": 696,
    "۷": 697,
    "۸": 698,
    "۹": 699,
    "ܐ": 700,
    "ܘ": 701,
    "ܝ": 702,
    "ܡ": 703,
    "ܪ": 704,
    "ܬ": 705,
    "ँ": 706,
    "ं": 707,
    "ः": 708,
    "अ": 709,
    "आ": 710,
    "इ": 711,
    "ई": 712,
    "ऍ": 713,
    "ए": 714,
    "ऑ": 715,
    "क": 716,
    "ग": 717,
    "च": 718,
    "ज": 719,
    "झ": 720,
    "ञ": 721,
    "ट": 722,
    "ड": 723,
    "त": 724,
    "थ": 725,
    "द": 726,
    "ध": 727,
    "न": 728,
    "प": 729,
    "फ": 730,
    "ब": 731,
    "भ": 732,
    "म": 733,
    "य": 734,
    "र": 735,
    "ल": 736,
    "व": 737,
    "श": 738,
    "ष": 739,
    "स": 740,
    "ह": 741,
    "़": 742,
    "ा": 743,
    "ि": 744,
    "ी": 745,
    "ु": 746,
    "ू": 747,
    "ृ": 748,
    "ॅ": 749,
    "े": 750,
    "ै": 751,
    "ो": 752,
    "्": 753,
    "ঁ": 754,
    "ং": 755,
    "অ": 756,
    "আ": 757,
    "ই": 758,
    "উ": 759,
    "এ": 760,
    "ও": 761,
    "ক": 762,
    "খ": 763,
    "গ": 764,
    "ঙ": 765,
    "চ": 766,
    "জ": 767,
    "ট": 768,
    "ড": 769,
    "ঢ": 770,
    "ণ": 771,
    "ত": 772,
    "থ": 773,
    "দ": 774,
    "ন": 775,
    "প": 776,
    "ফ": 777,
    "ব": 778,
    "ভ": 779,
    "ম": 780,
    "য": 781,
    "র": 782,
    "ল": 783,
    "শ": 784,
    "ষ": 785,
    "স": 786,
    "হ": 787,
    "়": 788,
    "া": 789,
    "ি": 790,
    "ী": 791,
    "ু": 792,
    "ূ": 793,
    "ৃ": 794,
    "ে": 795,
    "ো": 796,
    "্": 797,
    "ਗ": 798,
    "ਭ": 799,
    "ਾ": 800,
    "ੜ": 801,
    "ੰ": 802,
    "ં": 803,
    "અ": 804,
    "આ": 805,
    "ઍ": 806,
    "એ": 807,
    "ક": 808,
    "ઘ": 809,
    "ચ": 810,
    "ટ": 811,
    "ત": 812,
    "દ": 813,
    "ધ": 814,
    "ન": 815,
    "પ": 816,
    "ફ": 817,
    "બ": 818,
    "ભ": 819,
    "મ": 820,
    "ય": 821,
    "ર": 822,
    "ળ": 823,
    "શ": 824,
    "ષ": 825,
    "સ": 826,
    "હ": 827,
    "ા": 828,
    "િ": 829,
    "ી": 830,
    "ુ": 831,
    "ે": 832,
    "ો": 833,
    "્": 834,
    "அ": 835,
    "ஆ": 836,
    "ஈ": 837,
    "உ": 838,
    "எ": 839,
    "ஏ": 840,
    "ஐ": 841,
    "ஒ": 842,
    "க": 843,
    "ங": 844,
    "ச": 845,
    "ஜ": 846,
    "ட": 847,
    "ண": 848,
    "த": 849,
    "ந": 850,
    "ன": 851,
    "ப": 852,
    "ம": 853,
    "ய": 854,
    "ர": 855,
    "ற": 856,
    "ல": 857,
    "ள": 858,
    "ழ": 859,
    "வ": 860,
    "ஷ": 861,
    "ஸ": 862,
    "ஹ": 863,
    "ா": 864,
    "ி": 865,
    "ீ": 866,
    "ு": 867,
    "ூ": 868,
    "ெ": 869,
    "ே": 870,
    "ை": 871,
    "ொ": 872,
    "ோ": 873,
    "ௌ": 874,
    "்": 875,
    "ం": 876,
    "ఆ": 877,
    "ఏ": 878,
    "గ": 879,
    "ట": 880,
    "త": 881,
    "ద": 882,
    "ధ": 883,
    "ప": 884,
    "బ": 885,
    "ర": 886,
    "ల": 887,
    "శ": 888,
    "ష": 889,
    "ా": 890,
    "ి": 891,
    "ు": 892,
    "ె": 893,
    "ే": 894,
    "్": 895,
    "ಂ": 896,
    "ಅ": 897,
    "ಆ": 898,
    "ಎ": 899,
    "ಐ": 900,
    "ಕ": 901,
    "ಗ": 902,
    "ಜ": 903,
    "ಟ": 904,
    "ಡ": 905,
    "ಣ": 906,
    "ತ": 907,
    "ದ": 908,
    "ಧ": 909,
    "ನ": 910,
    "ಪ": 911,
    "ಫ": 912,
    "ಬ": 913,
    "ಭ": 914,
    "ಯ": 915,
    "ರ": 916,
    "ಲ": 917,
    "ವ": 918,
    "ಶ": 919,
    "ಷ": 920,
    "ಸ": 921,
    "ಾ": 922,
    "ಿ": 923,
    "ೀ": 924,
    "ು": 925,
    "ೆ": 926,
    "ೇ": 927,
    "ೊ": 928,
    "ೋ": 929,
    "್": 930,
    "೦": 931,
    "೧": 932,
    "೨": 933,
    "೪": 934,
    "೫": 935,
    "അ": 936,
    "ആ": 937,
    "ഗ": 938,
    "ഥ": 939,
    "ന": 940,
    "ഫ": 941,
    "ബ": 942,
    "റ": 943,
    "ള": 944,
    "സ": 945,
    "ാ": 946,
    "ി": 947,
    "ൈ": 948,
    "്": 949,
    "ก": 950,
    "ข": 951,
    "ค": 952,
    "ง": 953,
    "จ": 954,
    "ช": 955,
    "ซ": 956,
    "ญ": 957,
    "ฏ": 958,
    "ฐ": 959,
    "ณ": 960,
    "ด": 961,
    "ต": 962,
    "ถ": 963,
    "ท": 964,
    "ธ": 965,
    "น": 966,
    "บ": 967,
    "ป": 968,
    "ผ": 969,
    "พ": 970,
    "ฟ": 971,
    "ภ": 972,
    "ม": 973,
    "ย": 974,
    "ร": 975,
    "ฤ": 976,
    "ล": 977,
    "ว": 978,
    "ศ": 979,
    "ษ": 980,
    "ส": 981,
    "ห": 982,
    "อ": 983,
    "ฮ": 984,
    "ะ": 985,
    "ั": 986,
    "า": 987,
    "ำ": 988,
    "ิ": 989,
    "ี": 990,
    "ึ": 991,
    "ื": 992,
    "ุ": 993,
    "ู": 994,
    "ฺ": 995,
    "เ": 996,
    "แ": 997,
    "โ": 998,
    "ไ": 999,
    "็": 1000,
    "่": 1001,
    "้": 1002,
    "์": 1003,
    "་": 1004,
    "བ": 1005,
    "ྱ": 1006,
    "က": 1007,
    "တ": 1008,
    "ရ": 1009,
    "ဟ": 1010,
    "အ": 1011,
    "ာ": 1012,
    "ိ": 1013,
    "ု": 1014,
    "္": 1015,
    "ა": 1016,
    "ბ": 1017,
    "გ": 1018,
    "დ": 1019,
    "ე": 1020,
    "ვ": 1021,
    "ზ": 1022,
    "თ": 1023,
    "ი": 1024,
    "კ": 1025,
    "ლ": 1026,
    "მ": 1027,
    "ნ": 1028,
    "ო": 1029,
    "პ": 1030,
    "ჟ": 1031,
    "რ": 1032,
    "ს": 1033,
    "ტ": 1034,
    "უ": 1035,
    "ფ": 1036,
    "ქ": 1037,
    "ღ": 1038,
    "ყ": 1039,
    "შ": 1040,
    "ჩ": 1041,
    "ც": 1042,
    "ძ": 1043,
    "წ": 1044,
    "ხ": 1045,
    "ჯ": 1046,
    "ჰ": 1047,
    "ሀ": 1048,
    "ሁ": 1049,
    "ሂ": 1050,
    "ሃ": 1051,
    "ህ": 1052,
    "ሊ": 1053,
    "ላ": 1054,
    "ል": 1055,
    "ሕ": 1056,
    "ም": 1057,
    "ሪ": 1058,
    "ራ": 1059,
    "ር": 1060,
    "ስ": 1061,
    "ሶ": 1062,
    "ቃ": 1063,
    "ቡ": 1064,
    "ቢ": 1065,
    "ብ": 1066,
    "ቦ": 1067,
    "ተ": 1068,
    "ት": 1069,
    "ና": 1070,
    "ን": 1071,
    "አ": 1072,
    "ኪ": 1073,
    "ክ": 1074,
    "ዋ": 1075,
    "ዚ": 1076,
    "ያ": 1077,
    "ይ": 1078,
    "ዳ": 1079,
    "ጄ": 1080,
    "ጊ": 1081,
    "ጎ": 1082,
    "ፋ": 1083,
    "ፍ": 1084,
    "Ꭰ": 1085,
    "Ꭲ": 1086,
    "Ꭴ": 1087,
    "Ꮃ": 1088,
    "Ꮇ": 1089,
    "Ꮈ": 1090,
    "Ꮑ": 1091,
    "Ꮒ": 1092,
    "Ꮕ": 1093,
    "Ꮖ": 1094,
    "Ꮗ": 1095,
    "Ꮙ": 1096,
    "Ꮝ": 1097,
    "Ꮢ": 1098,
    "Ꮵ": 1099,
    "Ꮺ": 1100,
    "Ꮿ": 1101,
    "ᐅ": 1102,
    "ᐆ": 1103,
    "ᐊ": 1104,
    "ᐱ": 1105,
    "ᐳ": 1106,
    "ᐸ": 1107,
    "ᑎ": 1108,
    "ᑐ": 1109,
    "ᑕ": 1110,
    "ᑦ": 1111,
    "ᑯ": 1112,
    "ᑲ": 1113,
    "ᒃ": 1114,
    "ᒋ": 1115,
    "ᒥ": 1116,
    "ᒪ": 1117,
    "ᓂ": 1118,
    "ᓇ": 1119,
    "ᓕ": 1120,
    "ᓗ": 1121,
    "ᓛ": 1122,
    "ᓪ": 1123,
    "ᓯ": 1124,
    "ᓰ": 1125,
    "ᓱ": 1126,
    "ᓴ": 1127,
    "ᔅ": 1128,
    "ᕆ": 1129,
    "ᕈ": 1130,
    "ᕐ": 1131,
    "ᖃ": 1132,
    "ᖅ": 1133,
    "ជ": 1134,
    "ទ": 1135,
    "យ": 1136,
    "វ": 1137,
    "ា": 1138,
    "ិ": 1139,
    "ី": 1140,
    "្": 1141,
    "ḇ": 1142,
    "ḍ": 1143,
    "ḏ": 1144,
    "Ḥ": 1145,
    "ḥ": 1146,
    "ḫ": 1147,
    "Ḳ": 1148,
    "ḳ": 1149,
    "ḵ": 1150,
    "ṅ": 1151,
    "Ṉ": 1152,
    "ṛ": 1153,
    "Ṣ": 1154,
    "ṣ": 1155,
    "Ṭ": 1156,
    "ṭ": 1157,
    "ṯ": 1158,
    "ẓ": 1159,
    "ẗ": 1160,
    "ạ": 1161,
    "Ả": 1162,
    "ả": 1163,
    "ấ": 1164,
    "ầ": 1165,
    "ẫ": 1166,
    "ậ": 1167,
    "ắ": 1168,
    "ế": 1169,
    "ề": 1170,
    "ể": 1171,
    "ễ": 1172,
    "ệ": 1173,
    "ỉ": 1174,
    "ị": 1175,
    "ọ": 1176,
    "ố": 1177,
    "ồ": 1178,
    "ổ": 1179,
    "ộ": 1180,
    "ớ": 1181,
    "ờ": 1182,
    "ở": 1183,
    "ợ": 1184,
    "ụ": 1185,
    "ủ": 1186,
    "ứ": 1187,
    "ừ": 1188,
    "ử": 1189,
    "ữ": 1190,
    "ự": 1191,
    "ỳ": 1192,
    "ỹ": 1193,
    "ἀ": 1194,
    "ἁ": 1195,
    "ἂ": 1196,
    "ἃ": 1197,
    "ἄ": 1198,
    "Ἀ": 1199,
    "Ἁ": 1200,
    "Ἄ": 1201,
    "ἐ": 1202,
    "ἑ": 1203,
    "ἔ": 1204,
    "ἡ": 1205,
    "ἣ": 1206,
    "ἰ": 1207,
    "ἱ": 1208,
    "ἴ": 1209,
    "ἶ": 1210,
    "Ἱ": 1211,
    "ὀ": 1212,
    "ὁ": 1213,
    "ὃ": 1214,
    "ὐ": 1215,
    "ὑ": 1216,
    "ὔ": 1217,
    "ὠ": 1218,
    "ὰ": 1219,
    "ὲ": 1220,
    "ὴ": 1221,
    "ὸ": 1222,
    "ὺ": 1223,
    "ᾱ": 1224,
    "ᾶ": 1225,
    "ᾷ": 1226,
    "ῆ": 1227,
    "ῖ": 1228,
    "ῥ": 1229,
    "ῦ": 1230,
    "Ῥ": 1231,
    "῾": 1232,
    "‌": 1233,
    "‍": 1234,
    "‎": 1235,
    "‐": 1236,
    "–": 1237,
    "—": 1238,
    "‘": 1239,
    "’": 1240,
    "“": 1241,
    "”": 1242,
    "†": 1243,
    "•": 1244,
    "…": 1245,
    " ": 1246,
    "′": 1247,
    "″": 1248,
    "‹": 1249,
    "›": 1250,
    "⁼": 1251,
    "ⁿ": 1252,
    "₁": 1253,
    "€": 1254,
    "™": 1255,
    "←": 1256,
    "→": 1257,
    "↵": 1258,
    "∀": 1259,
    "∑": 1260,
    "−": 1261,
    "∞": 1262,
    "∴": 1263,
    "≈": 1264,
    "≠": 1265,
    "⍋": 1266,
    "▀": 1267,
    "▄": 1268,
    "█": 1269,
    "○": 1270,
    "●": 1271,
    "♈": 1272,
    "♒": 1273,
    "♥": 1274,
    "　": 1275,
    "あ": 1276,
    "い": 1277,
    "う": 1278,
    "お": 1279,
    "か": 1280,
    "が": 1281,
    "き": 1282,
    "く": 1283,
    "け": 1284,
    "こ": 1285,
    "さ": 1286,
    "じ": 1287,
    "す": 1288,
    "ず": 1289,
    "そ": 1290,
    "だ": 1291,
    "ち": 1292,
    "つ": 1293,
    "と": 1294,
    "ど": 1295,
    "の": 1296,
    "ば": 1297,
    "ひ": 1298,
    "ふ": 1299,
    "み": 1300,
    "め": 1301,
    "ゆ": 1302,
    "ょ": 1303,
    "ら": 1304,
    "り": 1305,
    "る": 1306,
    "れ": 1307,
    "ろ": 1308,
    "を": 1309,
    "ん": 1310,
    "ァ": 1311,
    "ア": 1312,
    "ィ": 1313,
    "イ": 1314,
    "ゥ": 1315,
    "ウ": 1316,
    "ェ": 1317,
    "エ": 1318,
    "ォ": 1319,
    "オ": 1320,
    "カ": 1321,
    "ガ": 1322,
    "キ": 1323,
    "ギ": 1324,
    "ク": 1325,
    "グ": 1326,
    "ケ": 1327,
    "ゲ": 1328,
    "コ": 1329,
    "ゴ": 1330,
    "サ": 1331,
    "ザ": 1332,
    "シ": 1333,
    "ジ": 1334,
    "ス": 1335,
    "ズ": 1336,
    "セ": 1337,
    "ゼ": 1338,
    "ソ": 1339,
    "ゾ": 1340,
    "タ": 1341,
    "ダ": 1342,
    "チ": 1343,
    "ッ": 1344,
    "ツ": 1345,
    "テ": 1346,
    "デ": 1347,
    "ト": 1348,
    "ド": 1349,
    "ナ": 1350,
    "ニ": 1351,
    "ヌ": 1352,
    "ネ": 1353,
    "ノ": 1354,
    "ハ": 1355,
    "バ": 1356,
    "パ": 1357,
    "ヒ": 1358,
    "ビ": 1359,
    "ピ": 1360,
    "フ": 1361,
    "ブ": 1362,
    "プ": 1363,
    "ヘ": 1364,
    "ベ": 1365,
    "ペ": 1366,
    "ホ": 1367,
    "ボ": 1368,
    "ポ": 1369,
    "マ": 1370,
    "ミ": 1371,
    "ム": 1372,
    "メ": 1373,
    "モ": 1374,
    "ャ": 1375,
    "ヤ": 1376,
    "ュ": 1377,
    "ユ": 1378,
    "ョ": 1379,
    "ヨ": 1380,
    "ラ": 1381,
    "リ": 1382,
    "ル": 1383,
    "レ": 1384,
    "ロ": 1385,
    "ワ": 1386,
    "ン": 1387,
    "ヴ": 1388,
    "・": 1389,
    "ー": 1390,
    "一": 1391,
    "丁": 1392,
    "三": 1393,
    "上": 1394,
    "下": 1395,
    "不": 1396,
    "世": 1397,
    "丘": 1398,
    "丙": 1399,
    "业": 1400,
    "东": 1401,
    "両": 1402,
    "两": 1403,
    "中": 1404,
    "丹": 1405,
    "主": 1406,
    "丽": 1407,
    "久": 1408,
    "义": 1409,
    "乐": 1410,
    "乙": 1411,
    "九": 1412,
    "争": 1413,
    "事": 1414,
    "二": 1415,
    "五": 1416,
    "亚": 1417,
    "亜": 1418,
    "亞": 1419,
    "亡": 1420,
    "交": 1421,
    "亨": 1422,
    "亩": 1423,
    "京": 1424,
    "亲": 1425,
    "人": 1426,
    "什": 1427,
    "仁": 1428,
    "他": 1429,
    "代": 1430,
    "令": 1431,
    "件": 1432,
    "伊": 1433,
    "会": 1434,
    "伝": 1435,
    "伞": 1436,
    "传": 1437,
    "伦": 1438,
    "伯": 1439,
    "伴": 1440,
    "伽": 1441,
    "位": 1442,
    "佐": 1443,
    "体": 1444,
    "何": 1445,
    "余": 1446,
    "佛": 1447,
    "作": 1448,
    "使": 1449,
    "依": 1450,
    "俄": 1451,
    "俊": 1452,
    "保": 1453,
    "信": 1454,
    "修": 1455,
    "俱": 1456,
    "俳": 1457,
    "候": 1458,
    "値": 1459,
    "值": 1460,
    "側": 1461,
    "偵": 1462,
    "偽": 1463,
    "傅": 1464,
    "備": 1465,
    "傳": 1466,
    "傻": 1467,
    "像": 1468,
    "優": 1469,
    "元": 1470,
    "兄": 1471,
    "先": 1472,
    "光": 1473,
    "克": 1474,
    "免": 1475,
    "全": 1476,
    "八": 1477,
    "公": 1478,
    "六": 1479,
    "兰": 1480,
    "共": 1481,
    "关": 1482,
    "兵": 1483,
    "典": 1484,
    "兹": 1485,
    "再": 1486,
    "军": 1487,
    "农": 1488,
    "冬": 1489,
    "冰": 1490,
    "准": 1491,
    "凋": 1492,
    "几": 1493,
    "凯": 1494,
    "凱": 1495,
    "击": 1496,
    "函": 1497,
    "分": 1498,
    "切": 1499,
    "划": 1500,
    "列": 1501,
    "別": 1502,
    "利": 1503,
    "制": 1504,
    "刺": 1505,
    "剂": 1506,
    "則": 1507,
    "前": 1508,
    "剖": 1509,
    "剣": 1510,
    "剤": 1511,
    "副": 1512,
    "劇": 1513,
    "劉": 1514,
    "力": 1515,
    "加": 1516,
    "动": 1517,
    "努": 1518,
    "劫": 1519,
    "勃": 1520,
    "勇": 1521,
    "勒": 1522,
    "動": 1523,
    "勸": 1524,
    "匈": 1525,
    "化": 1526,
    "北": 1527,
    "匹": 1528,
    "区": 1529,
    "医": 1530,
    "區": 1531,
    "十": 1532,
    "千": 1533,
    "午": 1534,
    "半": 1535,
    "华": 1536,
    "协": 1537,
    "卑": 1538,
    "協": 1539,
    "南": 1540,
    "単": 1541,
    "博": 1542,
    "卜": 1543,
    "占": 1544,
    "卡": 1545,
    "卫": 1546,
    "印": 1547,
    "历": 1548,
    "原": 1549,
    "及": 1550,
    "友": 1551,
    "反": 1552,
    "収": 1553,
    "发": 1554,
    "叔": 1555,
    "变": 1556,
    "口": 1557,
    "古": 1558,
    "可": 1559,
    "台": 1560,
    "号": 1561,
    "司": 1562,
    "合": 1563,
    "吉": 1564,
    "同": 1565,
    "名": 1566,
    "向": 1567,
    "含": 1568,
    "启": 1569,
    "告": 1570,
    "员": 1571,
    "和": 1572,
    "哈": 1573,
    "响": 1574,
    "員": 1575,
    "哥": 1576,
    "哲": 1577,
    "唧": 1578,
    "唱": 1579,
    "啤": 1580,
    "喜": 1581,
    "單": 1582,
    "嘉": 1583,
    "器": 1584,
    "四": 1585,
    "回": 1586,
    "因": 1587,
    "団": 1588,
    "园": 1589,
    "国": 1590,
    "图": 1591,
    "國": 1592,
    "圍": 1593,
    "園": 1594,
    "在": 1595,
    "圭": 1596,
    "地": 1597,
    "坂": 1598,
    "均": 1599,
    "坎": 1600,
    "坛": 1601,
    "坦": 1602,
    "埃": 1603,
    "城": 1604,
    "域": 1605,
    "培": 1606,
    "基": 1607,
    "堕": 1608,
    "堡": 1609,
    "報": 1610,
    "場": 1611,
    "塔": 1612,
    "塞": 1613,
    "塩": 1614,
    "墨": 1615,
    "壁": 1616,
    "壊": 1617,
    "士": 1618,
    "声": 1619,
    "备": 1620,
    "変": 1621,
    "外": 1622,
    "多": 1623,
    "大": 1624,
    "天": 1625,
    "太": 1626,
    "夫": 1627,
    "失": 1628,
    "奇": 1629,
    "奏": 1630,
    "契": 1631,
    "奖": 1632,
    "奥": 1633,
    "奧": 1634,
    "奪": 1635,
    "女": 1636,
    "奴": 1637,
    "妊": 1638,
    "妮": 1639,
    "姆": 1640,
    "始": 1641,
    "威": 1642,
    "娜": 1643,
    "娠": 1644,
    "媽": 1645,
    "子": 1646,
    "孔": 1647,
    "字": 1648,
    "存": 1649,
    "孙": 1650,
    "孟": 1651,
    "季": 1652,
    "学": 1653,
    "學": 1654,
    "宁": 1655,
    "宇": 1656,
    "安": 1657,
    "宗": 1658,
    "官": 1659,
    "宙": 1660,
    "定": 1661,
    "实": 1662,
    "実": 1663,
    "客": 1664,
    "室": 1665,
    "宴": 1666,
    "家": 1667,
    "容": 1668,
    "宾": 1669,
    "宿": 1670,
    "密": 1671,
    "富": 1672,
    "寒": 1673,
    "寶": 1674,
    "对": 1675,
    "対": 1676,
    "射": 1677,
    "對": 1678,
    "小": 1679,
    "少": 1680,
    "尔": 1681,
    "尤": 1682,
    "尼": 1683,
    "尾": 1684,
    "屄": 1685,
    "屋": 1686,
    "属": 1687,
    "屬": 1688,
    "山": 1689,
    "岛": 1690,
    "島": 1691,
    "崩": 1692,
    "川": 1693,
    "州": 1694,
    "工": 1695,
    "巫": 1696,
    "差": 1697,
    "巴": 1698,
    "市": 1699,
    "布": 1700,
    "师": 1701,
    "希": 1702,
    "帝": 1703,
    "師": 1704,
    "常": 1705,
    "幅": 1706,
    "平": 1707,
    "年": 1708,
    "幹": 1709,
    "幾": 1710,
    "广": 1711,
    "広": 1712,
    "庄": 1713,
    "序": 1714,
    "库": 1715,
    "应": 1716,
    "府": 1717,
    "度": 1718,
    "座": 1719,
    "庭": 1720,
    "廣": 1721,
    "廷": 1722,
    "建": 1723,
    "异": 1724,
    "式": 1725,
    "弗": 1726,
    "弟": 1727,
    "张": 1728,
    "弥": 1729,
    "弦": 1730,
    "強": 1731,
    "当": 1732,
    "录": 1733,
    "形": 1734,
    "影": 1735,
    "律": 1736,
    "後": 1737,
    "徒": 1738,
    "得": 1739,
    "德": 1740,
    "心": 1741,
    "忒": 1742,
    "応": 1743,
    "性": 1744,
    "恩": 1745,
    "息": 1746,
    "情": 1747,
    "惑": 1748,
    "惡": 1749,
    "愛": 1750,
    "慕": 1751,
    "懶": 1752,
    "懷": 1753,
    "戈": 1754,
    "戏": 1755,
    "成": 1756,
    "战": 1757,
    "戦": 1758,
    "戰": 1759,
    "所": 1760,
    "手": 1761,
    "扎": 1762,
    "托": 1763,
    "承": 1764,
    "抑": 1765,
    "抗": 1766,
    "択": 1767,
    "抽": 1768,
    "拉": 1769,
    "拔": 1770,
    "拜": 1771,
    "拟": 1772,
    "振": 1773,
    "捷": 1774,
    "探": 1775,
    "接": 1776,
    "推": 1777,
    "掲": 1778,
    "提": 1779,
    "搞": 1780,
    "摆": 1781,
    "摩": 1782,
    "撃": 1783,
    "播": 1784,
    "擊": 1785,
    "擬": 1786,
    "攻": 1787,
    "放": 1788,
    "政": 1789,
    "教": 1790,
    "散": 1791,
    "敦": 1792,
    "数": 1793,
    "數": 1794,
    "文": 1795,
    "斎": 1796,
    "料": 1797,
    "断": 1798,
    "斯": 1799,
    "新": 1800,
    "方": 1801,
    "施": 1802,
    "旋": 1803,
    "族": 1804,
    "无": 1805,
    "日": 1806,
    "时": 1807,
    "昂": 1808,
    "昌": 1809,
    "明": 1810,
    "星": 1811,
    "映": 1812,
    "昧": 1813,
    "昭": 1814,
    "昱": 1815,
    "時": 1816,
    "普": 1817,
    "智": 1818,
    "暗": 1819,
    "暦": 1820,
    "曖": 1821,
    "曲": 1822,
    "書": 1823,
    "曼": 1824,
    "替": 1825,
    "會": 1826,
    "月": 1827,
    "朗": 1828,
    "期": 1829,
    "木": 1830,
    "本": 1831,
    "札": 1832,
    "术": 1833,
    "朱": 1834,
    "机": 1835,
    "权": 1836,
    "李": 1837,
    "杜": 1838,
    "条": 1839,
    "来": 1840,
    "杨": 1841,
    "杰": 1842,
    "東": 1843,
    "松": 1844,
    "板": 1845,
    "极": 1846,
    "析": 1847,
    "林": 1848,
    "果": 1849,
    "枪": 1850,
    "枯": 1851,
    "柏": 1852,
    "柔": 1853,
    "查": 1854,
    "柯": 1855,
    "柱": 1856,
    "标": 1857,
    "树": 1858,
    "栖": 1859,
    "根": 1860,
    "格": 1861,
    "桑": 1862,
    "棉": 1863,
    "棋": 1864,
    "森": 1865,
    "植": 1866,
    "業": 1867,
    "極": 1868,
    "楽": 1869,
    "樂": 1870,
    "模": 1871,
    "権": 1872,
    "樹": 1873,
    "橄": 1874,
    "橋": 1875,
    "機": 1876,
    "欖": 1877,
    "欢": 1878,
    "歌": 1879,
    "歐": 1880,
    "正": 1881,
    "步": 1882,
    "歷": 1883,
    "死": 1884,
    "殺": 1885,
    "母": 1886,
    "比": 1887,
    "毕": 1888,
    "毛": 1889,
    "民": 1890,
    "气": 1891,
    "気": 1892,
    "氣": 1893,
    "氧": 1894,
    "氨": 1895,
    "氩": 1896,
    "水": 1897,
    "汀": 1898,
    "汇": 1899,
    "汉": 1900,
    "汗": 1901,
    "汽": 1902,
    "沃": 1903,
    "沙": 1904,
    "沢": 1905,
    "河": 1906,
    "油": 1907,
    "治": 1908,
    "法": 1909,
    "波": 1910,
    "泰": 1911,
    "泳": 1912,
    "洋": 1913,
    "洗": 1914,
    "洛": 1915,
    "洲": 1916,
    "派": 1917,
    "流": 1918,
    "浩": 1919,
    "海": 1920,
    "涎": 1921,
    "渐": 1922,
    "港": 1923,
    "游": 1924,
    "滋": 1925,
    "滕": 1926,
    "漁": 1927,
    "演": 1928,
    "漠": 1929,
    "澤": 1930,
    "澳": 1931,
    "瀉": 1932,
    "火": 1933,
    "灰": 1934,
    "灵": 1935,
    "灸": 1936,
    "炎": 1937,
    "炔": 1938,
    "炭": 1939,
    "炮": 1940,
    "炸": 1941,
    "炼": 1942,
    "烃": 1943,
    "烈": 1944,
    "烏": 1945,
    "烯": 1946,
    "烷": 1947,
    "烹": 1948,
    "烽": 1949,
    "無": 1950,
    "然": 1951,
    "熱": 1952,
    "燕": 1953,
    "爆": 1954,
    "爭": 1955,
    "爱": 1956,
    "爾": 1957,
    "牆": 1958,
    "牙": 1959,
    "物": 1960,
    "特": 1961,
    "犬": 1962,
    "犹": 1963,
    "狄": 1964,
    "独": 1965,
    "獄": 1966,
    "獨": 1967,
    "王": 1968,
    "现": 1969,
    "玻": 1970,
    "珀": 1971,
    "珍": 1972,
    "班": 1973,
    "現": 1974,
    "球": 1975,
    "理": 1976,
    "琉": 1977,
    "琛": 1978,
    "琥": 1979,
    "琴": 1980,
    "瑞": 1981,
    "瑟": 1982,
    "瑪": 1983,
    "瓜": 1984,
    "瓦": 1985,
    "瓶": 1986,
    "生": 1987,
    "用": 1988,
    "田": 1989,
    "由": 1990,
    "甲": 1991,
    "电": 1992,
    "男": 1993,
    "画": 1994,
    "界": 1995,
    "畢": 1996,
    "番": 1997,
    "疆": 1998,
    "疗": 1999,
    "疣": 2000,
    "疫": 2001,
    "病": 2002,
    "症": 2003,
    "療": 2004,
    "発": 2005,
    "登": 2006,
    "白": 2007,
    "百": 2008,
    "的": 2009,
    "皇": 2010,
    "皮": 2011,
    "盔": 2012,
    "盘": 2013,
    "盛": 2014,
    "盟": 2015,
    "目": 2016,
    "相": 2017,
    "県": 2018,
    "着": 2019,
    "知": 2020,
    "石": 2021,
    "砂": 2022,
    "研": 2023,
    "砲": 2024,
    "砷": 2025,
    "砹": 2026,
    "硬": 2027,
    "碱": 2028,
    "磷": 2029,
    "示": 2030,
    "礼": 2031,
    "社": 2032,
    "祖": 2033,
    "神": 2034,
    "祭": 2035,
    "离": 2036,
    "秋": 2037,
    "科": 2038,
    "积": 2039,
    "称": 2040,
    "程": 2041,
    "積": 2042,
    "穴": 2043,
    "究": 2044,
    "空": 2045,
    "突": 2046,
    "窒": 2047,
    "窟": 2048,
    "立": 2049,
    "第": 2050,
    "等": 2051,
    "筋": 2052,
    "筑": 2053,
    "筒": 2054,
    "算": 2055,
    "管": 2056,
    "箭": 2057,
    "箱": 2058,
    "節": 2059,
    "築": 2060,
    "米": 2061,
    "类": 2062,
    "粒": 2063,
    "精": 2064,
    "系": 2065,
    "紀": 2066,
    "約": 2067,
    "納": 2068,
    "級": 2069,
    "素": 2070,
    "索": 2071,
    "紧": 2072,
    "累": 2073,
    "細": 2074,
    "組": 2075,
    "結": 2076,
    "絕": 2077,
    "絶": 2078,
    "經": 2079,
    "継": 2080,
    "維": 2081,
    "綱": 2082,
    "綴": 2083,
    "綿": 2084,
    "線": 2085,
    "縮": 2086,
    "織": 2087,
    "纪": 2088,
    "纳": 2089,
    "线": 2090,
    "组": 2091,
    "细": 2092,
    "结": 2093,
    "绝": 2094,
    "统": 2095,
    "维": 2096,
    "编": 2097,
    "缩": 2098,
    "缪": 2099,
    "罕": 2100,
    "罗": 2101,
    "羅": 2102,
    "羊": 2103,
    "美": 2104,
    "群": 2105,
    "義": 2106,
    "翁": 2107,
    "考": 2108,
    "者": 2109,
    "耐": 2110,
    "耶": 2111,
    "聖": 2112,
    "肉": 2113,
    "肌": 2114,
    "肛": 2115,
    "肢": 2116,
    "肩": 2117,
    "肯": 2118,
    "育": 2119,
    "背": 2120,
    "胎": 2121,
    "胞": 2122,
    "胺": 2123,
    "能": 2124,
    "脇": 2125,
    "脈": 2126,
    "脑": 2127,
    "脱": 2128,
    "脳": 2129,
    "腊": 2130,
    "腎": 2131,
    "腺": 2132,
    "膠": 2133,
    "臥": 2134,
    "自": 2135,
    "致": 2136,
    "舌": 2137,
    "舞": 2138,
    "航": 2139,
    "舰": 2140,
    "艦": 2141,
    "色": 2142,
    "艺": 2143,
    "艾": 2144,
    "节": 2145,
    "芝": 2146,
    "芦": 2147,
    "芬": 2148,
    "花": 2149,
    "芳": 2150,
    "芸": 2151,
    "苋": 2152,
    "苏": 2153,
    "苯": 2154,
    "英": 2155,
    "苷": 2156,
    "苹": 2157,
    "范": 2158,
    "茲": 2159,
    "茵": 2160,
    "草": 2161,
    "荟": 2162,
    "药": 2163,
    "荷": 2164,
    "莉": 2165,
    "莎": 2166,
    "莫": 2167,
    "莱": 2168,
    "菊": 2169,
    "菌": 2170,
    "菜": 2171,
    "萄": 2172,
    "萎": 2173,
    "营": 2174,
    "萨": 2175,
    "葉": 2176,
    "葡": 2177,
    "蒂": 2178,
    "蒙": 2179,
    "蒲": 2180,
    "蓋": 2181,
    "薩": 2182,
    "薫": 2183,
    "薬": 2184,
    "藏": 2185,
    "藻": 2186,
    "蘭": 2187,
    "虎": 2188,
    "蚁": 2189,
    "蚂": 2190,
    "蛇": 2191,
    "蟲": 2192,
    "血": 2193,
    "行": 2194,
    "術": 2195,
    "衛": 2196,
    "表": 2197,
    "衰": 2198,
    "装": 2199,
    "裔": 2200,
    "複": 2201,
    "西": 2202,
    "見": 2203,
    "観": 2204,
    "角": 2205,
    "解": 2206,
    "言": 2207,
    "計": 2208,
    "記": 2209,
    "設": 2210,
    "訴": 2211,
    "訶": 2212,
    "詞": 2213,
    "話": 2214,
    "語": 2215,
    "説": 2216,
    "調": 2217,
    "論": 2218,
    "諸": 2219,
    "議": 2220,
    "變": 2221,
    "计": 2222,
    "论": 2223,
    "设": 2224,
    "该": 2225,
    "语": 2226,
    "说": 2227,
    "诺": 2228,
    "象": 2229,
    "豬": 2230,
    "貝": 2231,
    "財": 2232,
    "資": 2233,
    "賞": 2234,
    "質": 2235,
    "賽": 2236,
    "贝": 2237,
    "负": 2238,
    "贡": 2239,
    "质": 2240,
    "赤": 2241,
    "赦": 2242,
    "赫": 2243,
    "赵": 2244,
    "超": 2245,
    "足": 2246,
    "跃": 2247,
    "路": 2248,
    "車": 2249,
    "軍": 2250,
    "輸": 2251,
    "輻": 2252,
    "车": 2253,
    "轨": 2254,
    "转": 2255,
    "轰": 2256,
    "辛": 2257,
    "辞": 2258,
    "農": 2259,
    "达": 2260,
    "迈": 2261,
    "运": 2262,
    "近": 2263,
    "进": 2264,
    "迦": 2265,
    "迪": 2266,
    "述": 2267,
    "送": 2268,
    "逊": 2269,
    "逐": 2270,
    "通": 2271,
    "速": 2272,
    "造": 2273,
    "運": 2274,
    "過": 2275,
    "道": 2276,
    "達": 2277,
    "適": 2278,
    "選": 2279,
    "遺": 2280,
    "避": 2281,
    "那": 2282,
    "邦": 2283,
    "郡": 2284,
    "部": 2285,
    "都": 2286,
    "配": 2287,
    "酒": 2288,
    "酗": 2289,
    "酶": 2290,
    "酸": 2291,
    "醇": 2292,
    "里": 2293,
    "重": 2294,
    "量": 2295,
    "金": 2296,
    "針": 2297,
    "銀": 2298,
    "銅": 2299,
    "錨": 2300,
    "錬": 2301,
    "録": 2302,
    "鍼": 2303,
    "鎮": 2304,
    "鑑": 2305,
    "针": 2306,
    "铍": 2307,
    "铝": 2308,
    "锑": 2309,
    "锕": 2310,
    "锚": 2311,
    "锡": 2312,
    "镅": 2313,
    "长": 2314,
    "門": 2315,
    "閉": 2316,
    "開": 2317,
    "間": 2318,
    "関": 2319,
    "閣": 2320,
    "闘": 2321,
    "關": 2322,
    "门": 2323,
    "闪": 2324,
    "阿": 2325,
    "陆": 2326,
    "院": 2327,
    "陳": 2328,
    "陵": 2329,
    "陸": 2330,
    "隆": 2331,
    "際": 2332,
    "障": 2333,
    "雅": 2334,
    "集": 2335,
    "雑": 2336,
    "難": 2337,
    "雨": 2338,
    "零": 2339,
    "雷": 2340,
    "電": 2341,
    "青": 2342,
    "非": 2343,
    "面": 2344,
    "韦": 2345,
    "音": 2346,
    "響": 2347,
    "頓": 2348,
    "領": 2349,
    "類": 2350,
    "顿": 2351,
    "频": 2352,
    "颠": 2353,
    "风": 2354,
    "飛": 2355,
    "飞": 2356,
    "食": 2357,
    "飲": 2358,
    "飽": 2359,
    "養": 2360,
    "館": 2361,
    "饪": 2362,
    "饰": 2363,
    "首": 2364,
    "香": 2365,
    "馬": 2366,
    "駆": 2367,
    "马": 2368,
    "验": 2369,
    "體": 2370,
    "高": 2371,
    "魚": 2372,
    "魯": 2373,
    "鮑": 2374,
    "鰓": 2375,
    "鰭": 2376,
    "鲁": 2377,
    "鲍": 2378,
    "鳥": 2379,
    "鶏": 2380,
    "鸟": 2381,
    "麦": 2382,
    "黃": 2383,
    "黄": 2384,
    "黎": 2385,
    "黏": 2386,
    "黑": 2387,
    "黒": 2388,
    "黙": 2389,
    "鼠": 2390,
    "龍": 2391,
    "龙": 2392,
    "가": 2393,
    "각": 2394,
    "강": 2395,
    "개": 2396,
    "거": 2397,
    "건": 2398,
    "겉": 2399,
    "게": 2400,
    "격": 2401,
    "결": 2402,
    "경": 2403,
    "계": 2404,
    "고": 2405,
    "곡": 2406,
    "곤": 2407,
    "골": 2408,
    "공": 2409,
    "과": 2410,
    "관": 2411,
    "광": 2412,
    "괴": 2413,
    "교": 2414,
    "구": 2415,
    "국": 2416,
    "군": 2417,
    "귀": 2418,
    "귈": 2419,
    "균": 2420,
    "그": 2421,
    "극": 2422,
    "근": 2423,
    "글": 2424,
    "금": 2425,
    "급": 2426,
    "기": 2427,
    "나": 2428,
    "낙": 2429,
    "날": 2430,
    "남": 2431,
    "냉": 2432,
    "널": 2433,
    "네": 2434,
    "노": 2435,
    "논": 2436,
    "농": 2437,
    "뇌": 2438,
    "누": 2439,
    "뉴": 2440,
    "늄": 2441,
    "느": 2442,
    "능": 2443,
    "니": 2444,
    "닉": 2445,
    "다": 2446,
    "단": 2447,
    "담": 2448,
    "당": 2449,
    "대": 2450,
    "더": 2451,
    "덤": 2452,
    "데": 2453,
    "도": 2454,
    "독": 2455,
    "돌": 2456,
    "동": 2457,
    "둘": 2458,
    "뒤": 2459,
    "드": 2460,
    "등": 2461,
    "디": 2462,
    "라": 2463,
    "락": 2464,
    "람": 2465,
    "랍": 2466,
    "래": 2467,
    "랜": 2468,
    "랭": 2469,
    "량": 2470,
    "러": 2471,
    "런": 2472,
    "럼": 2473,
    "레": 2474,
    "렉": 2475,
    "렌": 2476,
    "렐": 2477,
    "령": 2478,
    "로": 2479,
    "론": 2480,
    "롭": 2481,
    "루": 2482,
    "룬": 2483,
    "룹": 2484,
    "뤼": 2485,
    "류": 2486,
    "륨": 2487,
    "르": 2488,
    "를": 2489,
    "리": 2490,
    "린": 2491,
    "릴": 2492,
    "립": 2493,
    "링": 2494,
    "마": 2495,
    "만": 2496,
    "말": 2497,
    "매": 2498,
    "맥": 2499,
    "메": 2500,
    "멤": 2501,
    "면": 2502,
    "명": 2503,
    "모": 2504,
    "무": 2505,
    "문": 2506,
    "물": 2507,
    "뮈": 2508,
    "뮤": 2509,
    "미": 2510,
    "민": 2511,
    "밀": 2512,
    "밍": 2513,
    "바": 2514,
    "박": 2515,
    "반": 2516,
    "발": 2517,
    "방": 2518,
    "배": 2519,
    "버": 2520,
    "번": 2521,
    "법": 2522,
    "베": 2523,
    "벤": 2524,
    "벨": 2525,
    "벽": 2526,
    "변": 2527,
    "병": 2528,
    "보": 2529,
    "본": 2530,
    "볼": 2531,
    "부": 2532,
    "북": 2533,
    "분": 2534,
    "불": 2535,
    "붕": 2536,
    "브": 2537,
    "블": 2538,
    "비": 2539,
    "빌": 2540,
    "사": 2541,
    "삭": 2542,
    "산": 2543,
    "살": 2544,
    "삼": 2545,
    "상": 2546,
    "새": 2547,
    "생": 2548,
    "샨": 2549,
    "서": 2550,
    "석": 2551,
    "선": 2552,
    "설": 2553,
    "섬": 2554,
    "성": 2555,
    "세": 2556,
    "센": 2557,
    "셀": 2558,
    "셈": 2559,
    "션": 2560,
    "소": 2561,
    "속": 2562,
    "쇼": 2563,
    "수": 2564,
    "순": 2565,
    "술": 2566,
    "슈": 2567,
    "슘": 2568,
    "스": 2569,
    "슨": 2570,
    "슬": 2571,
    "시": 2572,
    "식": 2573,
    "신": 2574,
    "아": 2575,
    "악": 2576,
    "안": 2577,
    "알": 2578,
    "암": 2579,
    "압": 2580,
    "앙": 2581,
    "애": 2582,
    "앤": 2583,
    "앨": 2584,
    "앵": 2585,
    "야": 2586,
    "약": 2587,
    "양": 2588,
    "어": 2589,
    "언": 2590,
    "엄": 2591,
    "업": 2592,
    "없": 2593,
    "에": 2594,
    "역": 2595,
    "연": 2596,
    "열": 2597,
    "염": 2598,
    "엽": 2599,
    "영": 2600,
    "오": 2601,
    "온": 2602,
    "올": 2603,
    "와": 2604,
    "왕": 2605,
    "외": 2606,
    "용": 2607,
    "우": 2608,
    "운": 2609,
    "움": 2610,
    "워": 2611,
    "원": 2612,
    "월": 2613,
    "웹": 2614,
    "위": 2615,
    "유": 2616,
    "율": 2617,
    "을": 2618,
    "음": 2619,
    "응": 2620,
    "의": 2621,
    "이": 2622,
    "인": 2623,
    "일": 2624,
    "임": 2625,
    "잉": 2626,
    "자": 2627,
    "작": 2628,
    "잔": 2629,
    "장": 2630,
    "재": 2631,
    "잭": 2632,
    "쟁": 2633,
    "적": 2634,
    "전": 2635,
    "절": 2636,
    "점": 2637,
    "접": 2638,
    "제": 2639,
    "조": 2640,
    "족": 2641,
    "존": 2642,
    "주": 2643,
    "중": 2644,
    "즈": 2645,
    "즘": 2646,
    "증": 2647,
    "지": 2648,
    "직": 2649,
    "진": 2650,
    "질": 2651,
    "집": 2652,
    "차": 2653,
    "천": 2654,
    "체": 2655,
    "총": 2656,
    "추": 2657,
    "축": 2658,
    "츠": 2659,
    "치": 2660,
    "칙": 2661,
    "칭": 2662,
    "카": 2663,
    "칸": 2664,
    "칼": 2665,
    "캔": 2666,
    "커": 2667,
    "컨": 2668,
    "컬": 2669,
    "컴": 2670,
    "케": 2671,
    "코": 2672,
    "콕": 2673,
    "콘": 2674,
    "퀼": 2675,
    "크": 2676,
    "클": 2677,
    "키": 2678,
    "킨": 2679,
    "킬": 2680,
    "타": 2681,
    "탄": 2682,
    "태": 2683,
    "택": 2684,
    "탱": 2685,
    "터": 2686,
    "턴": 2687,
    "테": 2688,
    "텐": 2689,
    "텔": 2690,
    "토": 2691,
    "톤": 2692,
    "투": 2693,
    "툼": 2694,
    "튜": 2695,
    "트": 2696,
    "틀": 2697,
    "티": 2698,
    "틴": 2699,
    "틸": 2700,
    "파": 2701,
    "판": 2702,
    "패": 2703,
    "펌": 2704,
    "페": 2705,
    "펜": 2706,
    "폐": 2707,
    "포": 2708,
    "폭": 2709,
    "폴": 2710,
    "푼": 2711,
    "풀": 2712,
    "퓨": 2713,
    "프": 2714,
    "플": 2715,
    "피": 2716,
    "하": 2717,
    "학": 2718,
    "함": 2719,
    "합": 2720,
    "항": 2721,
    "해": 2722,
    "햄": 2723,
    "행": 2724,
    "향": 2725,
    "헝": 2726,
    "헤": 2727,
    "헨": 2728,
    "호": 2729,
    "홀": 2730,
    "화": 2731,
    "황": 2732,
    "회": 2733,
    "획": 2734,
    "흐": 2735,
    "흑": 2736,
    "히": 2737,
    "ﷲ": 2738,
    "ﺀ": 2739,
    "ﺃ": 2740,
    "ﺍ": 2741,
    "ﺎ": 2742,
    "ﺏ": 2743,
    "ﺒ": 2744,
    "ﺕ": 2745,
    "ﺙ": 2746,
    "ﺝ": 2747,
    "ﺡ": 2748,
    "ﺥ": 2749,
    "ﺩ": 2750,
    "ﺫ": 2751,
    "ﺭ": 2752,
    "ﺯ": 2753,
    "ﺱ": 2754,
    "ﺵ": 2755,
    "ﺹ": 2756,
    "ﺽ": 2757,
    "ﻁ": 2758,
    "ﻅ": 2759,
    "ﻉ": 2760,
    "ﻋ": 2761,
    "ﻍ": 2762,
    "ﻑ": 2763,
    "ﻕ": 2764,
    "ﻙ": 2765,
    "ﻝ": 2766,
    "ﻡ": 2767,
    "ﻥ": 2768,
    "ﻫ": 2769,
    "ﻭ": 2770,
    "ﻯ": 2771,
    "ﻰ": 2772,
    "ﻱ": 2773,
    "ﻳ": 2774,
    "ﻴ": 2775,
    "（": 2776,
    "）": 2777,
    "＝": 2778,
    "ｃ": 2779,
    "ｈ": 2780,
    "�": 2781,
    "er": 2782,
    "in": 2783,
    "th": 2784,
    "is": 2785,
    "an": 2786,
    "on": 2787,
    "ar": 2788,
    "ti": 2789,
    "the": 2790,
    "or": 2791,
    "]]": 2792,
    "[[": 2793,
    "ed": 2794,
    "al": 2795,
    "en": 2796,
    "es": 2797,
    "ch": 2798,
    "ist": 2799,
    "of": 2800,
    "arch": 2801,
    "re": 2802,
    "as": 2803,
    "and": 2804,
    "ism": 2805,
    "at": 2806,
    "anarch": 2807,
    "t;": 2808,
    "tion": 2809,
    "st": 2810,
    "it": 2811,
    "''": 2812,
    "om": 2813,
    "ou": 2814,
    "ol": 2815,
    "le": 2816,
    "id": 2817,
    "am": 2818,
    "</": 2819,
    "ent": 2820,
    "ac": 2821,
    "to": 2822,
    "ic": 2823,
    "ing": 2824,
    "ve": 2825,
    "op": 2826,
    "qu": 2827,
    "ut": 2828,
    "se": 2829,
    "il": 2830,
    "ag": 2831,
    "quo": 2832,
    "&quo": 2833,
    "&quot;": 2834,
    "be": 2835,
    "tic": 2836,
    "un": 2837,
    "ation": 2838,
    "aut": 2839,
    "ri": 2840,
    "ht": 2841,
    "com": 2842,
    "ment": 2843,
    "con": 2844,
    "ly": 2845,
    "no": 2846,
    "for": 2847,
    "pr": 2848,
    "oc": 2849,
    "he": 2850,
    "de": 2851,
    "ab": 2852,
    "ter": 2853,
    "te": 2854,
    "ers": 2855,
    "id>": 2856,
    "us": 2857,
    "age": 2858,
    "ion": 2859,
    "amp": 2860,
    "ur": 2861,
    "est": 2862,
    "tit": 2863,
    "<id>": 2864,
    "</id>": 2865,
    "tim": 2866,
    "sp": 2867,
    "cont": 2868,
    "but": 2869,
    "==": 2870,
    "di": 2871,
    "00": 2872,
    "rev": 2873,
    "xt": 2874,
    "title": 2875,
    "RE": 2876,
    "]],": 2877,
    "ww": 2878,
    "ate": 2879,
    "An": 2880,
    "wi": 2881,
    "ce": 2882,
    "ir": 2883,
    "ision": 2884,
    "Al": 2885,
    "ul": 2886,
    "page": 2887,
    "ig": 2888,
    "with": 2889,
    "The": 2890,
    "text": 2891,
    "ct": 2892,
    "ap": 2893,
    "wh": 2894,
    "ad": 2895,
    "ver": 2896,
    "ther": 2897,
    "ribut": 2898,
    "]].": 2899,
    "ill": 2900,
    "ame": 2901,
    "that": 2902,
    "ay": 2903,
    "In": 2904,
    "su": 2905,
    "im": 2906,
    "ow": 2907,
    "inc": 2908,
    "by": 2909,
    "em": 2910,
    "ess": 2911,
    "et": 2912,
    "was": 2913,
    "18": 2914,
    "incol": 2915,
    "incoln": 2916,
    "od": 2917,
    "Lincoln": 2918,
    "his": 2919,
    "li": 2920,
    "'s": 2921,
    "19": 2922,
    "ra": 2923,
    "ace": 2924,
    "um": 2925,
    "tp": 2926,
    "Ab": 2927,
    "Un": 2928,
    "fr": 2929,
    "s,": 2930,
    "all": 2931,
    "ot": 2932,
    "os": 2933,
    "oun": 2934,
    "pe": 2935,
    "la": 2936,
    "ity": 2937,
    "ld": 2938,
    "s.": 2939,
    "ha": 2940,
    "ex": 2941,
    "Ar": 2942,
    "og": 2943,
    "http": 2944,
    "http:": 2945,
    "http:/": 2946,
    "http://": 2947,
    "ory": 2948,
    "Arist": 2949,
    "contribut": 2950,
    "or>": 2951,
    "are": 2952,
    "revision": 2953,
    "title>": 2954,
    "timest": 2955,
    "timestamp": 2956,
    "timestamp>": 2957,
    "contributor>": 2958,
    "revision>": 2959,
    "page>": 2960,
    "comment": 2961,
    "comment>": 2962,
    "ern": 2963,
    "pres": 2964,
    "ard": 2965,
    "St": 2966,
    "amp;": 2967,
    "&amp;": 2968,
    "ca": 2969,
    "[[A": 2970,
    "200": 2971,
    "mo": 2972,
    "tr": 2973,
    "ci": 2974,
    "not": 2975,
    "el": 2976,
    "from": 2977,
    "ome": 2978,
    "[http://": 2979,
    "ml": 2980,
    "[[C": 2981,
    "ary": 2982,
    "'''": 2983,
    "ph": 2984,
    "ain": 2985,
    "ical": 2986,
    "man": 2987,
    "bl": 2988,
    "her": 2989,
    "vers": 2990,
    "ual": 2991,
    "ear": 2992,
    "}}": 2993,
    "{{": 2994,
    "w.": 2995,
    "www.": 2996,
    "ty": 2997,
    "Rand": 2998,
    "yn": 2999,
    "oug": 3000,
    "[http://www.": 3001,
    "vi": 3002,
    "15": 3003,
    "ich": 3004,
    "so": 3005,
    "pl": 3006,
    "ated": 3007,
    "ia": 3008,
    "ber": 3009,
    "end": 3010,
    "par": 3011,
    "ro": 3012,
    "gt;": 3013,
    "&gt;": 3014,
    "lt;": 3015,
    "&lt;": 3016,
    "wor": 3017,
    "ger": 3018,
    "ort": 3019,
    "ew": 3020,
    "ff": 3021,
    "one": 3022,
    "ction": 3023,
    "out": 3024,
    "ru": 3025,
    "las": 3026,
    "ian": 3027,
    "res": 3028,
    "Re": 3029,
    "our": 3030,
    "ial": 3031,
    "ates": 3032,
    "ip": 3033,
    "ure": 3034,
    "go": 3035,
    "ke": 3036,
    "ame>": 3037,
    "gg": 3038,
    "Sh": 3039,
    "At": 3040,
    "rugg": 3041,
    "ran": 3042,
    "rugged": 3043,
    "Shrugged": 3044,
    "usern": 3045,
    "username>": 3046,
    "Atlas": 3047,
    "sh": 3048,
    "co": 3049,
    "lin": 3050,
    "s]]": 3051,
    "Shrugged|": 3052,
    "ish": 3053,
    "[[P": 3054,
    "ne": 3055,
    "which": 3056,
    "ma": 3057,
    "gu": 3058,
    "ge": 3059,
    "bo": 3060,
    "ence": 3061,
    "olog": 3062,
    "soc": 3063,
    "ere": 3064,
    "gr": 3065,
    "dis": 3066,
    "who": 3067,
    "ican": 3068,
    "hy": 3069,
    "ev": 3070,
    "ology": 3071,
    "ud": 3072,
    "ref": 3073,
    "act": 3074,
    "thr": 3075,
    "ateg": 3076,
    "istic": 3077,
    "der": 3078,
    "ult": 3079,
    "tive": 3080,
    "ign": 3081,
    "mor": 3082,
    "min": 3083,
    "vel": 3084,
    "have": 3085,
    "===": 3086,
    "ite": 3087,
    "ubl": 3088,
    "pt": 3089,
    "ists": 3090,
    "mer": 3091,
    "ous": 3092,
    "we": 3093,
    "es,": 3094,
    "ae": 3095,
    "if": 3096,
    "ould": 3097,
    "ie": 3098,
    "my": 3099,
    "me": 3100,
    "ect": 3101,
    "ree": 3102,
    "art": 3103,
    "this": 3104,
    "ilos": 3105,
    "ilosop": 3106,
    "ks": 3107,
    "ough": 3108,
    "also": 3109,
    "per": 3110,
    "ward": 3111,
    "chem": 3112,
    "cent": 3113,
    "ine": 3114,
    "ob": 3115,
    "ited": 3116,
    "now": 3117,
    "]]''": 3118,
    "[[M": 3119,
    "use": 3120,
    "ound": 3121,
    "au": 3122,
    "-0": 3123,
    "other": 3124,
    "form": 3125,
    "port": 3126,
    "some": 3127,
    "ans": 3128,
    "publ": 3129,
    "ust": 3130,
    "year": 3131,
    "ies": 3132,
    "ally": 3133,
    "ong": 3134,
    "has": 3135,
    "ant": 3136,
    "ever": 3137,
    "a]]": 3138,
    "ustri": 3139,
    "rit": 3140,
    "ide": 3141,
    "ok": 3142,
    ").": 3143,
    "ral": 3144,
    "ast": 3145,
    "tern": 3146,
    "iz": 3147,
    "ustral": 3148,
    "sy": 3149,
    "lan": 3150,
    "ational": 3151,
    "Austral": 3152,
    "pro": 3153,
    ")|": 3154,
    "Australia": 3155,
    "ose": 3156,
    ":A": 3157,
    "were": 3158,
    "merican": 3159,
    "ople": 3160,
    "He": 3161,
    "Con": 3162,
    "pos": 3163,
    "such": 3164,
    "gen": 3165,
    "ec": 3166,
    "ategory": 3167,
    "enc": 3168,
    "its": 3169,
    "comm": 3170,
    "acter": 3171,
    "aracter": 3172,
    "11": 3173,
    "&amp;n": 3174,
    "|-": 3175,
    "10": 3176,
    "&amp;nb": 3177,
    "&amp;nbsp": 3178,
    "&amp;nbsp;": 3179,
    "can": 3180,
    "br": 3181,
    "[[S": 3182,
    "their": 3183,
    "ll": 3184,
    "most": 3185,
    "philosop": 3186,
    "org": 3187,
    "),": 3188,
    "[[T": 3189,
    "[[E": 3190,
    "fic": 3191,
    "langu": 3192,
    "ica": 3193,
    "Afr": 3194,
    "rig": 3195,
    "=&quot;": 3196,
    "right": 3197,
    "fl": 3198,
    "align": 3199,
    "col": 3200,
    "align=&quot;": 3201,
    "align=&quot;right": 3202,
    "align=&quot;right&quot;": 3203,
    "ten": 3204,
    "land": 3205,
    "[[s": 3206,
    "Ch": 3207,
    "ance": 3208,
    "able": 3209,
    "[[I": 3210,
    "[[L": 3211,
    "pol": 3212,
    "iv": 3213,
    "lo": 3214,
    "had": 3215,
    "ia]]": 3216,
    "fe": 3217,
    "es.": 3218,
    "ack": 3219,
    "ach": 3220,
    "irst": 3221,
    "si": 3222,
    "up": 3223,
    "erve": 3224,
    "cons": 3225,
    "[[G": 3226,
    "199": 3227,
    "fin": 3228,
    "comp": 3229,
    "ts": 3230,
    "av": 3231,
    "ak": 3232,
    "[[B": 3233,
    "United": 3234,
    "States": 3235,
    "many": 3236,
    "6-": 3237,
    "center": 3238,
    "&quot;|": 3239,
    "[[Category": 3240,
    "=\"": 3241,
    "space": 3242,
    "itic": 3243,
    "more": 3244,
    "incl": 3245,
    "ations": 3246,
    "tiv": 3247,
    "And": 3248,
    "\">": 3249,
    "89": 3250,
    "ue": 3251,
    "main": 3252,
    "xml": 3253,
    "preserve": 3254,
    "first": 3255,
    "[[N": 3256,
    "[[H": 3257,
    "old": 3258,
    "ore": 3259,
    "po": 3260,
    ".ht": 3261,
    "ile": 3262,
    "low": 3263,
    "[[J": 3264,
    "enti": 3265,
    "ight": 3266,
    "ele": 3267,
    "any": 3268,
    "over": 3269,
    "ft": 3270,
    "ural": 3271,
    "fter": 3272,
    "coun": 3273,
    "been": 3274,
    "cri": 3275,
    "they": 3276,
    "Gore": 3277,
    "know": 3278,
    "[[F": 3279,
    "ee": 3280,
    ".com": 3281,
    "ution": 3282,
    "work": 3283,
    "ater": 3284,
    "people": 3285,
    "istory": 3286,
    "red": 3287,
    "[[Category:": 3288,
    "14": 3289,
    "cl": 3290,
    "ass": 3291,
    "xml:": 3292,
    "16": 3293,
    "&lt;/": 3294,
    "American": 3295,
    "uc": 3296,
    "state": 3297,
    "wo": 3298,
    "mar": 3299,
    "into": 3300,
    "than": 3301,
    "ell": 3302,
    "erv": 3303,
    "ry": 3304,
    "own": 3305,
    "language": 3306,
    "ash": 3307,
    "ask": 3308,
    "Alask": 3309,
    "<page>": 3310,
    "<title>": 3311,
    "</title>": 3312,
    "<revision>": 3313,
    "<timestamp>": 3314,
    "<timestamp>200": 3315,
    "Z</": 3316,
    "Z</timestamp>": 3317,
    "<contributor>": 3318,
    "</contributor>": 3319,
    "<text": 3320,
    "xml:space": 3321,
    "xml:space=\"": 3322,
    "xml:space=\"preserve": 3323,
    "xml:space=\"preserve\">": 3324,
    "&amp;#": 3325,
    "</text": 3326,
    "</text>": 3327,
    "</revision>": 3328,
    "</page>": 3329,
    "12": 3330,
    "opul": 3331,
    "ind": 3332,
    "arm": 3333,
    "eral": 3334,
    "ric": 3335,
    "13": 3336,
    "inter": 3337,
    "ord": 3338,
    "sup": 3339,
    "sm": 3340,
    "ties": 3341,
    "time": 3342,
    "]])": 3343,
    "[[19": 3344,
    "ren": 3345,
    ":Al": 3346,
    "25": 3347,
    "As": 3348,
    "air": 3349,
    "ase": 3350,
    "]]s": 3351,
    "ulture": 3352,
    "used": 3353,
    "div": 3354,
    "sub": 3355,
    "ive": 3356,
    "att": 3357,
    "ng": 3358,
    "only": 3359,
    "y]]": 3360,
    "them": 3361,
    "umb": 3362,
    "e]]": 3363,
    "20": 3364,
    "do": 3365,
    "ens": 3366,
    "sub&gt;": 3367,
    "--": 3368,
    "prod": 3369,
    "bet": 3370,
    "present": 3371,
    "'',": 3372,
    "It": 3373,
    "DI": 3374,
    "US": 3375,
    "would": 3376,
    "y.": 3377,
    "reat": 3378,
    "rel": 3379,
    "les": 3380,
    "des": 3381,
    "him": 3382,
    "imal": 3383,
    "[[R": 3384,
    "Th": 3385,
    "velop": 3386,
    "car": 3387,
    ".com/": 3388,
    "<comment>": 3389,
    "ire": 3390,
    "</comment>": 3391,
    "ted": 3392,
    "way": 3393,
    "cap": 3394,
    "Alaska": 3395,
    "popul": 3396,
    "two": 3397,
    "ings": 3398,
    "stem": 3399,
    "ble": 3400,
    "ogr": 3401,
    "17": 3402,
    "oup": 3403,
    "lar": 3404,
    "Com": 3405,
    "mage": 3406,
    "igh": 3407,
    "tra": 3408,
    "cess": 3409,
    "chor": 3410,
    "ivers": 3411,
    "chorage": 3412,
    "[[D": 3413,
    "Anchorage": 3414,
    "part": 3415,
    "ages": 3416,
    "diff": 3417,
    "pollo": 3418,
    "dr": 3419,
    "str": 3420,
    "ed.": 3421,
    "[[Image": 3422,
    "ice": 3423,
    "Apollo": 3424,
    "Wh": 3425,
    "II": 3426,
    "cre": 3427,
    "This": 3428,
    "small": 3429,
    "about": 3430,
    "world": 3431,
    "after": 3432,
    "appe": 3433,
    "dition": 3434,
    "spe": 3435,
    "000": 3436,
    "iss": 3437,
    "uring": 3438,
    "hum": 3439,
    "g|": 3440,
    ".org": 3441,
    "alk": 3442,
    "ition": 3443,
    "fore": 3444,
    "may": 3445,
    "o]]": 3446,
    "system": 3447,
    "px": 3448,
    "bas": 3449,
    "ton": 3450,
    "will": 3451,
    "ari": 3452,
    "cur": 3453,
    "though": 3454,
    "lish": 3455,
    "sur": 3456,
    "num": 3457,
    "ope": 3458,
    "there": 3459,
    "Ag": 3460,
    "dash": 3461,
    "dash;": 3462,
    "ail": 3463,
    "ave": 3464,
    "*''": 3465,
    "gave": 3466,
    "tain": 3467,
    "[[Agave": 3468,
    "*''[[Agave": 3469,
    "mon": 3470,
    "ild": 3471,
    "thumb": 3472,
    "ident": 3473,
    "a]]''": 3474,
    ".html": 3475,
    "reg": 3476,
    "[[Ch": 3477,
    "includ": 3478,
    "tri": 3479,
    "conom": 3480,
    "develop": 3481,
    "left": 3482,
    "nam": 3483,
    "[[f": 3484,
    "align=&quot;center": 3485,
    "ep": 3486,
    "sel": 3487,
    "Mo": 3488,
    "ub": 3489,
    "owever": 3490,
    "*[http://www.": 3491,
    "jp": 3492,
    "1,": 3493,
    "when": 3494,
    "led": 3495,
    "ful": 3496,
    "Pr": 3497,
    "call": 3498,
    "character": 3499,
    "y,": 3500,
    "urn": 3501,
    "prop": 3502,
    "int": 3503,
    "see": 3504,
    "thumb|": 3505,
    "[[n": 3506,
    "sci": 3507,
    "ys": 3508,
    "1.": 3509,
    "outh": 3510,
    "nor": 3511,
    "ween": 3512,
    "[[United": 3513,
    "oh": 3514,
    "[[W": 3515,
    "thor": 3516,
    "writ": 3517,
    "ann": 3518,
    "under": 3519,
    "ese": 3520,
    "pre": 3521,
    "between": 3522,
    "[[O": 3523,
    "ograp": 3524,
    "nment": 3525,
    "a.": 3526,
    "gover": 3527,
    "group": 3528,
    "these": 3529,
    "ang": 3530,
    "ject": 3531,
    "Ang": 3532,
    "ed,": 3533,
    "Africa": 3534,
    "ually": 3535,
    "prov": 3536,
    "ince": 3537,
    "Angol": 3538,
    "ative": 3539,
    "ood": 3540,
    "urope": 3541,
    "book": 3542,
    "De": 3543,
    "cause": 3544,
    "rol": 3545,
    "30": 3546,
    "S.": 3547,
    "serv": 3548,
    "s|": 3549,
    "ohn": 3550,
    "tem": 3551,
    "new": 3552,
    "loc": 3553,
    "sk": 3554,
    "a]],": 3555,
    "human": 3556,
    "ruct": 3557,
    "med": 3558,
    "Col": 3559,
    "[[c": 3560,
    "CT": 3561,
    "throp": 3562,
    "<username>": 3563,
    "</username>": 3564,
    "bert": 3565,
    "well": 3566,
    "pen": 3567,
    "known": 3568,
    "er]]": 3569,
    "ered": 3570,
    "ins": 3571,
    "Albert": 3572,
    "contin": 3573,
    "high": 3574,
    "a|": 3575,
    "||": 3576,
    "set": 3577,
    "jpg|": 3578,
    "[[Image:": 3579,
    "war": 3580,
    "2,": 3581,
    "here": 3582,
    "**": 3583,
    "ular": 3584,
    "a,": 3585,
    "[[b": 3586,
    "*[[": 3587,
    "ick": 3588,
    "[[m": 3589,
    "an]]": 3590,
    "imp": 3591,
    "name": 3592,
    "es]]": 3593,
    "order": 3594,
    "i]]": 3595,
    "came": 3596,
    "px|": 3597,
    "found": 3598,
    "inst": 3599,
    "24": 3600,
    "ath": 3601,
    "through": 3602,
    "ef": 3603,
    "soci": 3604,
    "atom": 3605,
    "inste": 3606,
    "let": 3607,
    "ilm": 3608,
    "play": 3609,
    "instein": 3610,
    "Einstein": 3611,
    "public": 3612,
    "author": 3613,
    "2005": 3614,
    "IS": 3615,
    "ics": 3616,
    "e.": 3617,
    "government": 3618,
    "ude": 3619,
    "&lt;br": 3620,
    "small&gt;": 3621,
    "ib": 3622,
    "called": 3623,
    "day": 3624,
    "peri": 3625,
    "gh": 3626,
    "ext": 3627,
    "owever,": 3628,
    "uch": 3629,
    "men": 3630,
    "sa": 3631,
    "cord": 3632,
    "reas": 3633,
    "population": 3634,
    "inv": 3635,
    "ik": 3636,
    "fgh": 3637,
    "divid": 3638,
    "fghan": 3639,
    "sch": 3640,
    "pri": 3641,
    "Afghan": 3642,
    "Univers": 3643,
    ".org/": 3644,
    "istan": 3645,
    "what": 3646,
    "New": 3647,
    "On": 3648,
    "3,": 3649,
    "cond": 3650,
    "being": 3651,
    "War": 3652,
    "Par": 3653,
    "cted": 3654,
    "[[K": 3655,
    "ban": 3656,
    "Europe": 3657,
    "a:": 3658,
    "commun": 3659,
    "ris": 3660,
    "beli": 3661,
    "often": 3662,
    "ah": 3663,
    "where": 3664,
    "For": 3665,
    "cover": 3666,
    "ctic": 3667,
    "speci": 3668,
    "50": 3669,
    "Is": 3670,
    "differ": 3671,
    "arctic": 3672,
    "Ant": 3673,
    "REDI": 3674,
    "REDIRE": 3675,
    "REDIRECT": 3676,
    "mi": 3677,
    "leg": 3678,
    "term": 3679,
    "ship": 3680,
    "2.": 3681,
    "60": 3682,
    "countr": 3683,
    "econom": 3684,
    "jor": 3685,
    "thern": 3686,
    "gent": 3687,
    "Argent": 3688,
    "language|": 3689,
    ",000": 3690,
    "politic": 3691,
    "dep": 3692,
    "chn": 3693,
    "ital": 3694,
    "dist": 3695,
    "Armen": 3696,
    "ors": 3697,
    "uss": 3698,
    "produ": 3699,
    "90": 3700,
    "ures": 3701,
    "ai": 3702,
    "fol": 3703,
    "long": 3704,
    "fact": 3705,
    "zer": 3706,
    "minor": 3707,
    "less": 3708,
    "refer": 3709,
    "ict": 3710,
    "consid": 3711,
    "word": 3712,
    "ing,": 3713,
    "pers": 3714,
    "organ": 3715,
    "early": 3716,
    "techn": 3717,
    "large": 3718,
    "view": 3719,
    "val": 3720,
    "stand": 3721,
    "lat": 3722,
    "lit": 3723,
    "und": 3724,
    "off": 3725,
    ":А": 3726,
    ":Ar": 3727,
    "#REDIRECT": 3728,
    "22": 3729,
    "fam": 3730,
    "artic": 3731,
    "number": 3732,
    "while": 3733,
    "like": 3734,
    "ield": 3735,
    "ation]]": 3736,
    "ments": 3737,
    "dom": 3738,
    "then": 3739,
    "anc": 3740,
    "lass": 3741,
    "abor": 3742,
    "ily": 3743,
    "abortion": 3744,
    "ents": 3745,
    "6-0": 3746,
    "ven": 3747,
    "note": 3748,
    "eved": 3749,
    "s/": 3750,
    "action": 3751,
    "ham": 3752,
    "U.": 3753,
    "both": 3754,
    "ond": 3755,
    "fo": 3756,
    "ball": 3757,
    "cor": 3758,
    "ving": 3759,
    "astr": 3760,
    "oss": 3761,
    "Sch": 3762,
    "history": 3763,
    "mod": 3764,
    "king": 3765,
    "law": 3766,
    "otball": 3767,
    "depend": 3768,
    "self": 3769,
    "oy": 3770,
    "80": 3771,
    "pow": 3772,
    "ought": 3773,
    ".jpg|": 3774,
    "during": 3775,
    "ved": 3776,
    "]]s,": 3777,
    "olution": 3778,
    "Brit": 3779,
    "sign": 3780,
    "line": 3781,
    "Amer": 3782,
    "40": 3783,
    "back": 3784,
    "University": 3785,
    "U.S.": 3786,
    "def": 3787,
    "ense": 3788,
    "before": 3789,
    "gin": 3790,
    "sive": 3791,
    "follow": 3792,
    "football": 3793,
    "field": 3794,
    "197": 3795,
    "move": 3796,
    "formation": 3797,
    "ensive": 3798,
    "ock": 3799,
    "down": 3800,
    "version": 3801,
    "made": 3802,
    "ning": 3803,
    "centur": 3804,
    "proc": 3805,
    "Eng": 3806,
    "&lt;sub&gt;": 3807,
    "&lt;/sub&gt;": 3808,
    "oth": 3809,
    "alg": 3810,
    "examp": 3811,
    "ith": 3812,
    "''.": 3813,
    "met": 3814,
    "''[[": 3815,
    "er,": 3816,
    "mem": 3817,
    "ip>": 3818,
    "years": 3819,
    "lex": 3820,
    "cr": 3821,
    "very": 3822,
    "ander": 3823,
    "eff": 3824,
    "ological": 3825,
    "ont": 3826,
    "Alex": 3827,
    "ost": 3828,
    "open": 3829,
    "Alexander": 3830,
    "each": 3831,
    "prob": 3832,
    "life": 3833,
    "position": 3834,
    "There": 3835,
    "Le": 3836,
    "cer": 3837,
    "2-": 3838,
    "gov": 3839,
    "23": 3840,
    "ta": 3841,
    "([[": 3842,
    "BN": 3843,
    "oid": 3844,
    "ale": 3845,
    "aster": 3846,
    "cept": 3847,
    "class": 3848,
    "orig": 3849,
    "arth": 3850,
    ".htm": 3851,
    "ating": 3852,
    "including": 3853,
    "later": 3854,
    "yle": 3855,
    "ool": 3856,
    "us]]": 3857,
    "reek": 3858,
    "times": 3859,
    "style": 3860,
    "sup&gt;": 3861,
    "ground": 3862,
    "color": 3863,
    "5.": 3864,
    "Ex": 3865,
    "example": 3866,
    "anim": 3867,
    "ting": 3868,
    "ser": 3869,
    "requ": 3870,
    "ized": 3871,
    "ISBN": 3872,
    "ster": 3873,
    "oman": 3874,
    "mp": 3875,
    "on]]": 3876,
    "vari": 3877,
    "sever": 3878,
    ":An": 3879,
    "major": 3880,
    "gest": 3881,
    "Arab": 3882,
    "til": 3883,
    "much": 3884,
    "style=&quot;": 3885,
    "Nor": 3886,
    "trans": 3887,
    "lear": 3888,
    "pha": 3889,
    "ature": 3890,
    "Arabic": 3891,
    "]]</text>": 3892,
    "dire": 3893,
    "lead": 3894,
    "turn": 3895,
    "origin": 3896,
    "film": 3897,
    "because": 3898,
    "ark": 3899,
    "again": 3900,
    "ush": 3901,
    "hel": 3902,
    "cade": 3903,
    "*[[A": 3904,
    "agn": 3905,
    "ession": 3906,
    "dec": 3907,
    "import": 3908,
    "cour": 3909,
    "pass": 3910,
    "ly,": 3911,
    "(19": 3912,
    "ctor": 3913,
    "became": 3914,
    "Some": 3915,
    "run": 3916,
    "itch": 3917,
    "British": 3918,
    "cock": 3919,
    "itchcock": 3920,
    "Hitchcock": 3921,
    "eng": 3922,
    "Sp": 3923,
    "right|": 3924,
    "Or": 3925,
    "See": 3926,
    "enn": 3927,
    "those": 3928,
    "Austri": 3929,
    "/>": 3930,
    "xml:space=\"preserve\">#REDIRECT": 3931,
    "<minor": 3932,
    "<id>15": 3933,
    "even": 3934,
    "second": 3935,
    ".&quot;": 3936,
    "could": 3937,
    "fer": 3938,
    "Se": 3939,
    "However,": 3940,
    "arian": 3941,
    "offic": 3942,
    "mil": 3943,
    "read": 3944,
    "come": 3945,
    "appear": 3946,
    "ise": 3947,
    "ious": 3948,
    "26": 3949,
    "43": 3950,
    "por": 3951,
    "uk": 3952,
    "orld": 3953,
    "bi": 3954,
    "city": 3955,
    "28": 3956,
    "dam": 3957,
    "bu": 3958,
    "No": 3959,
    "gy": 3960,
    "ility": 3961,
    "del": 3962,
    "Ph": 3963,
    "udi": 3964,
    "team": 3965,
    "[[h": 3966,
    "stud": 3967,
    "eb": 3968,
    "ves": 3969,
    "partic": 3970,
    "cra": 3971,
    "tical": 3972,
    "common": 3973,
    "craft": 3974,
    "curr": 3975,
    "az": 3976,
    "ley": 3977,
    "&quot;,": 3978,
    "three": 3979,
    "person": 3980,
    "ences": 3981,
    "bel": 3982,
    "27": 3983,
    "[[l": 3984,
    "remain": 3985,
    "suc": 3986,
    "did": 3987,
    "|B": 3988,
    "raham": 3989,
    "son": 3990,
    "Am": 3991,
    "Pro": 3992,
    "[[In": 3993,
    "4,": 3994,
    "6,": 3995,
    "6.": 3996,
    "ternal": 3997,
    "ple": 3998,
    "cla": 3999,
    "based": 4000
  },
  "decoder": {
    "0": "<pad>",
    "1": "<unk>",
    "2": "<s>",
    "3": "</s>",
    "4": "<mask>",
    "5": "\t",
    "6": "\n",
    "7": " ",
    "8": "!",
    "9": "\"",
    "10": "#",
    "11": "$",
    "12": "%",
    "13": "&",
    "14": "'",
    "15": "(",
    "16": ")",
    "17": "*",
    "18": "+",
    "19": ",",
    "20": "-",
    "21": ".",
    "22": "/",
    "23": "0",
    "24": "1",
    "25": "2",
    "26": "3",
    "27": "4",
    "28": "5",
    "29": "6",
    "30": "7",
    "31": "8",
    "32": "9",
    "33": ":",
    "34": ";",
    "35": "<",
    "36": "=",
    "37": ">",
    "38": "?",
    "39": "@",
    "40": "A",
    "41": "B",
    "42": "C",
    "43": "D",
    "44": "E",
    "45": "F",
    "46": "G",
    "47": "H",
    "48": "I",
    "49": "J",
    "50": "K",
    "51": "L",
    "52": "M",
    "53": "N",
    "54": "O",
    "55": "P",
    "56": "Q",
    "57": "R",
    "58": "S",
    "59": "T",
    "60": "U",
    "61": "V",
    "62": "W",
    "63": "X",
    "64": "Y",
    "65": "Z",
    "66": "[",
    "67": "\\",
    "68": "]",
    "69": "^",
    "70": "_",
    "71": "`",
    "72": "a",
    "73": "b",
    "74": "c",
    "75": "d",
    "76": "e",
    "77": "f",
    "78": "g",
    "79": "h",
    "80": "i",
    "81": "j",
    "82": "k",
    "83": "l",
    "84": "m",
    "85": "n",
    "86": "o",
    "87": "p",
    "88": "q",
    "89": "r",
    "90": "s",
    "91": "t",
    "92": "u",
    "93": "v",
    "94": "w",
    "95": "x",
    "96": "y",
    "97": "z",
    "98": "{",
    "99": "|",
    "100": "}",
    "101": "~",
    "102": "",
    "103": " ",
    "104": "¡",
    "105": "£",
    "106": "¥",
    "107": "§",
    "108": "©",
    "109": "ª",
    "110": "«",
    "111": "¬",
    "112": "­",
    "113": "®",
    "114": "¯",
    "115": "°",
    "116": "±",
    "117": "²",
    "118": "³",
    "119": "´",
    "120": "µ",
    "121": "¶",
    "122": "·",
    "123": "¹",
    "124": "º",
    "125": "»",
    "126": "¼",
    "127": "½",
    "128": "À",
    "129": "Á",
    "130": "Â",
    "131": "Ã",
    "132": "Ä",
    "133": "Å",
    "134": "Æ",
    "135": "Ç",
    "136": "È",
    "137": "É",
    "138": "Ê",
    "139": "Ë",
    "140": "Í",
    "141": "Î",
    "142": "Ò",
    "143": "Ó",
    "144": "Ö",
    "145": "×",
    "146": "Ø",
    "147": "Ú",
    "148": "Ü",
    "149": "Þ",
    "150": "ß",
    "151": "à",
    "152": "á",
    "153": "â",
    "154": "ã",
    "155": "ä",
    "156": "å",
    "157": "æ",
    "158": "ç",
    "159": "è",
    "160": "é",
    "161": "ê",
    "162": "ë",
    "163": "ì",
    "164": "í",
    "165": "î",
    "166": "ï",
    "167": "ð",
    "168": "ñ",
    "169": "ò",
    "170": "ó",
    "171": "ô",
    "172": "õ",
    "173": "ö",
    "174": "÷",
    "175": "ø",
    "176": "ù",
    "177": "ú",
    "178": "û",
    "179": "ü",
    "180": "ý",
    "181": "þ",
    "182": "ÿ",
    "183": "Ā",
    "184": "ā",
    "185": "Ă",
    "186": "ă",
    "187": "ą",
    "188": "Ć",
    "189": "ć",
    "190": "Ĉ",
    "191": "Č",
    "192": "č",
    "193": "ď",
    "194": "Đ",
    "195": "đ",
    "196": "Ē",
    "197": "ē",
    "198": "ĕ",
    "199": "ė",
    "200": "ę",
    "201": "ě",
    "202": "ĝ",
    "203": "Ğ",
    "204": "ğ",
    "205": "ġ",
    "206": "ģ",
    "207": "Ĥ",
    "208": "ĥ",
    "209": "ħ",
    "210": "ĩ",
    "211": "Ī",
    "212": "ī",
    "213": "İ",
    "214": "ı",
    "215": "ĵ",
    "216": "ķ",
    "217": "ļ",
    "218": "Ľ",
    "219": "ľ",
    "220": "Ł",
    "221": "ł",
    "222": "ń",
    "223": "ņ",
    "224": "ň",
    "225": "ŉ",
    "226": "Ŋ",
    "227": "ŋ",
    "228": "Ō",
    "229": "ō",
    "230": "ő",
    "231": "Œ",
    "232": "œ",
    "233": "ŗ",
    "234": "Ř",
    "235": "ř",
    "236": "Ś",
    "237": "ś",
    "238": "Ŝ",
    "239": "ŝ",
    "240": "Ş",
    "241": "ş",
    "242": "Š",
    "243": "š",
    "244": "Ţ",
    "245": "ţ",
    "246": "ť",
    "247": "ū",
    "248": "ŭ",
    "249": "ů",
    "250": "Ű",
    "251": "ű",
    "252": "ų",
    "253": "ź",
    "254": "Ż",
    "255": "ż",
    "256": "Ž",
    "257": "ž",
    "258": "Ɓ",
    "259": "Ɔ",
    "260": "Ɖ",
    "261": "Ǝ",
    "262": "Ɛ",
    "263": "Ƒ",
    "264": "ƒ",
    "265": "Ɣ",
    "266": "ơ",
    "267": "Ʃ",
    "268": "ư",
    "269": "Ʋ",
    "270": "Ʒ",
    "271": "ǐ",
    "272": "ǔ",
    "273": "ǝ",
    "274": "ǣ",
    "275": "ǧ",
    "276": "ɐ",
    "277": "ɑ",
    "278": "ɒ",
    "279": "ɓ",
    "280": "ɔ",
    "281": "ɖ",
    "282": "ə",
    "283": "ɚ",
    "284": "ɛ",
    "285": "ɝ",
    "286": "ɟ",
    "287": "ɡ",
    "288": "ɣ",
    "289": "ɥ",
    "290": "ɨ",
    "291": "ɪ",
    "292": "ɫ",
    "293": "ɬ",
    "294": "ɭ",
    "295": "ɯ",
    "296": "ɰ",
    "297": "ɲ",
    "298": "ɹ",
    "299": "ɻ",
    "300": "ɾ",
    "301": "ʀ",
    "302": "ʁ",
    "303": "ʃ",
    "304": "ʉ",
    "305": "ʊ",
    "306": "ʋ",
    "307": "ʌ",
    "308": "ʍ",
    "309": "ʎ",
    "310": "ʏ",
    "311": "ʒ",
    "312": "ʔ",
    "313": "ʕ",
    "314": "ʜ",
    "315": "ʟ",
    "316": "ʢ",
    "317": "ʤ",
    "318": "ʧ",
    "319": "ʰ",
    "320": "ʱ",
    "321": "ʲ",
    "322": "ʷ",
    "323": "ʻ",
    "324": "ʼ",
    "325": "ʽ",
    "326": "ʾ",
    "327": "ʿ",
    "328": "ˁ",
    "329": "ˆ",
    "330": "ˈ",
    "331": "ˌ",
    "332": "ː",
    "333": "ˠ",
    "334": "́",
    "335": "̃",
    "336": "̄",
    "337": "̅",
    "338": "̈",
    "339": "̍",
    "340": "̕",
    "341": "̞",
    "342": "̟",
    "343": "̣",
    "344": "̤",
    "345": "̥",
    "346": "̪",
    "347": "̯",
    "348": "̱",
    "349": "̶",
    "350": "̸",
    "351": "̽",
    "352": "͡",
    "353": "΄",
    "354": "Ά",
    "355": "Έ",
    "356": "Ί",
    "357": "Ό",
    "358": "Ώ",
    "359": "Α",
    "360": "Β",
    "361": "Γ",
    "362": "Δ",
    "363": "Ε",
    "364": "Ζ",
    "365": "Θ",
    "366": "Ι",
    "367": "Κ",
    "368": "Λ",
    "369": "Μ",
    "370": "Ν",
    "371": "Ξ",
    "372": "Ο",
    "373": "Π",
    "374": "Ρ",
    "375": "Σ",
    "376": "Τ",
    "377": "Υ",
    "378": "Φ",
    "379": "Χ",
    "380": "Ω",
    "381": "ά",
    "382": "έ",
    "383": "ή",
    "384": "ί",
    "385": "α",
    "386": "β",
    "387": "γ",
    "388": "δ",
    "389": "ε",
    "390": "ζ",
    "391": "η",
    "392": "θ",
    "393": "ι",
    "394": "κ",
    "395": "λ",
    "396": "μ",
    "397": "ν",
    "398": "ξ",
    "399": "ο",
    "400": "π",
    "401": "ρ",
    "402": "ς",
    "403": "σ",
    "404": "τ",
    "405": "υ",
    "406": "φ",
    "407": "χ",
    "408": "ψ",
    "409": "ω",
    "410": "ϊ",
    "411": "ό",
    "412": "ύ",
    "413": "ώ",
    "414": "Ђ",
    "415": "Є",
    "416": "І",
    "417": "Ј",
    "418": "А",
    "419": "Б",
    "420": "В",
    "421": "Г",
    "422": "Д",
    "423": "Е",
    "424": "Ж",
    "425": "З",
    "426": "И",
    "427": "Й",
    "428": "К",
    "429": "Л",
    "430": "М",
    "431": "Н",
    "432": "О",
    "433": "П",
    "434": "Р",
    "435": "С",
    "436": "Т",
    "437": "У",
    "438": "Ф",
    "439": "Х",
    "440": "Ц",
    "441": "Ч",
    "442": "Ш",
    "443": "Щ",
    "444": "Ъ",
    "445": "Э",
    "446": "Ю",
    "447": "Я",
    "448": "а",
    "449": "б",
    "450": "в",
    "451": "г",
    "452": "д",
    "453": "е",
    "454": "ж",
    "455": "з",
    "456": "и",
    "457": "й",
    "458": "к",
    "459": "л",
    "460": "м",
    "461": "н",
    "462": "о",
    "463": "п",
    "464": "р",
    "465": "с",
    "466": "т",
    "467": "у",
    "468": "ф",
    "469": "х",
    "470": "ц",
    "471": "ч",
    "472": "ш",
    "473": "щ",
    "474": "ъ",
    "475": "ы",
    "476": "ь",
    "477": "э",
    "478": "ю",
    "479": "я",
    "480": "ё",
    "481": "і",
    "482": "ї",
    "483": "ј",
    "484": "љ",
    "485": "њ",
    "486": "ћ",
    "487": "ў",
    "488": "џ",
    "489": "Ґ",
    "490": "ґ",
    "491": "ғ",
    "492": "ҧ",
    "493": "ҳ",
    "494": "ҷ",
    "495": "Ә",
    "496": "Ա",
    "497": "Բ",
    "498": "Գ",
    "499": "Դ",
    "500": "Ե",
    "501": "Զ",
    "502": "Է",
    "503": "Ը",
    "504": "Թ",
    "505": "Ժ",
    "506": "Ի",
    "507": "Լ",
    "508": "Խ",
    "509": "Ծ",
    "510": "Կ",
    "511": "Հ",
    "512": "Ձ",
    "513": "Ղ",
    "514": "Ճ",
    "515": "Մ",
    "516": "Յ",
    "517": "Ն",
    "518": "Շ",
    "519": "Ո",
    "520": "Չ",
    "521": "Պ",
    "522": "Ջ",
    "523": "Ռ",
    "524": "Ս",
    "525": "Վ",
    "526": "Տ",
    "527": "Ր",
    "528": "Ց",
    "529": "Ւ",
    "530": "Փ",
    "531": "Ք",
    "532": "Օ",
    "533": "Ֆ",
    "534": "ՙ",
    "535": "՚",
    "536": "՛",
    "537": "՜",
    "538": "՝",
    "539": "՞",
    "540": "՟",
    "541": "ա",
    "542": "բ",
    "543": "գ",
    "544": "դ",
    "545": "ե",
    "546": "զ",
    "547": "է",
    "548": "ը",
    "549": "թ",
    "550": "ժ",
    "551": "ի",
    "552": "լ",
    "553": "խ",
    "554": "ծ",
    "555": "կ",
    "556": "հ",
    "557": "ձ",
    "558": "ղ",
    "559": "ճ",
    "560": "մ",
    "561": "յ",
    "562": "ն",
    "563": "շ",
    "564": "ո",
    "565": "չ",
    "566": "պ",
    "567": "ջ",
    "568": "ռ",
    "569": "ս",
    "570": "վ",
    "571": "տ",
    "572": "ր",
    "573": "ց",
    "574": "ւ",
    "575": "փ",
    "576": "ք",
    "577": "օ",
    "578": "ֆ",
    "579": "և",
    "580": "։",
    "581": "֊",
    "582": "ְ",
    "583": "ֱ",
    "584": "ֲ",
    "585": "ִ",
    "586": "ֵ",
    "587": "ֶ",
    "588": "ַ",
    "589": "ָ",
    "590": "ֹ",
    "591": "ּ",
    "592": "ֿ",
    "593": "ׁ",
    "594": "א",
    "595": "ב",
    "596": "ג",
    "597": "ד",
    "598": "ה",
    "599": "ו",
    "600": "ז",
    "601": "ח",
    "602": "ט",
    "603": "י",
    "604": "ך",
    "605": "כ",
    "606": "ל",
    "607": "ם",
    "608": "מ",
    "609": "ן",
    "610": "נ",
    "611": "ס",
    "612": "ע",
    "613": "ף",
    "614": "פ",
    "615": "ץ",
    "616": "צ",
    "617": "ק",
    "618": "ר",
    "619": "ש",
    "620": "ת",
    "621": "ױ",
    "622": "،",
    "623": "ء",
    "624": "آ",
    "625": "أ",
    "626": "ؤ",
    "627": "إ",
    "628": "ئ",
    "629": "ا",
    "630": "ب",
    "631": "ة",
    "632": "ت",
    "633": "ث",
    "634": "ج",
    "635": "ح",
    "636": "خ",
    "637": "د",
    "638": "ذ",
    "639": "ر",
    "640": "ز",
    "641": "س",
    "642": "ش",
    "643": "ص",
    "644": "ض",
    "645": "ط",
    "646": "ظ",
    "647": "ع",
    "648": "غ",
    "649": "ـ",
    "650": "ف",
    "651": "ق",
    "652": "ك",
    "653": "ل",
    "654": "م",
    "655": "ن",
    "656": "ه",
    "657": "و",
    "658": "ى",
    "659": "ي",
    "660": "ً",
    "661": "ٌ",
    "662": "ٍ",
    "663": "َ",
    "664": "ُ",
    "665": "ِ",
    "666": "ّ",
    "667": "ْ",
    "668": "٠",
    "669": "١",
    "670": "٢",
    "671": "٣",
    "672": "٤",
    "673": "٥",
    "674": "٦",
    "675": "٧",
    "676": "٨",
    "677": "٩",
    "678": "ٹ",
    "679": "پ",
    "680": "چ",
    "681": "ڈ",
    "682": "ډ",
    "683": "ژ",
    "684": "ک",
    "685": "گ",
    "686": "ہ",
    "687": "ی",
    "688": "ې",
    "689": "ے",
    "690": "۰",
    "691": "۱",
    "692": "۲",
    "693": "۳",
    "694": "۴",
    "695": "۵",
    "696": "۶",
    "697": "۷",
    "698": "۸",
    "699": "۹",
    "700": "ܐ",
    "701": "ܘ",
    "702": "ܝ",
    "703": "ܡ",
    "704": "ܪ",
    "705": "ܬ",
    "706": "ँ",
    "707": "ं",
    "708": "ः",
    "709": "अ",
    "710": "आ",
    "711": "इ",
    "712": "ई",
    "713": "ऍ",
    "714": "ए",
    "715": "ऑ",
    "716": "क",
    "717": "ग",
    "718": "च",
    "719": "ज",
    "720": "झ",
    "721": "ञ",
    "722": "ट",
    "723": "ड",
    "724": "त",
    "725": "थ",
    "726": "द",
    "727": "ध",
    "728": "न",
    "729": "प",
    "730": "फ",
    "731": "ब",
    "732": "भ",
    "733": "म",
    "734": "य",
    "735": "र",
    "736": "ल",
    "737": "व",
    "738": "श",
    "739": "ष",
    "740": "स",
    "741": "ह",
    "742": "़",
    "743": "ा",
    "744": "ि",
    "745": "ी",
    "746": "ु",
    "747": "ू",
    "748": "ृ",
    "749": "ॅ",
    "750": "े",
    "751": "ै",
    "752": "ो",
    "753": "्",
    "754": "ঁ",
    "755": "ং",
    "756": "অ",
    "757": "আ",
    "758": "ই",
    "759": "উ",
    "760": "এ",
    "761": "ও",
    "762": "ক",
    "763": "খ",
    "764": "গ",
    "765": "ঙ",
    "766": "চ",
    "767": "জ",
    "768": "ট",
    "769": "ড",
    "770": "ঢ",
    "771": "ণ",
    "772": "ত",
    "773": "থ",
    "774": "দ",
    "775": "ন",
    "776": "প",
    "777": "ফ",
    "778": "ব",
    "779": "ভ",
    "780": "ম",
    "781": "য",
    "782": "র",
    "783": "ল",
    "784": "শ",
    "785": "ষ",
    "786": "স",
    "787": "হ",
    "788": "়",
    "789": "া",
    "790": "ি",
    "791": "ী",
    "792": "ু",
    "793": "ূ",
    "794": "ৃ",
    "795": "ে",
    "796": "ো",
    "797": "্",
    "798": "ਗ",
    "799": "ਭ",
    "800": "ਾ",
    "801": "ੜ",
    "802": "ੰ",
    "803": "ં",
    "804": "અ",
    "805": "આ",
    "806": "ઍ",
    "807": "એ",
    "808": "ક",
    "809": "ઘ",
    "810": "ચ",
    "811": "ટ",
    "812": "ત",
    "813": "દ",
    "814": "ધ",
    "815": "ન",
    "816": "પ",
    "817": "ફ",
    "818": "બ",
    "819": "ભ",
    "820": "મ",
    "821": "ય",
    "822": "ર",
    "823": "ળ",
    "824": "શ",
    "825": "ષ",
    "826": "સ",
    "827": "હ",
    "828": "ા",
    "829": "િ",
    "830": "ી",
    "831": "ુ",
    "832": "ે",
    "833": "ો",
    "834": "્",
    "835": "அ",
    "836": "ஆ",
    "837": "ஈ",
    "838": "உ",
    "839": "எ",
    "840": "ஏ",
    "841": "ஐ",
    "842": "ஒ",
    "843": "க",
    "844": "ங",
    "845": "ச",
    "846": "ஜ",
    "847": "ட",
    "848": "ண",
    "849": "த",
    "850": "ந",
    "851": "ன",
    "852": "ப",
    "853": "ம",
    "854": "ய",
    "855": "ர",
    "856": "ற",
    "857": "ல",
    "858": "ள",
    "859": "ழ",
    "860": "வ",
    "861": "ஷ",
    "862": "ஸ",
    "863": "ஹ",
    "864": "ா",
    "865": "ி",
    "866": "ீ",
    "867": "ு",
    "868": "ூ",
    "869": "ெ",
    "870": "ே",
    "871": "ை",
    "872": "ொ",
    "873": "ோ",
    "874": "ௌ",
    "875": "்",
    "876": "ం",
    "877": "ఆ",
    "878": "ఏ",
    "879": "గ",
    "880": "ట",
    "881": "త",
    "882": "ద",
    "883": "ధ",
    "884": "ప",
    "885": "బ",
    "886": "ర",
    "887": "ల",
    "888": "శ",
    "889": "ష",
    "890": "ా",
    "891": "ి",
    "892": "ు",
    "893": "ె",
    "894": "ే",
    "895": "్",
    "896": "ಂ",
    "897": "ಅ",
    "898": "ಆ",
    "899": "ಎ",
    "900": "ಐ",
    "901": "ಕ",
    "902": "ಗ",
    "903": "ಜ",
    "904": "ಟ",
    "905": "ಡ",
    "906": "ಣ",
    "907": "ತ",
    "908": "ದ",
    "909": "ಧ",
    "910": "ನ",
    "911": "ಪ",
    "912": "ಫ",
    "913": "ಬ",
    "914": "ಭ",
    "915": "ಯ",
    "916": "ರ",
    "917": "ಲ",
    "918": "ವ",
    "919": "ಶ",
    "920": "ಷ",
    "921": "ಸ",
    "922": "ಾ",
    "923": "ಿ",
    "924": "ೀ",
    "925": "ು",
    "926": "ೆ",
    "927": "ೇ",
    "928": "ೊ",
    "929": "ೋ",
    "930": "್",
    "931": "೦",
    "932": "೧",
    "933": "೨",
    "934": "೪",
    "935": "೫",
    "936": "അ",
    "937": "ആ",
    "938": "ഗ",
    "939": "ഥ",
    "940": "ന",
    "941": "ഫ",
    "942": "ബ",
    "943": "റ",
    "944": "ള",
    "945": "സ",
    "946": "ാ",
    "947": "ി",
    "948": "ൈ",
    "949": "്",
    "950": "ก",
    "951": "ข",
    "952": "ค",
    "953": "ง",
    "954": "จ",
    "955": "ช",
    "956": "ซ",
    "957": "ญ",
    "958": "ฏ",
    "959": "ฐ",
    "960": "ณ",
    "961": "ด",
    "962": "ต",
    "963": "ถ",
    "964": "ท",
    "965": "ธ",
    "966": "น",
    "967": "บ",
    "968": "ป",
    "969": "ผ",
    "970": "พ",
    "971": "ฟ",
    "972": "ภ",
    "973": "ม",
    "974": "ย",
    "975": "ร",
    "976": "ฤ",
    "977": "ล",
    "978": "ว",
    "979": "ศ",
    "980": "ษ",
    "981": "ส",
    "982": "ห",
    "983": "อ",
    "984": "ฮ",
    "985": "ะ",
    "986": "ั",
    "987": "า",
    "988": "ำ",
    "989": "ิ",
    "990": "ี",
    "991": "ึ",
    "992": "ื",
    "993": "ุ",
    "994": "ู",
    "995": "ฺ",
    "996": "เ",
    "997": "แ",
    "998": "โ",
    "999": "ไ",
    "1000": "็",
    "1001": "่",
    "1002": "้",
    "1003": "์",
    "1004": "་",
    "1005": "བ",
    "1006": "ྱ",
    "1007": "က",
    "1008": "တ",
    "1009": "ရ",
    "1010": "ဟ",
    "1011": "အ",
    "1012": "ာ",
    "1013": "ိ",
    "1014": "ု",
    "1015": "္",
    "1016": "ა",
    "1017": "ბ",
    "1018": "გ",
    "1019": "დ",
    "1020": "ე",
    "1021": "ვ",
    "1022": "ზ",
    "1023": "თ",
    "1024": "ი",
    "1025": "კ",
    "1026": "ლ",
    "1027": "მ",
    "1028": "ნ",
    "1029": "ო",
    "1030": "პ",
    "1031": "ჟ",
    "1032": "რ",
    "1033": "ს",
    "1034": "ტ",
    "1035": "უ",
    "1036": "ფ",
    "1037": "ქ",
    "1038": "ღ",
    "1039": "ყ",
    "1040": "შ",
    "1041": "ჩ",
    "1042": "ც",
    "1043": "ძ",
    "1044": "წ",
    "1045": "ხ",
    "1046": "ჯ",
    "1047": "ჰ",
    "1048": "ሀ",
    "1049": "ሁ",
    "1050": "ሂ",
    "1051": "ሃ",
    "1052": "ህ",
    "1053": "ሊ",
    "1054": "ላ",
    "1055": "ል",
    "1056": "ሕ",
    "1057": "ም",
    "1058": "ሪ",
    "1059": "ራ",
    "1060": "ር",
    "1061": "ስ",
    "1062": "ሶ",
    "1063": "ቃ",
    "1064": "ቡ",
    "1065": "ቢ",
    "1066": "ብ",
    "1067": "ቦ",
    "1068": "ተ",
    "1069": "ት",
    "1070": "ና",
    "1071": "ን",
    "1072": "አ",
    "1073": "ኪ",
    "1074": "ክ",
    "1075": "ዋ",
    "1076": "ዚ",
    "1077": "ያ",
    "1078": "ይ",
    "1079": "ዳ",
    "1080": "ጄ",
    "1081": "ጊ",
    "1082": "ጎ",
    "1083": "ፋ",
    "1084": "ፍ",
    "1085": "Ꭰ",
    "1086": "Ꭲ",
    "1087": "Ꭴ",
    "1088": "Ꮃ",
    "1089": "Ꮇ",
    "1090": "Ꮈ",
    "1091": "Ꮑ",
    "1092": "Ꮒ",
    "1093": "Ꮕ",
    "1094": "Ꮖ",
    "1095": "Ꮗ",
    "1096": "Ꮙ",
    "1097": "Ꮝ",
    "1098": "Ꮢ",
    "1099": "Ꮵ",
    "1100": "Ꮺ",
    "1101": "Ꮿ",
    "1102": "ᐅ",
    "1103": "ᐆ",
    "1104": "ᐊ",
    "1105": "ᐱ",
    "1106": "ᐳ",
    "1107": "ᐸ",
    "1108": "ᑎ",
    "1109": "ᑐ",
    "1110": "ᑕ",
    "1111": "ᑦ",
    "1112": "ᑯ",
    "1113": "ᑲ",
    "1114": "ᒃ",
    "1115": "ᒋ",
    "1116": "ᒥ",
    "1117": "ᒪ",
    "1118": "ᓂ",
    "1119": "ᓇ",
    "1120": "ᓕ",
    "1121": "ᓗ",
    "1122": "ᓛ",
    "1123": "ᓪ",
    "1124": "ᓯ",
    "1125": "ᓰ",
    "1126": "ᓱ",
    "1127": "ᓴ",
    "1128": "ᔅ",
    "1129": "ᕆ",
    "1130": "ᕈ",
    "1131": "ᕐ",
    "1132": "ᖃ",
    "1133": "ᖅ",
    "1134": "ជ",
    "1135": "ទ",
    "1136": "យ",
    "1137": "វ",
    "1138": "ា",
    "1139": "ិ",
    "1140": "ី",
    "1141": "្",
    "1142": "ḇ",
    "1143": "ḍ",
    "1144": "ḏ",
    "1145": "Ḥ",
    "1146": "ḥ",
    "1147": "ḫ",
    "1148": "Ḳ",
    "1149": "ḳ",
    "1150": "ḵ",
    "1151": "ṅ",
    "1152": "Ṉ",
    "1153": "ṛ",
    "1154": "Ṣ",
    "1155": "ṣ",
    "1156": "Ṭ",
    "1157": "ṭ",
    "1158": "ṯ",
    "1159": "ẓ",
    "1160": "ẗ",
    "1161": "ạ",
    "1162": "Ả",
    "1163": "ả",
    "1164": "ấ",
    "1165": "ầ",
    "1166": "ẫ",
    "1167": "ậ",
    "1168": "ắ",
    "1169": "ế",
    "1170": "ề",
    "1171": "ể",
    "1172": "ễ",
    "1173": "ệ",
    "1174": "ỉ",
    "1175": "ị",
    "1176": "ọ",
    "1177": "ố",
    "1178": "ồ",
    "1179": "ổ",
    "1180": "ộ",
    "1181": "ớ",
    "1182": "ờ",
    "1183": "ở",
    "1184": "ợ",
    "1185": "ụ",
    "1186": "ủ",
    "1187": "ứ",
    "1188": "ừ",
    "1189": "ử",
    "1190": "ữ",
    "1191": "ự",
    "1192": "ỳ",
    "1193": "ỹ",
    "1194": "ἀ",
    "1195": "ἁ",
    "1196": "ἂ",
    "1197": "ἃ",
    "1198": "ἄ",
    "1199": "Ἀ",
    "1200": "Ἁ",
    "1201": "Ἄ",
    "1202": "ἐ",
    "1203": "ἑ",
    "1204": "ἔ",
    "1205": "ἡ",
    "1206": "ἣ",
    "1207": "ἰ",
    "1208": "ἱ",
    "1209": "ἴ",
    "1210": "ἶ",
    "1211": "Ἱ",
    "1212": "ὀ",
    "1213": "ὁ",
    "1214": "ὃ",
    "1215": "ὐ",
    "1216": "ὑ",
    "1217": "ὔ",
    "1218": "ὠ",
    "1219": "ὰ",
    "1220": "ὲ",
    "1221": "ὴ",
    "1222": "ὸ",
    "1223": "ὺ",
    "1224": "ᾱ",
    "1225": "ᾶ",
    "1226": "ᾷ",
    "1227": "ῆ",
    "1228": "ῖ",
    "1229": "ῥ",
    "1230": "ῦ",
    "1231": "Ῥ",
    "1232": "῾",
    "1233": "‌",
    "1234": "‍",
    "1235": "‎",
    "1236": "‐",
    "1237": "–",
    "1238": "—",
    "1239": "‘",
    "1240": "’",
    "1241": "“",
    "1242": "”",
    "1243": "†",
    "1244": "•",
    "1245": "…",
    "1246": " ",
    "1247": "′",
    "1248": "″",
    "1249": "‹",
    "1250": "›",
    "1251": "⁼",
    "1252": "ⁿ",
    "1253": "₁",
    "1254": "€",
    "1255": "™",
    "1256": "←",
    "1257": "→",
    "1258": "↵",
    "1259": "∀",
    "1260": "∑",
    "1261": "−",
    "1262": "∞",
    "1263": "∴",
    "1264": "≈",
    "1265": "≠",
    "1266": "⍋",
    "1267": "▀",
    "1268": "▄",
    "1269": "█",
    "1270": "○",
    "1271": "●",
    "1272": "♈",
    "1273": "♒",
    "1274": "♥",
    "1275": "　",
    "1276": "あ",
    "1277": "い",
    "1278": "う",
    "1279": "お",
    "1280": "か",
    "1281": "が",
    "1282": "き",
    "1283": "く",
    "1284": "け",
    "1285": "こ",
    "1286": "さ",
    "1287": "じ",
    "1288": "す",
    "1289": "ず",
    "1290": "そ",
    "1291": "だ",
    "1292": "ち",
    "1293": "つ",
    "1294": "と",
    "1295": "ど",
    "1296": "の",
    "1297": "ば",
    "1298": "ひ",
    "1299": "ふ",
    "1300": "み",
    "1301": "め",
    "1302": "ゆ",
    "1303": "ょ",
    "1304": "ら",
    "1305": "り",
    "1306": "る",
    "1307": "れ",
    "1308": "ろ",
    "1309": "を",
    "1310": "ん",
    "1311": "ァ",
    "1312": "ア",
    "1313": "ィ",
    "1314": "イ",
    "1315": "ゥ",
    "1316": "ウ",
    "1317": "ェ",
    "1318": "エ",
    "1319": "ォ",
    "1320": "オ",
    "1321": "カ",
    "1322": "ガ",
    "1323": "キ",
    "1324": "ギ",
    "1325": "ク",
    "1326": "グ",
    "1327": "ケ",
    "1328": "ゲ",
    "1329": "コ",
    "1330": "ゴ",
    "1331": "サ",
    "1332": "ザ",
    "1333": "シ",
    "1334": "ジ",
    "1335": "ス",
    "1336": "ズ",
    "1337": "セ",
    "1338": "ゼ",
    "1339": "ソ",
    "1340": "ゾ",
    "1341": "タ",
    "1342": "ダ",
    "1343": "チ",
    "1344": "ッ",
    "1345": "ツ",
    "1346": "テ",
    "1347": "デ",
    "1348": "ト",
    "1349": "ド",
    "1350": "ナ",
    "1351": "ニ",
    "1352": "ヌ",
    "1353": "ネ",
    "1354": "ノ",
    "1355": "ハ",
    "1356": "バ",
    "1357": "パ",
    "1358": "ヒ",
    "1359": "ビ",
    "1360": "ピ",
    "1361": "フ",
    "1362": "ブ",
    "1363": "プ",
    "1364": "ヘ",
    "1365": "ベ",
    "1366": "ペ",
    "1367": "ホ",
    "1368": "ボ",
    "1369": "ポ",
    "1370": "マ",
    "1371": "ミ",
    "1372": "ム",
    "1373": "メ",
    "1374": "モ",
    "1375": "ャ",
    "1376": "ヤ",
    "1377": "ュ",
    "1378": "ユ",
    "1379": "ョ",
    "1380": "ヨ",
    "1381": "ラ",
    "1382": "リ",
    "1383": "ル",
    "1384": "レ",
    "1385": "ロ",
    "1386": "ワ",
    "1387": "ン",
    "1388": "ヴ",
    "1389": "・",
    "1390": "ー",
    "1391": "一",
    "1392": "丁",
    "1393": "三",
    "1394": "上",
    "1395": "下",
    "1396": "不",
    "1397": "世",
    "1398": "丘",
    "1399": "丙",
    "1400": "业",
    "1401": "东",
    "1402": "両",
    "1403": "两",
    "1404": "中",
    "1405": "丹",
    "1406": "主",
    "1407": "丽",
    "1408": "久",
    "1409": "义",
    "1410": "乐",
    "1411": "乙",
    "1412": "九",
    "1413": "争",
    "1414": "事",
    "1415": "二",
    "1416": "五",
    "1417": "亚",
    "1418": "亜",
    "1419": "亞",
    "1420": "亡",
    "1421": "交",
    "1422": "亨",
    "1423": "亩",
    "1424": "京",
    "1425": "亲",
    "1426": "人",
    "1427": "什",
    "1428": "仁",
    "1429": "他",
    "1430": "代",
    "1431": "令",
    "1432": "件",
    "1433": "伊",
    "1434": "会",
    "1435": "伝",
    "1436": "伞",
    "1437": "传",
    "1438": "伦",
    "1439": "伯",
    "1440": "伴",
    "1441": "伽",
    "1442": "位",
    "1443": "佐",
    "1444": "体",
    "1445": "何",
    "1446": "余",
    "1447": "佛",
    "1448": "作",
    "1449": "使",
    "1450": "依",
    "1451": "俄",
    "1452": "俊",
    "1453": "保",
    "1454": "信",
    "1455": "修",
    "1456": "俱",
    "1457": "俳",
    "1458": "候",
    "1459": "値",
    "1460": "值",
    "1461": "側",
    "1462": "偵",
    "1463": "偽",
    "1464": "傅",
    "1465": "備",
    "1466": "傳",
    "1467": "傻",
    "1468": "像",
    "1469": "優",
    "1470": "元",
    "1471": "兄",
    "1472": "先",
    "1473": "光",
    "1474": "克",
    "1475": "免",
    "1476": "全",
    "1477": "八",
    "1478": "公",
    "1479": "六",
    "1480": "兰",
    "1481": "共",
    "1482": "关",
    "1483": "兵",
    "1484": "典",
    "1485": "兹",
    "1486": "再",
    "1487": "军",
    "1488": "农",
    "1489": "冬",
    "1490": "冰",
    "1491": "准",
    "1492": "凋",
    "1493": "几",
    "1494": "凯",
    "1495": "凱",
    "1496": "击",
    "1497": "函",
    "1498": "分",
    "1499": "切",
    "1500": "划",
    "1501": "列",
    "1502": "別",
    "1503": "利",
    "1504": "制",
    "1505": "刺",
    "1506": "剂",
    "1507": "則",
    "1508": "前",
    "1509": "剖",
    "1510": "剣",
    "1511": "剤",
    "1512": "副",
    "1513": "劇",
    "1514": "劉",
    "1515": "力",
    "1516": "加",
    "1517": "动",
    "1518": "努",
    "1519": "劫",
    "1520": "勃",
    "1521": "勇",
    "1522": "勒",
    "1523": "動",
    "1524": "勸",
    "1525": "匈",
    "1526": "化",
    "1527": "北",
    "1528": "匹",
    "1529": "区",
    "1530": "医",
    "1531": "區",
    "1532": "十",
    "1533": "千",
    "1534": "午",
    "1535": "半",
    "1536": "华",
    "1537": "协",
    "1538": "卑",
    "1539": "協",
    "1540": "南",
    "1541": "単",
    "1542": "博",
    "1543": "卜",
    "1544": "占",
    "1545": "卡",
    "1546": "卫",
    "1547": "印",
    "1548": "历",
    "1549": "原",
    "1550": "及",
    "1551": "友",
    "1552": "反",
    "1553": "収",
    "1554": "发",
    "1555": "叔",
    "1556": "变",
    "1557": "口",
    "1558": "古",
    "1559": "可",
    "1560": "台",
    "1561": "号",
    "1562": "司",
    "1563": "合",
    "1564": "吉",
    "1565": "同",
    "1566": "名",
    "1567": "向",
    "1568": "含",
    "1569": "启",
    "1570": "告",
    "1571": "员",
    "1572": "和",
    "1573": "哈",
    "1574": "响",
    "1575": "員",
    "1576": "哥",
    "1577": "哲",
    "1578": "唧",
    "1579": "唱",
    "1580": "啤",
    "1581": "喜",
    "1582": "單",
    "1583": "嘉",
    "1584": "器",
    "1585": "四",
    "1586": "回",
    "1587": "因",
    "1588": "団",
    "1589": "园",
    "1590": "国",
    "1591": "图",
    "1592": "國",
    "1593": "圍",
    "1594": "園",
    "1595": "在",
    "1596": "圭",
    "1597": "地",
    "1598": "坂",
    "1599": "均",
    "1600": "坎",
    "1601": "坛",
    "1602": "坦",
    "1603": "埃",
    "1604": "城",
    "1605": "域",
    "1606": "培",
    "1607": "基",
    "1608": "堕",
    "1609": "堡",
    "1610": "報",
    "1611": "場",
    "1612": "塔",
    "1613": "塞",
    "1614": "塩",
    "1615": "墨",
    "1616": "壁",
    "1617": "壊",
    "1618": "士",
    "1619": "声",
    "1620": "备",
    "1621": "変",
    "1622": "外",
    "1623": "多",
    "1624": "大",
    "1625": "天",
    "1626": "太",
    "1627": "夫",
    "1628": "失",
    "1629": "奇",
    "1630": "奏",
    "1631": "契",
    "1632": "奖",
    "1633": "奥",
    "1634": "奧",
    "1635": "奪",
    "1636": "女",
    "1637": "奴",
    "1638": "妊",
    "1639": "妮",
    "1640": "姆",
    "1641": "始",
    "1642": "威",
    "1643": "娜",
    "1644": "娠",
    "1645": "媽",
    "1646": "子",
    "1647": "孔",
    "1648": "字",
    "1649": "存",
    "1650": "孙",
    "1651": "孟",
    "1652": "季",
    "1653": "学",
    "1654": "學",
    "1655": "宁",
    "1656": "宇",
    "1657": "安",
    "1658": "宗",
    "1659": "官",
    "1660": "宙",
    "1661": "定",
    "1662": "实",
    "1663": "実",
    "1664": "客",
    "1665": "室",
    "1666": "宴",
    "1667": "家",
    "1668": "容",
    "1669": "宾",
    "1670": "宿",
    "1671": "密",
    "1672": "富",
    "1673": "寒",
    "1674": "寶",
    "1675": "对",
    "1676": "対",
    "1677": "射",
    "1678": "對",
    "1679": "小",
    "1680": "少",
    "1681": "尔",
    "1682": "尤",
    "1683": "尼",
    "1684": "尾",
    "1685": "屄",
    "1686": "屋",
    "1687": "属",
    "1688": "屬",
    "1689": "山",
    "1690": "岛",
    "1691": "島",
    "1692": "崩",
    "1693": "川",
    "1694": "州",
    "1695": "工",
    "1696": "巫",
    "1697": "差",
    "1698": "巴",
    "1699": "市",
    "1700": "布",
    "1701": "师",
    "1702": "希",
    "1703": "帝",
    "1704": "師",
    "1705": "常",
    "1706": "幅",
    "1707": "平",
    "1708": "年",
    "1709": "幹",
    "1710": "幾",
    "1711": "广",
    "1712": "広",
    "1713": "庄",
    "1714": "序",
    "1715": "库",
    "1716": "应",
    "1717": "府",
    "1718": "度",
    "1719": "座",
    "1720": "庭",
    "1721": "廣",
    "1722": "廷",
    "1723": "建",
    "1724": "异",
    "1725": "式",
    "1726": "弗",
    "1727": "弟",
    "1728": "张",
    "1729": "弥",
    "1730": "弦",
    "1731": "強",
    "1732": "当",
    "1733": "录",
    "1734": "形",
    "1735": "影",
    "1736": "律",
    "1737": "後",
    "1738": "徒",
    "1739": "得",
    "1740": "德",
    "1741": "心",
    "1742": "忒",
    "1743": "応",
    "1744": "性",
    "1745": "恩",
    "1746": "息",
    "1747": "情",
    "1748": "惑",
    "1749": "惡",
    "1750": "愛",
    "1751": "慕",
    "1752": "懶",
    "1753": "懷",
    "1754": "戈",
    "1755": "戏",
    "1756": "成",
    "1757": "战",
    "1758": "戦",
    "1759": "戰",
    "1760": "所",
    "1761": "手",
    "1762": "扎",
    "1763": "托",
    "1764": "承",
    "1765": "抑",
    "1766": "抗",
    "1767": "択",
    "1768": "抽",
    "1769": "拉",
    "1770": "拔",
    "1771": "拜",
    "1772": "拟",
    "1773": "振",
    "1774": "捷",
    "1775": "探",
    "1776": "接",
    "1777": "推",
    "1778": "掲",
    "1779": "提",
    "1780": "搞",
    "1781": "摆",
    "1782": "摩",
    "1783": "撃",
    "1784": "播",
    "1785": "擊",
    "1786": "擬",
    "1787": "攻",
    "1788": "放",
    "1789": "政",
    "1790": "教",
    "1791": "散",
    "1792": "敦",
    "1793": "数",
    "1794": "數",
    "1795": "文",
    "1796": "斎",
    "1797": "料",
    "1798": "断",
    "1799": "斯",
    "1800": "新",
    "1801": "方",
    "1802": "施",
    "1803": "旋",
    "1804": "族",
    "1805": "无",
    "1806": "日",
    "1807": "时",
    "1808": "昂",
    "1809": "昌",
    "1810": "明",
    "1811": "星",
    "1812": "映",
    "1813": "昧",
    "1814": "昭",
    "1815": "昱",
    "1816": "時",
    "1817": "普",
    "1818": "智",
    "1819": "暗",
    "1820": "暦",
    "1821": "曖",
    "1822": "曲",
    "1823": "書",
    "1824": "曼",
    "1825": "替",
    "1826": "會",
    "1827": "月",
    "1828": "朗",
    "1829": "期",
    "1830": "木",
    "1831": "本",
    "1832": "札",
    "1833": "术",
    "1834": "朱",
    "1835": "机",
    "1836": "权",
    "1837": "李",
    "1838": "杜",
    "1839": "条",
    "1840": "来",
    "1841": "杨",
    "1842": "杰",
    "1843": "東",
    "1844": "松",
    "1845": "板",
    "1846": "极",
    "1847": "析",
    "1848": "林",
    "1849": "果",
    "1850": "枪",
    "1851": "枯",
    "1852": "柏",
    "1853": "柔",
    "1854": "查",
    "1855": "柯",
    "1856": "柱",
    "1857": "标",
    "1858": "树",
    "1859": "栖",
    "1860": "根",
    "1861": "格",
    "1862": "桑",
    "1863": "棉",
    "1864": "棋",
    "1865": "森",
    "1866": "植",
    "1867": "業",
    "1868": "極",
    "1869": "楽",
    "1870": "樂",
    "1871": "模",
    "1872": "権",
    "1873": "樹",
    "1874": "橄",
    "1875": "橋",
    "1876": "機",
    "1877": "欖",
    "1878": "欢",
    "1879": "歌",
    "1880": "歐",
    "1881": "正",
    "1882": "步",
    "1883": "歷",
    "1884": "死",
    "1885": "殺",
    "1886": "母",
    "1887": "比",
    "1888": "毕",
    "1889": "毛",
    "1890": "民",
    "1891": "气",
    "1892": "気",
    "1893": "氣",
    "1894": "氧",
    "1895": "氨",
    "1896": "氩",
    "1897": "水",
    "1898": "汀",
    "1899": "汇",
    "1900": "汉",
    "1901": "汗",
    "1902": "汽",
    "1903": "沃",
    "1904": "沙",
    "1905": "沢",
    "1906": "河",
    "1907": "油",
    "1908": "治",
    "1909": "法",
    "1910": "波",
    "1911": "泰",
    "1912": "泳",
    "1913": "洋",
    "1914": "洗",
    "1915": "洛",
    "1916": "洲",
    "1917": "派",
    "1918": "流",
    "1919": "浩",
    "1920": "海",
    "1921": "涎",
    "1922": "渐",
    "1923": "港",
    "1924": "游",
    "1925": "滋",
    "1926": "滕",
    "1927": "漁",
    "1928": "演",
    "1929": "漠",
    "1930": "澤",
    "1931": "澳",
    "1932": "瀉",
    "1933": "火",
    "1934": "灰",
    "1935": "灵",
    "1936": "灸",
    "1937": "炎",
    "1938": "炔",
    "1939": "炭",
    "1940": "炮",
    "1941": "炸",
    "1942": "炼",
    "1943": "烃",
    "1944": "烈",
    "1945": "烏",
    "1946": "烯",
    "1947": "烷",
    "1948": "烹",
    "1949": "烽",
    "1950": "無",
    "1951": "然",
    "1952": "熱",
    "1953": "燕",
    "1954": "爆",
    "1955": "爭",
    "1956": "爱",
    "1957": "爾",
    "1958": "牆",
    "1959": "牙",
    "1960": "物",
    "1961": "特",
    "1962": "犬",
    "1963": "犹",
    "1964": "狄",
    "1965": "独",
    "1966": "獄",
    "1967": "獨",
    "1968": "王",
    "1969": "现",
    "1970": "玻",
    "1971": "珀",
    "1972": "珍",
    "1973": "班",
    "1974": "現",
    "1975": "球",
    "1976": "理",
    "1977": "琉",
    "1978": "琛",
    "1979": "琥",
    "1980": "琴",
    "1981": "瑞",
    "1982": "瑟",
    "1983": "瑪",
    "1984": "瓜",
    "1985": "瓦",
    "1986": "瓶",
    "1987": "生",
    "1988": "用",
    "1989": "田",
    "1990": "由",
    "1991": "甲",
    "1992": "电",
    "1993": "男",
    "1994": "画",
    "1995": "界",
    "1996": "畢",
    "1997": "番",
    "1998": "疆",
    "1999": "疗",
    "2000": "疣",
    "2001": "疫",
    "2002": "病",
    "2003": "症",
    "2004": "療",
    "2005": "発",
    "2006": "登",
    "2007": "白",
    "2008": "百",
    "2009": "的",
    "2010": "皇",
    "2011": "皮",
    "2012": "盔",
    "2013": "盘",
    "2014": "盛",
    "2015": "盟",
    "2016": "目",
    "2017": "相",
    "2018": "県",
    "2019": "着",
    "2020": "知",
    "2021": "石",
    "2022": "砂",
    "2023": "研",
    "2024": "砲",
    "2025": "砷",
    "2026": "砹",
    "2027": "硬",
    "2028": "碱",
    "2029": "磷",
    "2030": "示",
    "2031": "礼",
    "2032": "社",
    "2033": "祖",
    "2034": "神",
    "2035": "祭",
    "2036": "离",
    "2037": "秋",
    "2038": "科",
    "2039": "积",
    "2040": "称",
    "2041": "程",
    "2042": "積",
    "2043": "穴",
    "2044": "究",
    "2045": "空",
    "2046": "突",
    "2047": "窒",
    "2048": "窟",
    "2049": "立",
    "2050": "第",
    "2051": "等",
    "2052": "筋",
    "2053": "筑",
    "2054": "筒",
    "2055": "算",
    "2056": "管",
    "2057": "箭",
    "2058": "箱",
    "2059": "節",
    "2060": "築",
    "2061": "米",
    "2062": "类",
    "2063": "粒",
    "2064": "精",
    "2065": "系",
    "2066": "紀",
    "2067": "約",
    "2068": "納",
    "2069": "級",
    "2070": "素",
    "2071": "索",
    "2072": "紧",
    "2073": "累",
    "2074": "細",
    "2075": "組",
    "2076": "結",
    "2077": "絕",
    "2078": "絶",
    "2079": "經",
    "2080": "継",
    "2081": "維",
    "2082": "綱",
    "2083": "綴",
    "2084": "綿",
    "2085": "線",
    "2086": "縮",
    "2087": "織",
    "2088": "纪",
    "2089": "纳",
    "2090": "线",
    "2091": "组",
    "2092": "细",
    "2093": "结",
    "2094": "绝",
    "2095": "统",
    "2096": "维",
    "2097": "编",
    "2098": "缩",
    "2099": "缪",
    "2100": "罕",
    "2101": "罗",
    "2102": "羅",
    "2103": "羊",
    "2104": "美",
    "2105": "群",
    "2106": "義",
    "2107": "翁",
    "2108": "考",
    "2109": "者",
    "2110": "耐",
    "2111": "耶",
    "2112": "聖",
    "2113": "肉",
    "2114": "肌",
    "2115": "肛",
    "2116": "肢",
    "2117": "肩",
    "2118": "肯",
    "2119": "育",
    "2120": "背",
    "2121": "胎",
    "2122": "胞",
    "2123": "胺",
    "2124": "能",
    "2125": "脇",
    "2126": "脈",
    "2127": "脑",
    "2128": "脱",
    "2129": "脳",
    "2130": "腊",
    "2131": "腎",
    "2132": "腺",
    "2133": "膠",
    "2134": "臥",
    "2135": "自",
    "2136": "致",
    "2137": "舌",
    "2138": "舞",
    "2139": "航",
    "2140": "舰",
    "2141": "艦",
    "2142": "色",
    "2143": "艺",
    "2144": "艾",
    "2145": "节",
    "2146": "芝",
    "2147": "芦",
    "2148": "芬",
    "2149": "花",
    "2150": "芳",
    "2151": "芸",
    "2152": "苋",
    "2153": "苏",
    "2154": "苯",
    "2155": "英",
    "2156": "苷",
    "2157": "苹",
    "2158": "范",
    "2159": "茲",
    "2160": "茵",
    "2161": "草",
    "2162": "荟",
    "2163": "药",
    "2164": "荷",
    "2165": "莉",
    "2166": "莎",
    "2167": "莫",
    "2168": "莱",
    "2169": "菊",
    "2170": "菌",
    "2171": "菜",
    "2172": "萄",
    "2173": "萎",
    "2174": "营",
    "2175": "萨",
    "2176": "葉",
    "2177": "葡",
    "2178": "蒂",
    "2179": "蒙",
    "2180": "蒲",
    "2181": "蓋",
    "2182": "薩",
    "2183": "薫",
    "2184": "薬",
    "2185": "藏",
    "2186": "藻",
    "2187": "蘭",
    "2188": "虎",
    "2189": "蚁",
    "2190": "蚂",
    "2191": "蛇",
    "2192": "蟲",
    "2193": "血",
    "2194": "行",
    "2195": "術",
    "2196": "衛",
    "2197": "表",
    "2198": "衰",
    "2199": "装",
    "2200": "裔",
    "2201": "複",
    "2202": "西",
    "2203": "見",
    "2204": "観",
    "2205": "角",
    "2206": "解",
    "2207": "言",
    "2208": "計",
    "2209": "記",
    "2210": "設",
    "2211": "訴",
    "2212": "訶",
    "2213": "詞",
    "2214": "話",
    "2215": "語",
    "2216": "説",
    "2217": "調",
    "2218": "論",
    "2219": "諸",
    "2220": "議",
    "2221": "變",
    "2222": "计",
    "2223": "论",
    "2224": "设",
    "2225": "该",
    "2226": "语",
    "2227": "说",
    "2228": "诺",
    "2229": "象",
    "2230": "豬",
    "2231": "貝",
    "2232": "財",
    "2233": "資",
    "2234": "賞",
    "2235": "質",
    "2236": "賽",
    "2237": "贝",
    "2238": "负",
    "2239": "贡",
    "2240": "质",
    "2241": "赤",
    "2242": "赦",
    "2243": "赫",
    "2244": "赵",
    "2245": "超",
    "2246": "足",
    "2247": "跃",
    "2248": "路",
    "2249": "車",
    "2250": "軍",
    "2251": "輸",
    "2252": "輻",
    "2253": "车",
    "2254": "轨",
    "2255": "转",
    "2256": "轰",
    "2257": "辛",
    "2258": "辞",
    "2259": "農",
    "2260": "达",
    "2261": "迈",
    "2262": "运",
    "2263": "近",
    "2264": "进",
    "2265": "迦",
    "2266": "迪",
    "2267": "述",
    "2268": "送",
    "2269": "逊",
    "2270": "逐",
    "2271": "通",
    "2272": "速",
    "2273": "造",
    "2274": "運",
    "2275": "過",
    "2276": "道",
    "2277": "達",
    "2278": "適",
    "2279": "選",
    "2280": "遺",
    "2281": "避",
    "2282": "那",
    "2283": "邦",
    "2284": "郡",
    "2285": "部",
    "2286": "都",
    "2287": "配",
    "2288": "酒",
    "2289": "酗",
    "2290": "酶",
    "2291": "酸",
    "2292": "醇",
    "2293": "里",
    "2294": "重",
    "2295": "量",
    "2296": "金",
    "2297": "針",
    "2298": "銀",
    "2299": "銅",
    "2300": "錨",
    "2301": "錬",
    "2302": "録",
    "2303": "鍼",
    "2304": "鎮",
    "2305": "鑑",
    "2306": "针",
    "2307": "铍",
    "2308": "铝",
    "2309": "锑",
    "2310": "锕",
    "2311": "锚",
    "2312": "锡",
    "2313": "镅",
    "2314": "长",
    "2315": "門",
    "2316": "閉",
    "2317": "開",
    "2318": "間",
    "2319": "関",
    "2320": "閣",
    "2321": "闘",
    "2322": "關",
    "2323": "门",
    "2324": "闪",
    "2325": "阿",
    "2326": "陆",
    "2327": "院",
    "2328": "陳",
    "2329": "陵",
    "2330": "陸",
    "2331": "隆",
    "2332": "際",
    "2333": "障",
    "2334": "雅",
    "2335": "集",
    "2336": "雑",
    "2337": "難",
    "2338": "雨",
    "2339": "零",
    "2340": "雷",
    "2341": "電",
    "2342": "青",
    "2343": "非",
    "2344": "面",
    "2345": "韦",
    "2346": "音",
    "2347": "響",
    "2348": "頓",
    "2349": "領",
    "2350": "類",
    "2351": "顿",
    "2352": "频",
    "2353": "颠",
    "2354": "风",
    "2355": "飛",
    "2356": "飞",
    "2357": "食",
    "2358": "飲",
    "2359": "飽",
    "2360": "養",
    "2361": "館",
    "2362": "饪",
    "2363": "饰",
    "2364": "首",
    "2365": "香",
    "2366": "馬",
    "2367": "駆",
    "2368": "马",
    "2369": "验",
    "2370": "體",
    "2371": "高",
    "2372": "魚",
    "2373": "魯",
    "2374": "鮑",
    "2375": "鰓",
    "2376": "鰭",
    "2377": "鲁",
    "2378": "鲍",
    "2379": "鳥",
    "2380": "鶏",
    "2381": "鸟",
    "2382": "麦",
    "2383": "黃",
    "2384": "黄",
    "2385": "黎",
    "2386": "黏",
    "2387": "黑",
    "2388": "黒",
    "2389": "黙",
    "2390": "鼠",
    "2391": "龍",
    "2392": "龙",
    "2393": "가",
    "2394": "각",
    "2395": "강",
    "2396": "개",
    "2397": "거",
    "2398": "건",
    "2399": "겉",
    "2400": "게",
    "2401": "격",
    "2402": "결",
    "2403": "경",
    "2404": "계",
    "2405": "고",
    "2406": "곡",
    "2407": "곤",
    "2408": "골",
    "2409": "공",
    "2410": "과",
    "2411": "관",
    "2412": "광",
    "2413": "괴",
    "2414": "교",
    "2415": "구",
    "2416": "국",
    "2417": "군",
    "2418": "귀",
    "2419": "귈",
    "2420": "균",
    "2421": "그",
    "2422": "극",
    "2423": "근",
    "2424": "글",
    "2425": "금",
    "2426": "급",
    "2427": "기",
    "2428": "나",
    "2429": "낙",
    "2430": "날",
    "2431": "남",
    "2432": "냉",
    "2433": "널",
    "2434": "네",
    "2435": "노",
    "2436": "논",
    "2437": "농",
    "2438": "뇌",
    "2439": "누",
    "2440": "뉴",
    "2441": "늄",
    "2442": "느",
    "2443": "능",
    "2444": "니",
    "2445": "닉",
    "2446": "다",
    "2447": "단",
    "2448": "담",
    "2449": "당",
    "2450": "대",
    "2451": "더",
    "2452": "덤",
    "2453": "데",
    "2454": "도",
    "2455": "독",
    "2456": "돌",
    "2457": "동",
    "2458": "둘",
    "2459": "뒤",
    "2460": "드",
    "2461": "등",
    "2462": "디",
    "2463": "라",
    "2464": "락",
    "2465": "람",
    "2466": "랍",
    "2467": "래",
    "2468": "랜",
    "2469": "랭",
    "2470": "량",
    "2471": "러",
    "2472": "런",
    "2473": "럼",
    "2474": "레",
    "2475": "렉",
    "2476": "렌",
    "2477": "렐",
    "2478": "령",
    "2479": "로",
    "2480": "론",
    "2481": "롭",
    "2482": "루",
    "2483": "룬",
    "2484": "룹",
    "2485": "뤼",
    "2486": "류",
    "2487": "륨",
    "2488": "르",
    "2489": "를",
    "2490": "리",
    "2491": "린",
    "2492": "릴",
    "2493": "립",
    "2494": "링",
    "2495": "마",
    "2496": "만",
    "2497": "말",
    "2498": "매",
    "2499": "맥",
    "2500": "메",
    "2501": "멤",
    "2502": "면",
    "2503": "명",
    "2504": "모",
    "2505": "무",
    "2506": "문",
    "2507": "물",
    "2508": "뮈",
    "2509": "뮤",
    "2510": "미",
    "2511": "민",
    "2512": "밀",
    "2513": "밍",
    "2514": "바",
    "2515": "박",
    "2516": "반",
    "2517": "발",
    "2518": "방",
    "2519": "배",
    "2520": "버",
    "2521": "번",
    "2522": "법",
    "2523": "베",
    "2524": "벤",
    "2525": "벨",
    "2526": "벽",
    "2527": "변",
    "2528": "병",
    "2529": "보",
    "2530": "본",
    "2531": "볼",
    "2532": "부",
    "2533": "북",
    "2534": "분",
    "2535": "불",
    "2536": "붕",
    "2537": "브",
    "2538": "블",
    "2539": "비",
    "2540": "빌",
    "2541": "사",
    "2542": "삭",
    "2543": "산",
    "2544": "살",
    "2545": "삼",
    "2546": "상",
    "2547": "새",
    "2548": "생",
    "2549": "샨",
    "2550": "서",
    "2551": "석",
    "2552": "선",
    "2553": "설",
    "2554": "섬",
    "2555": "성",
    "2556": "세",
    "2557": "센",
    "2558": "셀",
    "2559": "셈",
    "2560": "션",
    "2561": "소",
    "2562": "속",
    "2563": "쇼",
    "2564": "수",
    "2565": "순",
    "2566": "술",
    "2567": "슈",
    "2568": "슘",
    "2569": "스",
    "2570": "슨",
    "2571": "슬",
    "2572": "시",
    "2573": "식",
    "2574": "신",
    "2575": "아",
    "2576": "악",
    "2577": "안",
    "2578": "알",
    "2579": "암",
    "2580": "압",
    "2581": "앙",
    "2582": "애",
    "2583": "앤",
    "2584": "앨",
    "2585": "앵",
    "2586": "야",
    "2587": "약",
    "2588": "양",
    "2589": "어",
    "2590": "언",
    "2591": "엄",
    "2592": "업",
    "2593": "없",
    "2594": "에",
    "2595": "역",
    "2596": "연",
    "2597": "열",
    "2598": "염",
    "2599": "엽",
    "2600": "영",
    "2601": "오",
    "2602": "온",
    "2603": "올",
    "2604": "와",
    "2605": "왕",
    "2606": "외",
    "2607": "용",
    "2608": "우",
    "2609": "운",
    "2610": "움",
    "2611": "워",
    "2612": "원",
    "2613": "월",
    "2614": "웹",
    "2615": "위",
    "2616": "유",
    "2617": "율",
    "2618": "을",
    "2619": "음",
    "2620": "응",
    "2621": "의",
    "2622": "이",
    "2623": "인",
    "2624": "일",
    "2625": "임",
    "2626": "잉",
    "2627": "자",
    "2628": "작",
    "2629": "잔",
    "2630": "장",
    "2631": "재",
    "2632": "잭",
    "2633": "쟁",
    "2634": "적",
    "2635": "전",
    "2636": "절",
    "2637": "점",
    "2638": "접",
    "2639": "제",
    "2640": "조",
    "2641": "족",
    "2642": "존",
    "2643": "주",
    "2644": "중",
    "2645": "즈",
    "2646": "즘",
    "2647": "증",
    "2648": "지",
    "2649": "직",
    "2650": "진",
    "2651": "질",
    "2652": "집",
    "2653": "차",
    "2654": "천",
    "2655": "체",
    "2656": "총",
    "2657": "추",
    "2658": "축",
    "2659": "츠",
    "2660": "치",
    "2661": "칙",
    "2662": "칭",
    "2663": "카",
    "2664": "칸",
    "2665": "칼",
    "2666": "캔",
    "2667": "커",
    "2668": "컨",
    "2669": "컬",
    "2670": "컴",
    "2671": "케",
    "2672": "코",
    "2673": "콕",
    "2674": "콘",
    "2675": "퀼",
    "2676": "크",
    "2677": "클",
    "2678": "키",
    "2679": "킨",
    "2680": "킬",
    "2681": "타",
    "2682": "탄",
    "2683": "태",
    "2684": "택",
    "2685": "탱",
    "2686": "터",
    "2687": "턴",
    "2688": "테",
    "2689": "텐",
    "2690": "텔",
    "2691": "토",
    "2692": "톤",
    "2693": "투",
    "2694": "툼",
    "2695": "튜",
    "2696": "트",
    "2697": "틀",
    "2698": "티",
    "2699": "틴",
    "2700": "틸",
    "2701": "파",
    "2702": "판",
    "2703": "패",
    "2704": "펌",
    "2705": "페",
    "2706": "펜",
    "2707": "폐",
    "2708": "포",
    "2709": "폭",
    "2710": "폴",
    "2711": "푼",
    "2712": "풀",
    "2713": "퓨",
    "2714": "프",
    "2715": "플",
    "2716": "피",
    "2717": "하",
    "2718": "학",
    "2719": "함",
    "2720": "합",
    "2721": "항",
    "2722": "해",
    "2723": "햄",
    "2724": "행",
    "2725": "향",
    "2726": "헝",
    "2727": "헤",
    "2728": "헨",
    "2729": "호",
    "2730": "홀",
    "2731": "화",
    "2732": "황",
    "2733": "회",
    "2734": "획",
    "2735": "흐",
    "2736": "흑",
    "2737": "히",
    "2738": "ﷲ",
    "2739": "ﺀ",
    "2740": "ﺃ",
    "2741": "ﺍ",
    "2742": "ﺎ",
    "2743": "ﺏ",
    "2744": "ﺒ",
    "2745": "ﺕ",
    "2746": "ﺙ",
    "2747": "ﺝ",
    "2748": "ﺡ",
    "2749": "ﺥ",
    "2750": "ﺩ",
    "2751": "ﺫ",
    "2752": "ﺭ",
    "2753": "ﺯ",
    "2754": "ﺱ",
    "2755": "ﺵ",
    "2756": "ﺹ",
    "2757": "ﺽ",
    "2758": "ﻁ",
    "2759": "ﻅ",
    "2760": "ﻉ",
    "2761": "ﻋ",
    "2762": "ﻍ",
    "2763": "ﻑ",
    "2764": "ﻕ",
    "2765": "ﻙ",
    "2766": "ﻝ",
    "2767": "ﻡ",
    "2768": "ﻥ",
    "2769": "ﻫ",
    "2770": "ﻭ",
    "2771": "ﻯ",
    "2772": "ﻰ",
    "2773": "ﻱ",
    "2774": "ﻳ",
    "2775": "ﻴ",
    "2776": "（",
    "2777": "）",
    "2778": "＝",
    "2779": "ｃ",
    "2780": "ｈ",
    "2781": "�",
    "2782": "er",
    "2783": "in",
    "2784": "th",
    "2785": "is",
    "2786": "an",
    "2787": "on",
    "2788": "ar",
    "2789": "ti",
    "2790": "the",
    "2791": "or",
    "2792": "]]",
    "2793": "[[",
    "2794": "ed",
    "2795": "al",
    "2796": "en",
    "2797": "es",
    "2798": "ch",
    "2799": "ist",
    "2800": "of",
    "2801": "arch",
    "2802": "re",
    "2803": "as",
    "2804": "and",
    "2805": "ism",
    "2806": "at",
    "2807": "anarch",
    "2808": "t;",
    "2809": "tion",
    "2810": "st",
    "2811": "it",
    "2812": "''",
    "2813": "om",
    "2814": "ou",
    "2815": "ol",
    "2816": "le",
    "2817": "id",
    "2818": "am",
    "2819": "</",
    "2820": "ent",
    "2821": "ac",
    "2822": "to",
    "2823": "ic",
    "2824": "ing",
    "2825": "ve",
    "2826": "op",
    "2827": "qu",
    "2828": "ut",
    "2829": "se",
    "2830": "il",
    "2831": "ag",
    "2832": "quo",
    "2833": "&quo",
    "2834": "&quot;",
    "2835": "be",
    "2836": "tic",
    "2837": "un",
    "2838": "ation",
    "2839": "aut",
    "2840": "ri",
    "2841": "ht",
    "2842": "com",
    "2843": "ment",
    "2844": "con",
    "2845": "ly",
    "2846": "no",
    "2847": "for",
    "2848": "pr",
    "2849": "oc",
    "2850": "he",
    "2851": "de",
    "2852": "ab",
    "2853": "ter",
    "2854": "te",
    "2855": "ers",
    "2856": "id>",
    "2857": "us",
    "2858": "age",
    "2859": "ion",
    "2860": "amp",
    "2861": "ur",
    "2862": "est",
    "2863": "tit",
    "2864": "<id>",
    "2865": "</id>",
    "2866": "tim",
    "2867": "sp",
    "2868": "cont",
    "2869": "but",
    "2870": "==",
    "2871": "di",
    "2872": "00",
    "2873": "rev",
    "2874": "xt",
    "2875": "title",
    "2876": "RE",
    "2877": "]],",
    "2878": "ww",
    "2879": "ate",
    "2880": "An",
    "2881": "wi",
    "2882": "ce",
    "2883": "ir",
    "2884": "ision",
    "2885": "Al",
    "2886": "ul",
    "2887": "page",
    "2888": "ig",
    "2889": "with",
    "2890": "The",
    "2891": "text",
    "2892": "ct",
    "2893": "ap",
    "2894": "wh",
    "2895": "ad",
    "2896": "ver",
    "2897": "ther",
    "2898": "ribut",
    "2899": "]].",
    "2900": "ill",
    "2901": "ame",
    "2902": "that",
    "2903": "ay",
    "2904": "In",
    "2905": "su",
    "2906": "im",
    "2907": "ow",
    "2908": "inc",
    "2909": "by",
    "2910": "em",
    "2911": "ess",
    "2912": "et",
    "2913": "was",
    "2914": "18",
    "2915": "incol",
    "2916": "incoln",
    "2917": "od",
    "2918": "Lincoln",
    "2919": "his",
    "2920": "li",
    "2921": "'s",
    "2922": "19",
    "2923": "ra",
    "2924": "ace",
    "2925": "um",
    "2926": "tp",
    "2927": "Ab",
    "2928": "Un",
    "2929": "fr",
    "2930": "s,",
    "2931": "all",
    "2932": "ot",
    "2933": "os",
    "2934": "oun",
    "2935": "pe",
    "2936": "la",
    "2937": "ity",
    "2938": "ld",
    "2939": "s.",
    "2940": "ha",
    "2941": "ex",
    "2942": "Ar",
    "2943": "og",
    "2944": "http",
    "2945": "http:",
    "2946": "http:/",
    "2947": "http://",
    "2948": "ory",
    "2949": "Arist",
    "2950": "contribut",
    "2951": "or>",
    "2952": "are",
    "2953": "revision",
    "2954": "title>",
    "2955": "timest",
    "2956": "timestamp",
    "2957": "timestamp>",
    "2958": "contributor>",
    "2959": "revision>",
    "2960": "page>",
    "2961": "comment",
    "2962": "comment>",
    "2963": "ern",
    "2964": "pres",
    "2965": "ard",
    "2966": "St",
    "2967": "amp;",
    "2968": "&amp;",
    "2969": "ca",
    "2970": "[[A",
    "2971": "200",
    "2972": "mo",
    "2973": "tr",
    "2974": "ci",
    "2975": "not",
    "2976": "el",
    "2977": "from",
    "2978": "ome",
    "2979": "[http://",
    "2980": "ml",
    "2981": "[[C",
    "2982": "ary",
    "2983": "'''",
    "2984": "ph",
    "2985": "ain",
    "2986": "ical",
    "2987": "man",
    "2988": "bl",
    "2989": "her",
    "2990": "vers",
    "2991": "ual",
    "2992": "ear",
    "2993": "}}",
    "2994": "{{",
    "2995": "w.",
    "2996": "www.",
    "2997": "ty",
    "2998": "Rand",
    "2999": "yn",
    "3000": "oug",
    "3001": "[http://www.",
    "3002": "vi",
    "3003": "15",
    "3004": "ich",
    "3005": "so",
    "3006": "pl",
    "3007": "ated",
    "3008": "ia",
    "3009": "ber",
    "3010": "end",
    "3011": "par",
    "3012": "ro",
    "3013": "gt;",
    "3014": "&gt;",
    "3015": "lt;",
    "3016": "&lt;",
    "3017": "wor",
    "3018": "ger",
    "3019": "ort",
    "3020": "ew",
    "3021": "ff",
    "3022": "one",
    "3023": "ction",
    "3024": "out",
    "3025": "ru",
    "3026": "las",
    "3027": "ian",
    "3028": "res",
    "3029": "Re",
    "3030": "our",
    "3031": "ial",
    "3032": "ates",
    "3033": "ip",
    "3034": "ure",
    "3035": "go",
    "3036": "ke",
    "3037": "ame>",
    "3038": "gg",
    "3039": "Sh",
    "3040": "At",
    "3041": "rugg",
    "3042": "ran",
    "3043": "rugged",
    "3044": "Shrugged",
    "3045": "usern",
    "3046": "username>",
    "3047": "Atlas",
    "3048": "sh",
    "3049": "co",
    "3050": "lin",
    "3051": "s]]",
    "3052": "Shrugged|",
    "3053": "ish",
    "3054": "[[P",
    "3055": "ne",
    "3056": "which",
    "3057": "ma",
    "3058": "gu",
    "3059": "ge",
    "3060": "bo",
    "3061": "ence",
    "3062": "olog",
    "3063": "soc",
    "3064": "ere",
    "3065": "gr",
    "3066": "dis",
    "3067": "who",
    "3068": "ican",
    "3069": "hy",
    "3070": "ev",
    "3071": "ology",
    "3072": "ud",
    "3073": "ref",
    "3074": "act",
    "3075": "thr",
    "3076": "ateg",
    "3077": "istic",
    "3078": "der",
    "3079": "ult",
    "3080": "tive",
    "3081": "ign",
    "3082": "mor",
    "3083": "min",
    "3084": "vel",
    "3085": "have",
    "3086": "===",
    "3087": "ite",
    "3088": "ubl",
    "3089": "pt",
    "3090": "ists",
    "3091": "mer",
    "3092": "ous",
    "3093": "we",
    "3094": "es,",
    "3095": "ae",
    "3096": "if",
    "3097": "ould",
    "3098": "ie",
    "3099": "my",
    "3100": "me",
    "3101": "ect",
    "3102": "ree",
    "3103": "art",
    "3104": "this",
    "3105": "ilos",
    "3106": "ilosop",
    "3107": "ks",
    "3108": "ough",
    "3109": "also",
    "3110": "per",
    "3111": "ward",
    "3112": "chem",
    "3113": "cent",
    "3114": "ine",
    "3115": "ob",
    "3116": "ited",
    "3117": "now",
    "3118": "]]''",
    "3119": "[[M",
    "3120": "use",
    "3121": "ound",
    "3122": "au",
    "3123": "-0",
    "3124": "other",
    "3125": "form",
    "3126": "port",
    "3127": "some",
    "3128": "ans",
    "3129": "publ",
    "3130": "ust",
    "3131": "year",
    "3132": "ies",
    "3133": "ally",
    "3134": "ong",
    "3135": "has",
    "3136": "ant",
    "3137": "ever",
    "3138": "a]]",
    "3139": "ustri",
    "3140": "rit",
    "3141": "ide",
    "3142": "ok",
    "3143": ").",
    "3144": "ral",
    "3145": "ast",
    "3146": "tern",
    "3147": "iz",
    "3148": "ustral",
    "3149": "sy",
    "3150": "lan",
    "3151": "ational",
    "3152": "Austral",
    "3153": "pro",
    "3154": ")|",
    "3155": "Australia",
    "3156": "ose",
    "3157": ":A",
    "3158": "were",
    "3159": "merican",
    "3160": "ople",
    "3161": "He",
    "3162": "Con",
    "3163": "pos",
    "3164": "such",
    "3165": "gen",
    "3166": "ec",
    "3167": "ategory",
    "3168": "enc",
    "3169": "its",
    "3170": "comm",
    "3171": "acter",
    "3172": "aracter",
    "3173": "11",
    "3174": "&amp;n",
    "3175": "|-",
    "3176": "10",
    "3177": "&amp;nb",
    "3178": "&amp;nbsp",
    "3179": "&amp;nbsp;",
    "3180": "can",
    "3181": "br",
    "3182": "[[S",
    "3183": "their",
    "3184": "ll",
    "3185": "most",
    "3186": "philosop",
    "3187": "org",
    "3188": "),",
    "3189": "[[T",
    "3190": "[[E",
    "3191": "fic",
    "3192": "langu",
    "3193": "ica",
    "3194": "Afr",
    "3195": "rig",
    "3196": "=&quot;",
    "3197": "right",
    "3198": "fl",
    "3199": "align",
    "3200": "col",
    "3201": "align=&quot;",
    "3202": "align=&quot;right",
    "3203": "align=&quot;right&quot;",
    "3204": "ten",
    "3205": "land",
    "3206": "[[s",
    "3207": "Ch",
    "3208": "ance",
    "3209": "able",
    "3210": "[[I",
    "3211": "[[L",
    "3212": "pol",
    "3213": "iv",
    "3214": "lo",
    "3215": "had",
    "3216": "ia]]",
    "3217": "fe",
    "3218": "es.",
    "3219": "ack",
    "3220": "ach",
    "3221": "irst",
    "3222": "si",
    "3223": "up",
    "3224": "erve",
    "3225": "cons",
    "3226": "[[G",
    "3227": "199",
    "3228": "fin",
    "3229": "comp",
    "3230": "ts",
    "3231": "av",
    "3232": "ak",
    "3233": "[[B",
    "3234": "United",
    "3235": "States",
    "3236": "many",
    "3237": "6-",
    "3238": "center",
    "3239": "&quot;|",
    "3240": "[[Category",
    "3241": "=\"",
    "3242": "space",
    "3243": "itic",
    "3244": "more",
    "3245": "incl",
    "3246": "ations",
    "3247": "tiv",
    "3248": "And",
    "3249": "\">",
    "3250": "89",
    "3251": "ue",
    "3252": "main",
    "3253": "xml",
    "3254": "preserve",
    "3255": "first",
    "3256": "[[N",
    "3257": "[[H",
    "3258": "old",
    "3259": "ore",
    "3260": "po",
    "3261": ".ht",
    "3262": "ile",
    "3263": "low",
    "3264": "[[J",
    "3265": "enti",
    "3266": "ight",
    "3267": "ele",
    "3268": "any",
    "3269": "over",
    "3270": "ft",
    "3271": "ural",
    "3272": "fter",
    "3273": "coun",
    "3274": "been",
    "3275": "cri",
    "3276": "they",
    "3277": "Gore",
    "3278": "know",
    "3279": "[[F",
    "3280": "ee",
    "3281": ".com",
    "3282": "ution",
    "3283": "work",
    "3284": "ater",
    "3285": "people",
    "3286": "istory",
    "3287": "red",
    "3288": "[[Category:",
    "3289": "14",
    "3290": "cl",
    "3291": "ass",
    "3292": "xml:",
    "3293": "16",
    "3294": "&lt;/",
    "3295": "American",
    "3296": "uc",
    "3297": "state",
    "3298": "wo",
    "3299": "mar",
    "3300": "into",
    "3301": "than",
    "3302": "ell",
    "3303": "erv",
    "3304": "ry",
    "3305": "own",
    "3306": "language",
    "3307": "ash",
    "3308": "ask",
    "3309": "Alask",
    "3310": "<page>",
    "3311": "<title>",
    "3312": "</title>",
    "3313": "<revision>",
    "3314": "<timestamp>",
    "3315": "<timestamp>200",
    "3316": "Z</",
    "3317": "Z</timestamp>",
    "3318": "<contributor>",
    "3319": "</contributor>",
    "3320": "<text",
    "3321": "xml:space",
    "3322": "xml:space=\"",
    "3323": "xml:space=\"preserve",
    "3324": "xml:space=\"preserve\">",
    "3325": "&amp;#",
    "3326": "</text",
    "3327": "</text>",
    "3328": "</revision>",
    "3329": "</page>",
    "3330": "12",
    "3331": "opul",
    "3332": "ind",
    "3333": "arm",
    "3334": "eral",
    "3335": "ric",
    "3336": "13",
    "3337": "inter",
    "3338": "ord",
    "3339": "sup",
    "3340": "sm",
    "3341": "ties",
    "3342": "time",
    "3343": "]])",
    "3344": "[[19",
    "3345": "ren",
    "3346": ":Al",
    "3347": "25",
    "3348": "As",
    "3349": "air",
    "3350": "ase",
    "3351": "]]s",
    "3352": "ulture",
    "3353": "used",
    "3354": "div",
    "3355": "sub",
    "3356": "ive",
    "3357": "att",
    "3358": "ng",
    "3359": "only",
    "3360": "y]]",
    "3361": "them",
    "3362": "umb",
    "3363": "e]]",
    "3364": "20",
    "3365": "do",
    "3366": "ens",
    "3367": "sub&gt;",
    "3368": "--",
    "3369": "prod",
    "3370": "bet",
    "3371": "present",
    "3372": "'',",
    "3373": "It",
    "3374": "DI",
    "3375": "US",
    "3376": "would",
    "3377": "y.",
    "3378": "reat",
    "3379": "rel",
    "3380": "les",
    "3381": "des",
    "3382": "him",
    "3383": "imal",
    "3384": "[[R",
    "3385": "Th",
    "3386": "velop",
    "3387": "car",
    "3388": ".com/",
    "3389": "<comment>",
    "3390": "ire",
    "3391": "</comment>",
    "3392": "ted",
    "3393": "way",
    "3394": "cap",
    "3395": "Alaska",
    "3396": "popul",
    "3397": "two",
    "3398": "ings",
    "3399": "stem",
    "3400": "ble",
    "3401": "ogr",
    "3402": "17",
    "3403": "oup",
    "3404": "lar",
    "3405": "Com",
    "3406": "mage",
    "3407": "igh",
    "3408": "tra",
    "3409": "cess",
    "3410": "chor",
    "3411": "ivers",
    "3412": "chorage",
    "3413": "[[D",
    "3414": "Anchorage",
    "3415": "part",
    "3416": "ages",
    "3417": "diff",
    "3418": "pollo",
    "3419": "dr",
    "3420": "str",
    "3421": "ed.",
    "3422": "[[Image",
    "3423": "ice",
    "3424": "Apollo",
    "3425": "Wh",
    "3426": "II",
    "3427": "cre",
    "3428": "This",
    "3429": "small",
    "3430": "about",
    "3431": "world",
    "3432": "after",
    "3433": "appe",
    "3434": "dition",
    "3435": "spe",
    "3436": "000",
    "3437": "iss",
    "3438": "uring",
    "3439": "hum",
    "3440": "g|",
    "3441": ".org",
    "3442": "alk",
    "3443": "ition",
    "3444": "fore",
    "3445": "may",
    "3446": "o]]",
    "3447": "system",
    "3448": "px",
    "3449": "bas",
    "3450": "ton",
    "3451": "will",
    "3452": "ari",
    "3453": "cur",
    "3454": "though",
    "3455": "lish",
    "3456": "sur",
    "3457": "num",
    "3458": "ope",
    "3459": "there",
    "3460": "Ag",
    "3461": "dash",
    "3462": "dash;",
    "3463": "ail",
    "3464": "ave",
    "3465": "*''",
    "3466": "gave",
    "3467": "tain",
    "3468": "[[Agave",
    "3469": "*''[[Agave",
    "3470": "mon",
    "3471": "ild",
    "3472": "thumb",
    "3473": "ident",
    "3474": "a]]''",
    "3475": ".html",
    "3476": "reg",
    "3477": "[[Ch",
    "3478": "includ",
    "3479": "tri",
    "3480": "conom",
    "3481": "develop",
    "3482": "left",
    "3483": "nam",
    "3484": "[[f",
    "3485": "align=&quot;center",
    "3486": "ep",
    "3487": "sel",
    "3488": "Mo",
    "3489": "ub",
    "3490": "owever",
    "3491": "*[http://www.",
    "3492": "jp",
    "3493": "1,",
    "3494": "when",
    "3495": "led",
    "3496": "ful",
    "3497": "Pr",
    "3498": "call",
    "3499": "character",
    "3500": "y,",
    "3501": "urn",
    "3502": "prop",
    "3503": "int",
    "3504": "see",
    "3505": "thumb|",
    "3506": "[[n",
    "3507": "sci",
    "3508": "ys",
    "3509": "1.",
    "3510": "outh",
    "3511": "nor",
    "3512": "ween",
    "3513": "[[United",
    "3514": "oh",
    "3515": "[[W",
    "3516": "thor",
    "3517": "writ",
    "3518": "ann",
    "3519": "under",
    "3520": "ese",
    "3521": "pre",
    "3522": "between",
    "3523": "[[O",
    "3524": "ograp",
    "3525": "nment",
    "3526": "a.",
    "3527": "gover",
    "3528": "group",
    "3529": "these",
    "3530": "ang",
    "3531": "ject",
    "3532": "Ang",
    "3533": "ed,",
    "3534": "Africa",
    "3535": "ually",
    "3536": "prov",
    "3537": "ince",
    "3538": "Angol",
    "3539": "ative",
    "3540": "ood",
    "3541": "urope",
    "3542": "book",
    "3543": "De",
    "3544": "cause",
    "3545": "rol",
    "3546": "30",
    "3547": "S.",
    "3548": "serv",
    "3549": "s|",
    "3550": "ohn",
    "3551": "tem",
    "3552": "new",
    "3553": "loc",
    "3554": "sk",
    "3555": "a]],",
    "3556": "human",
    "3557": "ruct",
    "3558": "med",
    "3559": "Col",
    "3560": "[[c",
    "3561": "CT",
    "3562": "throp",
    "3563": "<username>",
    "3564": "</username>",
    "3565": "bert",
    "3566": "well",
    "3567": "pen",
    "3568": "known",
    "3569": "er]]",
    "3570": "ered",
    "3571": "ins",
    "3572": "Albert",
    "3573": "contin",
    "3574": "high",
    "3575": "a|",
    "3576": "||",
    "3577": "set",
    "3578": "jpg|",
    "3579": "[[Image:",
    "3580": "war",
    "3581": "2,",
    "3582": "here",
    "3583": "**",
    "3584": "ular",
    "3585": "a,",
    "3586": "[[b",
    "3587": "*[[",
    "3588": "ick",
    "3589": "[[m",
    "3590": "an]]",
    "3591": "imp",
    "3592": "name",
    "3593": "es]]",
    "3594": "order",
    "3595": "i]]",
    "3596": "came",
    "3597": "px|",
    "3598": "found",
    "3599": "inst",
    "3600": "24",
    "3601": "ath",
    "3602": "through",
    "3603": "ef",
    "3604": "soci",
    "3605": "atom",
    "3606": "inste",
    "3607": "let",
    "3608": "ilm",
    "3609": "play",
    "3610": "instein",
    "3611": "Einstein",
    "3612": "public",
    "3613": "author",
    "3614": "2005",
    "3615": "IS",
    "3616": "ics",
    "3617": "e.",
    "3618": "government",
    "3619": "ude",
    "3620": "&lt;br",
    "3621": "small&gt;",
    "3622": "ib",
    "3623": "called",
    "3624": "day",
    "3625": "peri",
    "3626": "gh",
    "3627": "ext",
    "3628": "owever,",
    "3629": "uch",
    "3630": "men",
    "3631": "sa",
    "3632": "cord",
    "3633": "reas",
    "3634": "population",
    "3635": "inv",
    "3636": "ik",
    "3637": "fgh",
    "3638": "divid",
    "3639": "fghan",
    "3640": "sch",
    "3641": "pri",
    "3642": "Afghan",
    "3643": "Univers",
    "3644": ".org/",
    "3645": "istan",
    "3646": "what",
    "3647": "New",
    "3648": "On",
    "3649": "3,",
    "3650": "cond",
    "3651": "being",
    "3652": "War",
    "3653": "Par",
    "3654": "cted",
    "3655": "[[K",
    "3656": "ban",
    "3657": "Europe",
    "3658": "a:",
    "3659": "commun",
    "3660": "ris",
    "3661": "beli",
    "3662": "often",
    "3663": "ah",
    "3664": "where",
    "3665": "For",
    "3666": "cover",
    "3667": "ctic",
    "3668": "speci",
    "3669": "50",
    "3670": "Is",
    "3671": "differ",
    "3672": "arctic",
    "3673": "Ant",
    "3674": "REDI",
    "3675": "REDIRE",
    "3676": "REDIRECT",
    "3677": "mi",
    "3678": "leg",
    "3679": "term",
    "3680": "ship",
    "3681": "2.",
    "3682": "60",
    "3683": "countr",
    "3684": "econom",
    "3685": "jor",
    "3686": "thern",
    "3687": "gent",
    "3688": "Argent",
    "3689": "language|",
    "3690": ",000",
    "3691": "politic",
    "3692": "dep",
    "3693": "chn",
    "3694": "ital",
    "3695": "dist",
    "3696": "Armen",
    "3697": "ors",
    "3698": "uss",
    "3699": "produ",
    "3700": "90",
    "3701": "ures",
    "3702": "ai",
    "3703": "fol",
    "3704": "long",
    "3705": "fact",
    "3706": "zer",
    "3707": "minor",
    "3708": "less",
    "3709": "refer",
    "3710": "ict",
    "3711": "consid",
    "3712": "word",
    "3713": "ing,",
    "3714": "pers",
    "3715": "organ",
    "3716": "early",
    "3717": "techn",
    "3718": "large",
    "3719": "view",
    "3720": "val",
    "3721": "stand",
    "3722": "lat",
    "3723": "lit",
    "3724": "und",
    "3725": "off",
    "3726": ":А",
    "3727": ":Ar",
    "3728": "#REDIRECT",
    "3729": "22",
    "3730": "fam",
    "3731": "artic",
    "3732": "number",
    "3733": "while",
    "3734": "like",
    "3735": "ield",
    "3736": "ation]]",
    "3737": "ments",
    "3738": "dom",
    "3739": "then",
    "3740": "anc",
    "3741": "lass",
    "3742": "abor",
    "3743": "ily",
    "3744": "abortion",
    "3745": "ents",
    "3746": "6-0",
    "3747": "ven",
    "3748": "note",
    "3749": "eved",
    "3750": "s/",
    "3751": "action",
    "3752": "ham",
    "3753": "U.",
    "3754": "both",
    "3755": "ond",
    "3756": "fo",
    "3757": "ball",
    "3758": "cor",
    "3759": "ving",
    "3760": "astr",
    "3761": "oss",
    "3762": "Sch",
    "3763": "history",
    "3764": "mod",
    "3765": "king",
    "3766": "law",
    "3767": "otball",
    "3768": "depend",
    "3769": "self",
    "3770": "oy",
    "3771": "80",
    "3772": "pow",
    "3773": "ought",
    "3774": ".jpg|",
    "3775": "during",
    "3776": "ved",
    "3777": "]]s,",
    "3778": "olution",
    "3779": "Brit",
    "3780": "sign",
    "3781": "line",
    "3782": "Amer",
    "3783": "40",
    "3784": "back",
    "3785": "University",
    "3786": "U.S.",
    "3787": "def",
    "3788": "ense",
    "3789": "before",
    "3790": "gin",
    "3791": "sive",
    "3792": "follow",
    "3793": "football",
    "3794": "field",
    "3795": "197",
    "3796": "move",
    "3797": "formation",
    "3798": "ensive",
    "3799": "ock",
    "3800": "down",
    "3801": "version",
    "3802": "made",
    "3803": "ning",
    "3804": "centur",
    "3805": "proc",
    "3806": "Eng",
    "3807": "&lt;sub&gt;",
    "3808": "&lt;/sub&gt;",
    "3809": "oth",
    "3810": "alg",
    "3811": "examp",
    "3812": "ith",
    "3813": "''.",
    "3814": "met",
    "3815": "''[[",
    "3816": "er,",
    "3817": "mem",
    "3818": "ip>",
    "3819": "years",
    "3820": "lex",
    "3821": "cr",
    "3822": "very",
    "3823": "ander",
    "3824": "eff",
    "3825": "ological",
    "3826": "ont",
    "3827": "Alex",
    "3828": "ost",
    "3829": "open",
    "3830": "Alexander",
    "3831": "each",
    "3832": "prob",
    "3833": "life",
    "3834": "position",
    "3835": "There",
    "3836": "Le",
    "3837": "cer",
    "3838": "2-",
    "3839": "gov",
    "3840": "23",
    "3841": "ta",
    "3842": "([[",
    "3843": "BN",
    "3844": "oid",
    "3845": "ale",
    "3846": "aster",
    "3847": "cept",
    "3848": "class",
    "3849": "orig",
    "3850": "arth",
    "3851": ".htm",
    "3852": "ating",
    "3853": "including",
    "3854": "later",
    "3855": "yle",
    "3856": "ool",
    "3857": "us]]",
    "3858": "reek",
    "3859": "times",
    "3860": "style",
    "3861": "sup&gt;",
    "3862": "ground",
    "3863": "color",
    "3864": "5.",
    "3865": "Ex",
    "3866": "example",
    "3867": "anim",
    "3868": "ting",
    "3869": "ser",
    "3870": "requ",
    "3871": "ized",
    "3872": "ISBN",
    "3873": "ster",
    "3874": "oman",
    "3875": "mp",
    "3876": "on]]",
    "3877": "vari",
    "3878": "sever",
    "3879": ":An",
    "3880": "major",
    "3881": "gest",
    "3882": "Arab",
    "3883": "til",
    "3884": "much",
    "3885": "style=&quot;",
    "3886": "Nor",
    "3887": "trans",
    "3888": "lear",
    "3889": "pha",
    "3890": "ature",
    "3891": "Arabic",
    "3892": "]]</text>",
    "3893": "dire",
    "3894": "lead",
    "3895": "turn",
    "3896": "origin",
    "3897": "film",
    "3898": "because",
    "3899": "ark",
    "3900": "again",
    "3901": "ush",
    "3902": "hel",
    "3903": "cade",
    "3904": "*[[A",
    "3905": "agn",
    "3906": "ession",
    "3907": "dec",
    "3908": "import",
    "3909": "cour",
    "3910": "pass",
    "3911": "ly,",
    "3912": "(19",
    "3913": "ctor",
    "3914": "became",
    "3915": "Some",
    "3916": "run",
    "3917": "itch",
    "3918": "British",
    "3919": "cock",
    "3920": "itchcock",
    "3921": "Hitchcock",
    "3922": "eng",
    "3923": "Sp",
    "3924": "right|",
    "3925": "Or",
    "3926": "See",
    "3927": "enn",
    "3928": "those",
    "3929": "Austri",
    "3930": "/>",
    "3931": "xml:space=\"preserve\">#REDIRECT",
    "3932": "<minor",
    "3933": "<id>15",
    "3934": "even",
    "3935": "second",
    "3936": ".&quot;",
    "3937": "could",
    "3938": "fer",
    "3939": "Se",
    "3940": "However,",
    "3941": "arian",
    "3942": "offic",
    "3943": "mil",
    "3944": "read",
    "3945": "come",
    "3946": "appear",
    "3947": "ise",
    "3948": "ious",
    "3949": "26",
    "3950": "43",
    "3951": "por",
    "3952": "uk",
    "3953": "orld",
    "3954": "bi",
    "3955": "city",
    "3956": "28",
    "3957": "dam",
    "3958": "bu",
    "3959": "No",
    "3960": "gy",
    "3961": "ility",
    "3962": "del",
    "3963": "Ph",
    "3964": "udi",
    "3965": "team",
    "3966": "[[h",
    "3967": "stud",
    "3968": "eb",
    "3969": "ves",
    "3970": "partic",
    "3971": "cra",
    "3972": "tical",
    "3973": "common",
    "3974": "craft",
    "3975": "curr",
    "3976": "az",
    "3977": "ley",
    "3978": "&quot;,",
    "3979": "three",
    "3980": "person",
    "3981": "ences",
    "3982": "bel",
    "3983": "27",
    "3984": "[[l",
    "3985": "remain",
    "3986": "suc",
    "3987": "did",
    "3988": "|B",
    "3989": "raham",
    "3990": "son",
    "3991": "Am",
    "3992": "Pro",
    "3993": "[[In",
    "3994": "4,",
    "3995": "6,",
    "3996": "6.",
    "3997": "ternal",
    "3998": "ple",
    "3999": "cla",
    "4000": "based"
  },
  "vocab_size": 8000,
  "special_tokens": {
    "<pad>": 0,
    "<unk>": 1,
    "<s>": 2,
    "</s>": 3,
    "<mask>": 4
  },
  "max_token_length": 30
}