{
  "version": "1.0",
  "truncation": null,
  "padding": null,
  "added_tokens": [
    {
      "id": 0,
      "content": "[PAD]",
      "single_word": false,
      "lstrip": false,
      "rstrip": false,
      "normalized": false,
      "special": true
    },
    {
      "id": 1,
      "content": "[UNK]",
      "single_word": false,
      "lstrip": false,
      "rstrip": false,
      "normalized": false,
      "special": true
    },
    {
      "id": 2,
      "content": "[CLS]",
      "single_word": false,
      "lstrip": false,
      "rstrip": false,
      "normalized": false,
      "special": true
    },
    {
      "id": 3,
      "content": "[SEP]",
      "single_word": false,
      "lstrip": false,
      "rstrip": false,
      "normalized": false,
      "special": true
    },
    {
      "id": 4,
      "content": "[MASK]",
      "single_word": false,
      "lstrip": false,
      "rstrip": false,
      "normalized": false,
      "special": true
    }
  ],
  "normalizer": null,
  "pre_tokenizer": {
    "type": "Whitespace"
  },
  "post_processor": {
    "type": "TemplateProcessing",
    "single": [
      {
        "SpecialToken": {
          "id": "[CLS]",
          "type_id": 0
        }
      },
      {
        "Sequence": {
          "id": "A",
          "type_id": 0
        }
      },
      {
        "SpecialToken": {
          "id": "[SEP]",
          "type_id": 0
        }
      }
    ],
    "pair": [
      {
        "SpecialToken": {
          "id": "[CLS]",
          "type_id": 0
        }
      },
      {
        "Sequence": {
          "id": "A",
          "type_id": 0
        }
      },
      {
        "SpecialToken": {
          "id": "[SEP]",
          "type_id": 0
        }
      },
      {
        "Sequence": {
          "id": "B",
          "type_id": 1
        }
      },
      {
        "SpecialToken": {
          "id": "[SEP]",
          "type_id": 1
        }
      }
    ],
    "special_tokens": {
      "[CLS]": {
        "id": "[CLS]",
        "ids": [
          2
        ],
        "tokens": [
          "[CLS]"
        ]
      },
      "[SEP]": {
        "id": "[SEP]",
        "ids": [
          3
        ],
        "tokens": [
          "[SEP]"
        ]
      }
    }
  },
  "decoder": {
    "type": "BPEDecoder",
    "suffix": "</w>"
  },
  "model": {
    "type": "BPE",
    "dropout": null,
    "unk_token": "[UNK]",
    "continuing_subword_prefix": null,
    "end_of_word_suffix": null,
    "fuse_unk": false,
    "byte_fallback": false,
    "ignore_merges": false,
    "vocab": {
      "[PAD]": 0,
      "[UNK]": 1,
      "[CLS]": 2,
      "[SEP]": 3,
      "[MASK]": 4,
      "!": 5,
      "\"": 6,
      "#": 7,
      "$": 8,
      "%": 9,
      "&": 10,
      "'": 11,
      "(": 12,
      ")": 13,
      "*": 14,
      "+": 15,
      ",": 16,
      "-": 17,
      ".": 18,
      "/": 19,
      "0": 20,
      "1": 21,
      "2": 22,
      "3": 23,
      "4": 24,
      "5": 25,
      "6": 26,
      "7": 27,
      "8": 28,
      "9": 29,
      ":": 30,
      ";": 31,
      "<": 32,
      "=": 33,
      ">": 34,
      "?": 35,
      "@": 36,
      "A": 37,
      "B": 38,
      "C": 39,
      "D": 40,
      "E": 41,
      "F": 42,
      "G": 43,
      "H": 44,
      "I": 45,
      "J": 46,
      "K": 47,
      "L": 48,
      "M": 49,
      "N": 50,
      "O": 51,
      "P": 52,
      "Q": 53,
      "R": 54,
      "S": 55,
      "T": 56,
      "U": 57,
      "V": 58,
      "W": 59,
      "X": 60,
      "Y": 61,
      "Z": 62,
      "[": 63,
      "\\": 64,
      "]": 65,
      "^": 66,
      "_": 67,
      "`": 68,
      "a": 69,
      "b": 70,
      "c": 71,
      "d": 72,
      "e": 73,
      "f": 74,
      "g": 75,
      "h": 76,
      "i": 77,
      "j": 78,
      "k": 79,
      "l": 80,
      "m": 81,
      "n": 82,
      "o": 83,
      "p": 84,
      "q": 85,
      "r": 86,
      "s": 87,
      "t": 88,
      "u": 89,
      "v": 90,
      "w": 91,
      "x": 92,
      "y": 93,
      "z": 94,
      "{": 95,
      "|": 96,
      "}": 97,
      "~": 98,
      "": 99,
      "": 100,
      "": 101,
      "¡": 102,
      "¢": 103,
      "£": 104,
      "¤": 105,
      "¥": 106,
      "¦": 107,
      "§": 108,
      "¨": 109,
      "©": 110,
      "ª": 111,
      "«": 112,
      "¬": 113,
      "­": 114,
      "®": 115,
      "¯": 116,
      "°": 117,
      "±": 118,
      "²": 119,
      "³": 120,
      "´": 121,
      "µ": 122,
      "¶": 123,
      "·": 124,
      "¸": 125,
      "¹": 126,
      "º": 127,
      "»": 128,
      "¼": 129,
      "½": 130,
      "¾": 131,
      "¿": 132,
      "À": 133,
      "Á": 134,
      "Â": 135,
      "Ã": 136,
      "Ä": 137,
      "Å": 138,
      "Æ": 139,
      "Ç": 140,
      "È": 141,
      "É": 142,
      "Ê": 143,
      "Ë": 144,
      "Ì": 145,
      "Í": 146,
      "Î": 147,
      "Ï": 148,
      "Ð": 149,
      "Ñ": 150,
      "Ò": 151,
      "Ó": 152,
      "Ô": 153,
      "Õ": 154,
      "Ö": 155,
      "×": 156,
      "Ø": 157,
      "Ù": 158,
      "Ú": 159,
      "Û": 160,
      "Ü": 161,
      "Ý": 162,
      "Þ": 163,
      "ß": 164,
      "à": 165,
      "á": 166,
      "â": 167,
      "ã": 168,
      "ä": 169,
      "å": 170,
      "æ": 171,
      "ç": 172,
      "è": 173,
      "é": 174,
      "ê": 175,
      "ë": 176,
      "ì": 177,
      "í": 178,
      "î": 179,
      "ï": 180,
      "ð": 181,
      "ñ": 182,
      "ò": 183,
      "ó": 184,
      "ô": 185,
      "õ": 186,
      "ö": 187,
      "÷": 188,
      "ø": 189,
      "ù": 190,
      "ú": 191,
      "û": 192,
      "ü": 193,
      "ý": 194,
      "þ": 195,
      "ÿ": 196,
      "Ā": 197,
      "ā": 198,
      "Ă": 199,
      "ă": 200,
      "Ą": 201,
      "ą": 202,
      "Ć": 203,
      "ć": 204,
      "Ĉ": 205,
      "ĉ": 206,
      "Ċ": 207,
      "ċ": 208,
      "Č": 209,
      "č": 210,
      "Ď": 211,
      "ď": 212,
      "Đ": 213,
      "đ": 214,
      "Ē": 215,
      "ē": 216,
      "Ĕ": 217,
      "ĕ": 218,
      "Ė": 219,
      "ė": 220,
      "Ę": 221,
      "ę": 222,
      "Ě": 223,
      "ě": 224,
      "Ĝ": 225,
      "ĝ": 226,
      "Ğ": 227,
      "ğ": 228,
      "Ġ": 229,
      "ġ": 230,
      "Ģ": 231,
      "ģ": 232,
      "Ĥ": 233,
      "ĥ": 234,
      "Ħ": 235,
      "ħ": 236,
      "Ĩ": 237,
      "ĩ": 238,
      "Ī": 239,
      "ī": 240,
      "ĭ": 241,
      "Į": 242,
      "į": 243,
      "İ": 244,
      "ı": 245,
      "Ĳ": 246,
      "ĳ": 247,
      "Ĵ": 248,
      "ĵ": 249,
      "Ķ": 250,
      "ķ": 251,
      "ĸ": 252,
      "Ĺ": 253,
      "ĺ": 254,
      "Ļ": 255,
      "ļ": 256,
      "Ľ": 257,
      "ľ": 258,
      "ŀ": 259,
      "Ł": 260,
      "ł": 261,
      "Ń": 262,
      "ń": 263,
      "Ņ": 264,
      "ņ": 265,
      "Ň": 266,
      "ň": 267,
      "ŉ": 268,
      "Ŋ": 269,
      "ŋ": 270,
      "Ō": 271,
      "ō": 272,
      "ŏ": 273,
      "Ő": 274,
      "ő": 275,
      "Œ": 276,
      "œ": 277,
      "Ŕ": 278,
      "ŕ": 279,
      "Ŗ": 280,
      "ŗ": 281,
      "Ř": 282,
      "ř": 283,
      "Ś": 284,
      "ś": 285,
      "Ŝ": 286,
      "ŝ": 287,
      "Ş": 288,
      "ş": 289,
      "Š": 290,
      "š": 291,
      "Ţ": 292,
      "ţ": 293,
      "Ť": 294,
      "ť": 295,
      "Ŧ": 296,
      "ŧ": 297,
      "Ũ": 298,
      "ũ": 299,
      "Ū": 300,
      "ū": 301,
      "Ŭ": 302,
      "ŭ": 303,
      "Ů": 304,
      "ů": 305,
      "Ű": 306,
      "ű": 307,
      "Ų": 308,
      "ų": 309,
      "Ŵ": 310,
      "ŵ": 311,
      "Ŷ": 312,
      "ŷ": 313,
      "Ÿ": 314,
      "Ź": 315,
      "ź": 316,
      "Ż": 317,
      "ż": 318,
      "Ž": 319,
      "ž": 320,
      "ſ": 321,
      "ƀ": 322,
      "Ɓ": 323,
      "Ƃ": 324,
      "Ɔ": 325,
      "Ƈ": 326,
      "ƈ": 327,
      "Ɖ": 328,
      "Ɗ": 329,
      "Ƌ": 330,
      "ƍ": 331,
      "Ǝ": 332,
      "Ə": 333,
      "Ɛ": 334,
      "Ƒ": 335,
      "ƒ": 336,
      "Ɠ": 337,
      "Ɣ": 338,
      "ƕ": 339,
      "ƙ": 340,
      "ƛ": 341,
      "Ɯ": 342,
      "Ɲ": 343,
      "ƞ": 344,
      "Ɵ": 345,
      "ơ": 346,
      "ƥ": 347,
      "Ʃ": 348,
      "ƪ": 349,
      "ƫ": 350,
      "ƭ": 351,
      "Ʈ": 352,
      "ư": 353,
      "Ʊ": 354,
      "Ʋ": 355,
      "ƴ": 356,
      "Ʒ": 357,
      "ƺ": 358,
      "ƻ": 359,
      "ƾ": 360,
      "ǀ": 361,
      "ǁ": 362,
      "ǂ": 363,
      "ǃ": 364,
      "ǎ": 365,
      "ǐ": 366,
      "ǒ": 367,
      "Ǔ": 368,
      "ǔ": 369,
      "ǜ": 370,
      "ǝ": 371,
      "ǣ": 372,
      "ǥ": 373,
      "Ǧ": 374,
      "ǧ": 375,
      "ǫ": 376,
      "ǯ": 377,
      "ǰ": 378,
      "ǹ": 379,
      "ȅ": 380,
      "ȑ": 381,
      "ȗ": 382,
      "Ș": 383,
      "ș": 384,
      "Ț": 385,
      "ț": 386,
      "ȡ": 387,
      "ȵ": 388,
      "ȶ": 389,
      "ɐ": 390,
      "ɑ": 391,
      "ɒ": 392,
      "ɓ": 393,
      "ɔ": 394,
      "ɕ": 395,
      "ɖ": 396,
      "ɗ": 397,
      "ɘ": 398,
      "ə": 399,
      "ɚ": 400,
      "ɛ": 401,
      "ɜ": 402,
      "ɝ": 403,
      "ɞ": 404,
      "ɟ": 405,
      "ɠ": 406,
      "ɡ": 407,
      "ɢ": 408,
      "ɣ": 409,
      "ɤ": 410,
      "ɥ": 411,
      "ɦ": 412,
      "ɧ": 413,
      "ɨ": 414,
      "ɩ": 415,
      "ɪ": 416,
      "ɫ": 417,
      "ɬ": 418,
      "ɭ": 419,
      "ɮ": 420,
      "ɯ": 421,
      "ɰ": 422,
      "ɱ": 423,
      "ɲ": 424,
      "ɳ": 425,
      "ɴ": 426,
      "ɵ": 427,
      "ɶ": 428,
      "ɷ": 429,
      "ɸ": 430,
      "ɹ": 431,
      "ɺ": 432,
      "ɻ": 433,
      "ɼ": 434,
      "ɽ": 435,
      "ɾ": 436,
      "ɿ": 437,
      "ʀ": 438,
      "ʁ": 439,
      "ʂ": 440,
      "ʃ": 441,
      "ʄ": 442,
      "ʅ": 443,
      "ʆ": 444,
      "ʇ": 445,
      "ʈ": 446,
      "ʉ": 447,
      "ʊ": 448,
      "ʋ": 449,
      "ʌ": 450,
      "ʍ": 451,
      "ʎ": 452,
      "ʏ": 453,
      "ʐ": 454,
      "ʑ": 455,
      "ʒ": 456,
      "ʓ": 457,
      "ʔ": 458,
      "ʕ": 459,
      "ʖ": 460,
      "ʗ": 461,
      "ʘ": 462,
      "ʙ": 463,
      "ʚ": 464,
      "ʛ": 465,
      "ʜ": 466,
      "ʝ": 467,
      "ʞ": 468,
      "ʟ": 469,
      "ʠ": 470,
      "ʡ": 471,
      "ʢ": 472,
      "ʣ": 473,
      "ʤ": 474,
      "ʥ": 475,
      "ʦ": 476,
      "ʧ": 477,
      "ʨ": 478,
      "ʩ": 479,
      "ʪ": 480,
      "ʫ": 481,
      "ʬ": 482,
      "ʭ": 483,
      "ʮ": 484,
      "ʯ": 485,
      "ʰ": 486,
      "ʱ": 487,
      "ʲ": 488,
      "ʶ": 489,
      "ʷ": 490,
      "ʹ": 491,
      "ʻ": 492,
      "ʼ": 493,
      "ʽ": 494,
      "ʾ": 495,
      "ʿ": 496,
      "ˀ": 497,
      "ˁ": 498,
      "ˆ": 499,
      "ˇ": 500,
      "ˈ": 501,
      "ˌ": 502,
      "ː": 503,
      "ˑ": 504,
      "˔": 505,
      "˕": 506,
      "˘": 507,
      "˙": 508,
      "˚": 509,
      "˛": 510,
      "˝": 511,
      "˞": 512,
      "ˠ": 513,
      "ˡ": 514,
      "ˢ": 515,
      "ˣ": 516,
      "ˤ": 517,
      "˥": 518,
      "˦": 519,
      "˧": 520,
      "˨": 521,
      "˩": 522,
      "̀": 523,
      "́": 524,
      "̂": 525,
      "̃": 526,
      "̄": 527,
      "̅": 528,
      "̆": 529,
      "̈": 530,
      "̊": 531,
      "̋": 532,
      "̌": 533,
      "̍": 534,
      "̕": 535,
      "̖": 536,
      "̗": 537,
      "̘": 538,
      "̙": 539,
      "̚": 540,
      "̛": 541,
      "̜": 542,
      "̝": 543,
      "̞": 544,
      "̟": 545,
      "̠": 546,
      "̡": 547,
      "̢": 548,
      "̣": 549,
      "̤": 550,
      "̥": 551,
      "̧": 552,
      "̩": 553,
      "̪": 554,
      "̫": 555,
      "̬": 556,
      "̮": 557,
      "̯": 558,
      "̰": 559,
      "̱": 560,
      "̴": 561,
      "̶": 562,
      "̸": 563,
      "̹": 564,
      "̺": 565,
      "̻": 566,
      "̼": 567,
      "̽": 568,
      "͂": 569,
      "͆": 570,
      "͇": 571,
      "͈": 572,
      "͉": 573,
      "͊": 574,
      "͋": 575,
      "͌": 576,
      "͍": 577,
      "͎": 578,
      "͡": 579,
      "͢": 580,
      "ͺ": 581,
      "΄": 582,
      "΅": 583,
      "Ά": 584,
      "Έ": 585,
      "Ή": 586,
      "Ί": 587,
      "Ό": 588,
      "Ύ": 589,
      "Ώ": 590,
      "ΐ": 591,
      "Α": 592,
      "Β": 593,
      "Γ": 594,
      "Δ": 595,
      "Ε": 596,
      "Ζ": 597,
      "Η": 598,
      "Θ": 599,
      "Ι": 600,
      "Κ": 601,
      "Λ": 602,
      "Μ": 603,
      "Ν": 604,
      "Ξ": 605,
      "Ο": 606,
      "Π": 607,
      "Ρ": 608,
      "Σ": 609,
      "Τ": 610,
      "Υ": 611,
      "Φ": 612,
      "Χ": 613,
      "Ψ": 614,
      "Ω": 615,
      "Ϊ": 616,
      "Ϋ": 617,
      "ά": 618,
      "έ": 619,
      "ή": 620,
      "ί": 621,
      "ΰ": 622,
      "α": 623,
      "β": 624,
      "γ": 625,
      "δ": 626,
      "ε": 627,
      "ζ": 628,
      "η": 629,
      "θ": 630,
      "ι": 631,
      "κ": 632,
      "λ": 633,
      "μ": 634,
      "ν": 635,
      "ξ": 636,
      "ο": 637,
      "π": 638,
      "ρ": 639,
      "ς": 640,
      "σ": 641,
      "τ": 642,
      "υ": 643,
      "φ": 644,
      "χ": 645,
      "ψ": 646,
      "ω": 647,
      "ϊ": 648,
      "ϋ": 649,
      "ό": 650,
      "ύ": 651,
      "ώ": 652,
      "Ϝ": 653,
      "Ϻ": 654,
      "Ѐ": 655,
      "Ё": 656,
      "Ђ": 657,
      "Ѓ": 658,
      "Є": 659,
      "Ѕ": 660,
      "І": 661,
      "Ї": 662,
      "Ј": 663,
      "Љ": 664,
      "Њ": 665,
      "Ћ": 666,
      "Ќ": 667,
      "Ѝ": 668,
      "Ў": 669,
      "Џ": 670,
      "А": 671,
      "Б": 672,
      "В": 673,
      "Г": 674,
      "Д": 675,
      "Е": 676,
      "Ж": 677,
      "З": 678,
      "И": 679,
      "Й": 680,
      "К": 681,
      "Л": 682,
      "М": 683,
      "Н": 684,
      "О": 685,
      "П": 686,
      "Р": 687,
      "С": 688,
      "Т": 689,
      "У": 690,
      "Ф": 691,
      "Х": 692,
      "Ц": 693,
      "Ч": 694,
      "Ш": 695,
      "Щ": 696,
      "Ъ": 697,
      "Ы": 698,
      "Ь": 699,
      "Э": 700,
      "Ю": 701,
      "Я": 702,
      "а": 703,
      "б": 704,
      "в": 705,
      "г": 706,
      "д": 707,
      "е": 708,
      "ж": 709,
      "з": 710,
      "и": 711,
      "й": 712,
      "к": 713,
      "л": 714,
      "м": 715,
      "н": 716,
      "о": 717,
      "п": 718,
      "р": 719,
      "с": 720,
      "т": 721,
      "у": 722,
      "ф": 723,
      "х": 724,
      "ц": 725,
      "ч": 726,
      "ш": 727,
      "щ": 728,
      "ъ": 729,
      "ы": 730,
      "ь": 731,
      "э": 732,
      "ю": 733,
      "я": 734,
      "ѐ": 735,
      "ё": 736,
      "ђ": 737,
      "ѓ": 738,
      "є": 739,
      "ѕ": 740,
      "і": 741,
      "ї": 742,
      "ј": 743,
      "љ": 744,
      "њ": 745,
      "ћ": 746,
      "ќ": 747,
      "ѝ": 748,
      "ў": 749,
      "џ": 750,
      "Ѡ": 751,
      "ѡ": 752,
      "Ѣ": 753,
      "ѣ": 754,
      "Ѥ": 755,
      "ѥ": 756,
      "Ѧ": 757,
      "ѧ": 758,
      "Ѩ": 759,
      "ѩ": 760,
      "Ѫ": 761,
      "ѫ": 762,
      "Ѭ": 763,
      "ѭ": 764,
      "Ѯ": 765,
      "ѯ": 766,
      "Ѱ": 767,
      "ѱ": 768,
      "Ѳ": 769,
      "ѳ": 770,
      "Ѵ": 771,
      "ѵ": 772,
      "Ѷ": 773,
      "ѷ": 774,
      "Ѹ": 775,
      "ѹ": 776,
      "Ѻ": 777,
      "ѻ": 778,
      "Ѽ": 779,
      "ѽ": 780,
      "Ѿ": 781,
      "ѿ": 782,
      "Ҁ": 783,
      "ҁ": 784,
      "҂": 785,
      "҃": 786,
      "҄": 787,
      "҅": 788,
      "҆": 789,
      "҇": 790,
      "҈": 791,
      "҉": 792,
      "Ҋ": 793,
      "ҋ": 794,
      "Ҍ": 795,
      "ҍ": 796,
      "Ҏ": 797,
      "ҏ": 798,
      "Ґ": 799,
      "ґ": 800,
      "Ғ": 801,
      "ғ": 802,
      "Ҕ": 803,
      "ҕ": 804,
      "Җ": 805,
      "җ": 806,
      "Ҙ": 807,
      "ҙ": 808,
      "Қ": 809,
      "қ": 810,
      "Ҝ": 811,
      "ҝ": 812,
      "Ҟ": 813,
      "ҟ": 814,
      "Ҡ": 815,
      "ҡ": 816,
      "Ң": 817,
      "ң": 818,
      "Ҥ": 819,
      "ҥ": 820,
      "Ҧ": 821,
      "ҧ": 822,
      "Ҩ": 823,
      "ҩ": 824,
      "Ҫ": 825,
      "ҫ": 826,
      "Ҭ": 827,
      "ҭ": 828,
      "Ү": 829,
      "ү": 830,
      "Ұ": 831,
      "ұ": 832,
      "Ҳ": 833,
      "ҳ": 834,
      "Ҵ": 835,
      "ҵ": 836,
      "Ҷ": 837,
      "ҷ": 838,
      "Ҹ": 839,
      "ҹ": 840,
      "Һ": 841,
      "һ": 842,
      "Ҽ": 843,
      "ҽ": 844,
      "Ҿ": 845,
      "ҿ": 846,
      "Ӏ": 847,
      "Ӂ": 848,
      "ӂ": 849,
      "Ӄ": 850,
      "ӄ": 851,
      "Ӆ": 852,
      "ӆ": 853,
      "Ӈ": 854,
      "ӈ": 855,
      "Ӊ": 856,
      "ӊ": 857,
      "Ӌ": 858,
      "ӌ": 859,
      "Ӎ": 860,
      "ӎ": 861,
      "ӏ": 862,
      "Ӑ": 863,
      "ӑ": 864,
      "Ӓ": 865,
      "ӓ": 866,
      "Ӕ": 867,
      "ӕ": 868,
      "Ӗ": 869,
      "ӗ": 870,
      "Ә": 871,
      "ә": 872,
      "Ӛ": 873,
      "ӛ": 874,
      "Ӝ": 875,
      "ӝ": 876,
      "Ӟ": 877,
      "ӟ": 878,
      "Ӡ": 879,
      "ӡ": 880,
      "Ӣ": 881,
      "ӣ": 882,
      "Ӥ": 883,
      "ӥ": 884,
      "Ӧ": 885,
      "ӧ": 886,
      "Ө": 887,
      "ө": 888,
      "Ӫ": 889,
      "ӫ": 890,
      "Ӭ": 891,
      "ӭ": 892,
      "Ӯ": 893,
      "ӯ": 894,
      "Ӱ": 895,
      "ӱ": 896,
      "Ӳ": 897,
      "ӳ": 898,
      "Ӵ": 899,
      "ӵ": 900,
      "Ӷ": 901,
      "ӷ": 902,
      "Ӹ": 903,
      "ӹ": 904,
      "Ӻ": 905,
      "ӻ": 906,
      "Ӽ": 907,
      "ӽ": 908,
      "Ӿ": 909,
      "ӿ": 910,
      "Ԁ": 911,
      "ԁ": 912,
      "Ԃ": 913,
      "ԃ": 914,
      "Ԅ": 915,
      "ԅ": 916,
      "Ԇ": 917,
      "ԇ": 918,
      "Ԉ": 919,
      "ԉ": 920,
      "Ԋ": 921,
      "ԋ": 922,
      "Ԍ": 923,
      "ԍ": 924,
      "Ԏ": 925,
      "ԏ": 926,
      "Ԑ": 927,
      "ԑ": 928,
      "Ԓ": 929,
      "ԓ": 930,
      "Ԕ": 931,
      "ԕ": 932,
      "Ԗ": 933,
      "ԗ": 934,
      "Ԙ": 935,
      "ԙ": 936,
      "Ԛ": 937,
      "ԛ": 938,
      "Ԝ": 939,
      "ԝ": 940,
      "Ԟ": 941,
      "ԟ": 942,
      "Ԡ": 943,
      "ԡ": 944,
      "Ԣ": 945,
      "ԣ": 946,
      "Ԥ": 947,
      "ԥ": 948,
      "Ԧ": 949,
      "ԧ": 950,
      "Ԩ": 951,
      "ԩ": 952,
      "Ԫ": 953,
      "ԫ": 954,
      "Ԭ": 955,
      "ԭ": 956,
      "Ԯ": 957,
      "ԯ": 958,
      "Ա": 959,
      "Բ": 960,
      "Գ": 961,
      "Դ": 962,
      "Ե": 963,
      "Զ": 964,
      "Է": 965,
      "Ը": 966,
      "Թ": 967,
      "Ժ": 968,
      "Ի": 969,
      "Լ": 970,
      "Խ": 971,
      "Ծ": 972,
      "Կ": 973,
      "Հ": 974,
      "Ձ": 975,
      "Ղ": 976,
      "Ճ": 977,
      "Մ": 978,
      "Յ": 979,
      "Ն": 980,
      "Շ": 981,
      "Ո": 982,
      "Չ": 983,
      "Պ": 984,
      "Ջ": 985,
      "Ռ": 986,
      "Ս": 987,
      "Վ": 988,
      "Տ": 989,
      "Ր": 990,
      "Ց": 991,
      "Ւ": 992,
      "Փ": 993,
      "Ք": 994,
      "Օ": 995,
      "Ֆ": 996,
      "ՙ": 997,
      "՚": 998,
      "՛": 999,
      "՜": 1000,
      "՝": 1001,
      "՞": 1002,
      "՟": 1003,
      "ա": 1004,
      "բ": 1005,
      "գ": 1006,
      "դ": 1007,
      "ե": 1008,
      "զ": 1009,
      "է": 1010,
      "ը": 1011,
      "թ": 1012,
      "ժ": 1013,
      "ի": 1014,
      "լ": 1015,
      "խ": 1016,
      "ծ": 1017,
      "կ": 1018,
      "հ": 1019,
      "ձ": 1020,
      "ղ": 1021,
      "ճ": 1022,
      "մ": 1023,
      "յ": 1024,
      "ն": 1025,
      "շ": 1026,
      "ո": 1027,
      "չ": 1028,
      "պ": 1029,
      "ջ": 1030,
      "ռ": 1031,
      "ս": 1032,
      "վ": 1033,
      "տ": 1034,
      "ր": 1035,
      "ց": 1036,
      "ւ": 1037,
      "փ": 1038,
      "ք": 1039,
      "օ": 1040,
      "ֆ": 1041,
      "և": 1042,
      "։": 1043,
      "֊": 1044,
      "֐": 1045,
      "֑": 1046,
      "֒": 1047,
      "֓": 1048,
      "֔": 1049,
      "֕": 1050,
      "֖": 1051,
      "֗": 1052,
      "֘": 1053,
      "֙": 1054,
      "֚": 1055,
      "֛": 1056,
      "֜": 1057,
      "֝": 1058,
      "֞": 1059,
      "֟": 1060,
      "֠": 1061,
      "֡": 1062,
      "֢": 1063,
      "֣": 1064,
      "֤": 1065,
      "֥": 1066,
      "֦": 1067,
      "֧": 1068,
      "֨": 1069,
      "֩": 1070,
      "֪": 1071,
      "֫": 1072,
      "֬": 1073,
      "֭": 1074,
      "֮": 1075,
      "֯": 1076,
      "ְ": 1077,
      "ֱ": 1078,
      "ֲ": 1079,
      "ֳ": 1080,
      "ִ": 1081,
      "ֵ": 1082,
      "ֶ": 1083,
      "ַ": 1084,
      "ָ": 1085,
      "ֹ": 1086,
      "ֺ": 1087,
      "ֻ": 1088,
      "ּ": 1089,
      "ֽ": 1090,
      "־": 1091,
      "ֿ": 1092,
      "׀": 1093,
      "ׁ": 1094,
      "ׂ": 1095,
      "׃": 1096,
      "ׄ": 1097,
      "ׅ": 1098,
      "׆": 1099,
      "ׇ": 1100,
      "׈": 1101,
      "׉": 1102,
      "׊": 1103,
      "׋": 1104,
      "׌": 1105,
      "׍": 1106,
      "׎": 1107,
      "׏": 1108,
      "א": 1109,
      "ב": 1110,
      "ג": 1111,
      "ד": 1112,
      "ה": 1113,
      "ו": 1114,
      "ז": 1115,
      "ח": 1116,
      "ט": 1117,
      "י": 1118,
      "ך": 1119,
      "כ": 1120,
      "ל": 1121,
      "ם": 1122,
      "מ": 1123,
      "ן": 1124,
      "נ": 1125,
      "ס": 1126,
      "ע": 1127,
      "ף": 1128,
      "פ": 1129,
      "ץ": 1130,
      "צ": 1131,
      "ק": 1132,
      "ר": 1133,
      "ש": 1134,
      "ת": 1135,
      "׫": 1136,
      "׬": 1137,
      "׭": 1138,
      "׮": 1139,
      "ׯ": 1140,
      "װ": 1141,
      "ױ": 1142,
      "ײ": 1143,
      "׳": 1144,
      "״": 1145,
      "׵": 1146,
      "׶": 1147,
      "׷": 1148,
      "׸": 1149,
      "׹": 1150,
      "׺": 1151,
      "׻": 1152,
      "׼": 1153,
      "׽": 1154,
      "׾": 1155,
      "׿": 1156,
      "،": 1157,
      "؛": 1158,
      "؟": 1159,
      "ء": 1160,
      "آ": 1161,
      "أ": 1162,
      "ؤ": 1163,
      "إ": 1164,
      "ئ": 1165,
      "ا": 1166,
      "ب": 1167,
      "ة": 1168,
      "ت": 1169,
      "ث": 1170,
      "ج": 1171,
      "ح": 1172,
      "خ": 1173,
      "د": 1174,
      "ذ": 1175,
      "ر": 1176,
      "ز": 1177,
      "س": 1178,
      "ش": 1179,
      "ص": 1180,
      "ض": 1181,
      "ط": 1182,
      "ظ": 1183,
      "ع": 1184,
      "غ": 1185,
      "ـ": 1186,
      "ف": 1187,
      "ق": 1188,
      "ك": 1189,
      "ل": 1190,
      "م": 1191,
      "ن": 1192,
      "ه": 1193,
      "و": 1194,
      "ى": 1195,
      "ي": 1196,
      "ً": 1197,
      "ٌ": 1198,
      "ٍ": 1199,
      "َ": 1200,
      "ُ": 1201,
      "ِ": 1202,
      "ّ": 1203,
      "ْ": 1204,
      "٠": 1205,
      "١": 1206,
      "٢": 1207,
      "٣": 1208,
      "٤": 1209,
      "٥": 1210,
      "٦": 1211,
      "٧": 1212,
      "٨": 1213,
      "٩": 1214,
      "ٹ": 1215,
      "پ": 1216,
      "چ": 1217,
      "ڈ": 1218,
      "ډ": 1219,
      "ژ": 1220,
      "ک": 1221,
      "گ": 1222,
      "ں": 1223,
      "ھ": 1224,
      "ہ": 1225,
      "ی": 1226,
      "ې": 1227,
      "ے": 1228,
      "۰": 1229,
      "۱": 1230,
      "۲": 1231,
      "۳": 1232,
      "۴": 1233,
      "۵": 1234,
      "۶": 1235,
      "۷": 1236,
      "۸": 1237,
      "۹": 1238,
      "ܐ": 1239,
      "ܘ": 1240,
      "ܝ": 1241,
      "ܡ": 1242,
      "ܦ": 1243,
      "ܪ": 1244,
      "ܬ": 1245,
      "ހ": 1246,
      "ނ": 1247,
      "ދ": 1248,
      "ތ": 1249,
      "ސ": 1250,
      "ާ": 1251,
      "ި": 1252,
      "ީ": 1253,
      "ު": 1254,
      "ް": 1255,
      "ँ": 1256,
      "ं": 1257,
      "ः": 1258,
      "ऄ": 1259,
      "अ": 1260,
      "आ": 1261,
      "इ": 1262,
      "ई": 1263,
      "उ": 1264,
      "ऊ": 1265,
      "ऋ": 1266,
      "ऌ": 1267,
      "ऍ": 1268,
      "ऎ": 1269,
      "ए": 1270,
      "ऐ": 1271,
      "ऑ": 1272,
      "ऒ": 1273,
      "ओ": 1274,
      "औ": 1275,
      "क": 1276,
      "ख": 1277,
      "ग": 1278,
      "घ": 1279,
      "ङ": 1280,
      "च": 1281,
      "छ": 1282,
      "ज": 1283,
      "झ": 1284,
      "ञ": 1285,
      "ट": 1286,
      "ठ": 1287,
      "ड": 1288,
      "ढ": 1289,
      "ण": 1290,
      "त": 1291,
      "थ": 1292,
      "द": 1293,
      "ध": 1294,
      "न": 1295,
      "ऩ": 1296,
      "प": 1297,
      "फ": 1298,
      "ब": 1299,
      "भ": 1300,
      "म": 1301,
      "य": 1302,
      "र": 1303,
      "ऱ": 1304,
      "ल": 1305,
      "ळ": 1306,
      "ऴ": 1307,
      "व": 1308,
      "श": 1309,
      "ष": 1310,
      "स": 1311,
      "ह": 1312,
      "़": 1313,
      "ऽ": 1314,
      "ा": 1315,
      "ि": 1316,
      "ी": 1317,
      "ु": 1318,
      "ू": 1319,
      "ृ": 1320,
      "ॄ": 1321,
      "ॅ": 1322,
      "ॆ": 1323,
      "े": 1324,
      "ै": 1325,
      "ॉ": 1326,
      "ॊ": 1327,
      "ो": 1328,
      "ौ": 1329,
      "्": 1330,
      "ॐ": 1331,
      "॑": 1332,
      "॒": 1333,
      "॓": 1334,
      "॔": 1335,
      "ॠ": 1336,
      "ॡ": 1337,
      "ॢ": 1338,
      "ॣ": 1339,
      "।": 1340,
      "॥": 1341,
      "०": 1342,
      "१": 1343,
      "२": 1344,
      "३": 1345,
      "४": 1346,
      "५": 1347,
      "६": 1348,
      "७": 1349,
      "८": 1350,
      "९": 1351,
      "॰": 1352,
      "ঁ": 1353,
      "ং": 1354,
      "অ": 1355,
      "আ": 1356,
      "ই": 1357,
      "ঈ": 1358,
      "উ": 1359,
      "এ": 1360,
      "ও": 1361,
      "ক": 1362,
      "খ": 1363,
      "গ": 1364,
      "ঘ": 1365,
      "ঙ": 1366,
      "চ": 1367,
      "ছ": 1368,
      "জ": 1369,
      "ঝ": 1370,
      "ঞ": 1371,
      "ট": 1372,
      "ঠ": 1373,
      "ড": 1374,
      "ঢ": 1375,
      "ণ": 1376,
      "ত": 1377,
      "থ": 1378,
      "দ": 1379,
      "ধ": 1380,
      "ন": 1381,
      "প": 1382,
      "ফ": 1383,
      "ব": 1384,
      "ভ": 1385,
      "ম": 1386,
      "য": 1387,
      "র": 1388,
      "ল": 1389,
      "শ": 1390,
      "ষ": 1391,
      "স": 1392,
      "হ": 1393,
      "়": 1394,
      "া": 1395,
      "ি": 1396,
      "ী": 1397,
      "ু": 1398,
      "ূ": 1399,
      "ৃ": 1400,
      "ে": 1401,
      "ৈ": 1402,
      "ো": 1403,
      "ৌ": 1404,
      "্": 1405,
      "০": 1406,
      "১": 1407,
      "২": 1408,
      "৩": 1409,
      "৪": 1410,
      "৫": 1411,
      "৬": 1412,
      "৭": 1413,
      "৮": 1414,
      "৯": 1415,
      "ਆ": 1416,
      "ਇ": 1417,
      "ਖ": 1418,
      "ਗ": 1419,
      "ਜ": 1420,
      "ਟ": 1421,
      "ਣ": 1422,
      "ਤ": 1423,
      "ਨ": 1424,
      "ਭ": 1425,
      "ਮ": 1426,
      "ਰ": 1427,
      "ਵ": 1428,
      "ਸ": 1429,
      "ਾ": 1430,
      "ਿ": 1431,
      "ੀ": 1432,
      "ੁ": 1433,
      "ੈ": 1434,
      "ੜ": 1435,
      "੦": 1436,
      "੧": 1437,
      "੨": 1438,
      "੩": 1439,
      "੪": 1440,
      "੫": 1441,
      "੬": 1442,
      "੭": 1443,
      "੮": 1444,
      "੯": 1445,
      "ੰ": 1446,
      "ઁ": 1447,
      "ં": 1448,
      "અ": 1449,
      "આ": 1450,
      "ઇ": 1451,
      "ઈ": 1452,
      "ઉ": 1453,
      "ઍ": 1454,
      "એ": 1455,
      "ક": 1456,
      "ગ": 1457,
      "ઘ": 1458,
      "ચ": 1459,
      "જ": 1460,
      "ટ": 1461,
      "ડ": 1462,
      "ણ": 1463,
      "ત": 1464,
      "થ": 1465,
      "દ": 1466,
      "ધ": 1467,
      "ન": 1468,
      "પ": 1469,
      "ફ": 1470,
      "બ": 1471,
      "ભ": 1472,
      "મ": 1473,
      "ય": 1474,
      "ર": 1475,
      "લ": 1476,
      "ળ": 1477,
      "વ": 1478,
      "શ": 1479,
      "ષ": 1480,
      "સ": 1481,
      "હ": 1482,
      "ા": 1483,
      "િ": 1484,
      "ી": 1485,
      "ુ": 1486,
      "ૂ": 1487,
      "ૃ": 1488,
      "ૅ": 1489,
      "ે": 1490,
      "ો": 1491,
      "્": 1492,
      "૦": 1493,
      "૧": 1494,
      "૨": 1495,
      "૩": 1496,
      "૪": 1497,
      "૫": 1498,
      "૬": 1499,
      "૭": 1500,
      "૮": 1501,
      "૯": 1502,
      "ତ": 1503,
      "ଭ": 1504,
      "ର": 1505,
      "ା": 1506,
      "୦": 1507,
      "୧": 1508,
      "୨": 1509,
      "୩": 1510,
      "୪": 1511,
      "୫": 1512,
      "୬": 1513,
      "୭": 1514,
      "୮": 1515,
      "୯": 1516,
      "ஃ": 1517,
      "அ": 1518,
      "ஆ": 1519,
      "இ": 1520,
      "ஈ": 1521,
      "உ": 1522,
      "ஊ": 1523,
      "எ": 1524,
      "ஏ": 1525,
      "ஐ": 1526,
      "ஒ": 1527,
      "ஓ": 1528,
      "க": 1529,
      "ங": 1530,
      "ச": 1531,
      "ஜ": 1532,
      "ஞ": 1533,
      "ட": 1534,
      "ண": 1535,
      "த": 1536,
      "ந": 1537,
      "ன": 1538,
      "ப": 1539,
      "ம": 1540,
      "ய": 1541,
      "ர": 1542,
      "ற": 1543,
      "ல": 1544,
      "ள": 1545,
      "ழ": 1546,
      "வ": 1547,
      "ஷ": 1548,
      "ஸ": 1549,
      "ஹ": 1550,
      "ா": 1551,
      "ி": 1552,
      "ீ": 1553,
      "ு": 1554,
      "ூ": 1555,
      "ெ": 1556,
      "ே": 1557,
      "ை": 1558,
      "ொ": 1559,
      "ோ": 1560,
      "ௌ": 1561,
      "்": 1562,
      "௦": 1563,
      "௧": 1564,
      "௨": 1565,
      "௩": 1566,
      "௪": 1567,
      "௫": 1568,
      "௬": 1569,
      "௭": 1570,
      "௮": 1571,
      "௯": 1572,
      "ం": 1573,
      "ఆ": 1574,
      "ఇ": 1575,
      "ఏ": 1576,
      "క": 1577,
      "గ": 1578,
      "చ": 1579,
      "ట": 1580,
      "డ": 1581,
      "త": 1582,
      "ద": 1583,
      "ధ": 1584,
      "న": 1585,
      "ప": 1586,
      "ఫ": 1587,
      "బ": 1588,
      "భ": 1589,
      "మ": 1590,
      "య": 1591,
      "ర": 1592,
      "ల": 1593,
      "ళ": 1594,
      "వ": 1595,
      "శ": 1596,
      "ష": 1597,
      "స": 1598,
      "హ": 1599,
      "ా": 1600,
      "ి": 1601,
      "ీ": 1602,
      "ు": 1603,
      "ూ": 1604,
      "ె": 1605,
      "ే": 1606,
      "ో": 1607,
      "్": 1608,
      "ಂ": 1609,
      "ಅ": 1610,
      "ಆ": 1611,
      "ಇ": 1612,
      "ಎ": 1613,
      "ಐ": 1614,
      "ಕ": 1615,
      "ಖ": 1616,
      "ಗ": 1617,
      "ಚ": 1618,
      "ಜ": 1619,
      "ಟ": 1620,
      "ಡ": 1621,
      "ಣ": 1622,
      "ತ": 1623,
      "ಥ": 1624,
      "ದ": 1625,
      "ಧ": 1626,
      "ನ": 1627,
      "ಪ": 1628,
      "ಫ": 1629,
      "ಬ": 1630,
      "ಭ": 1631,
      "ಮ": 1632,
      "ಯ": 1633,
      "ರ": 1634,
      "ಲ": 1635,
      "ಳ": 1636,
      "ವ": 1637,
      "ಶ": 1638,
      "ಷ": 1639,
      "ಸ": 1640,
      "ಾ": 1641,
      "ಿ": 1642,
      "ೀ": 1643,
      "ು": 1644,
      "ೂ": 1645,
      "ೆ": 1646,
      "ೇ": 1647,
      "ೊ": 1648,
      "ೋ": 1649,
      "್": 1650,
      "೦": 1651,
      "೧": 1652,
      "೨": 1653,
      "೩": 1654,
      "೪": 1655,
      "೫": 1656,
      "೬": 1657,
      "೭": 1658,
      "೮": 1659,
      "೯": 1660,
      "ം": 1661,
      "അ": 1662,
      "ആ": 1663,
      "ഇ": 1664,
      "ഉ": 1665,
      "ക": 1666,
      "ഗ": 1667,
      "ച": 1668,
      "ജ": 1669,
      "ട": 1670,
      "ഡ": 1671,
      "ണ": 1672,
      "ത": 1673,
      "ഥ": 1674,
      "ദ": 1675,
      "ന": 1676,
      "പ": 1677,
      "ഫ": 1678,
      "ബ": 1679,
      "മ": 1680,
      "യ": 1681,
      "ര": 1682,
      "റ": 1683,
      "ല": 1684,
      "ള": 1685,
      "വ": 1686,
      "ശ": 1687,
      "ഷ": 1688,
      "സ": 1689,
      "ഹ": 1690,
      "ാ": 1691,
      "ി": 1692,
      "ീ": 1693,
      "ു": 1694,
      "െ": 1695,
      "േ": 1696,
      "ൈ": 1697,
      "ോ": 1698,
      "്": 1699,
      "൦": 1700,
      "൧": 1701,
      "൨": 1702,
      "൩": 1703,
      "൪": 1704,
      "൫": 1705,
      "൬": 1706,
      "൭": 1707,
      "൮": 1708,
      "൯": 1709,
      "ඣ": 1710,
      "න": 1711,
      "ා": 1712,
      "ก": 1713,
      "ข": 1714,
      "ฃ": 1715,
      "ค": 1716,
      "ฅ": 1717,
      "ฆ": 1718,
      "ง": 1719,
      "จ": 1720,
      "ฉ": 1721,
      "ช": 1722,
      "ซ": 1723,
      "ฌ": 1724,
      "ญ": 1725,
      "ฎ": 1726,
      "ฏ": 1727,
      "ฐ": 1728,
      "ฑ": 1729,
      "ฒ": 1730,
      "ณ": 1731,
      "ด": 1732,
      "ต": 1733,
      "ถ": 1734,
      "ท": 1735,
      "ธ": 1736,
      "น": 1737,
      "บ": 1738,
      "ป": 1739,
      "ผ": 1740,
      "ฝ": 1741,
      "พ": 1742,
      "ฟ": 1743,
      "ภ": 1744,
      "ม": 1745,
      "ย": 1746,
      "ร": 1747,
      "ฤ": 1748,
      "ล": 1749,
      "ฦ": 1750,
      "ว": 1751,
      "ศ": 1752,
      "ษ": 1753,
      "ส": 1754,
      "ห": 1755,
      "ฬ": 1756,
      "อ": 1757,
      "ฮ": 1758,
      "ฯ": 1759,
      "ะ": 1760,
      "ั": 1761,
      "า": 1762,
      "ำ": 1763,
      "ิ": 1764,
      "ี": 1765,
      "ึ": 1766,
      "ื": 1767,
      "ุ": 1768,
      "ู": 1769,
      "ฺ": 1770,
      "฿": 1771,
      "เ": 1772,
      "แ": 1773,
      "โ": 1774,
      "ใ": 1775,
      "ไ": 1776,
      "ๅ": 1777,
      "ๆ": 1778,
      "็": 1779,
      "่": 1780,
      "้": 1781,
      "๊": 1782,
      "๋": 1783,
      "์": 1784,
      "ํ": 1785,
      "๎": 1786,
      "๏": 1787,
      "๐": 1788,
      "๑": 1789,
      "๒": 1790,
      "๓": 1791,
      "๔": 1792,
      "๕": 1793,
      "๖": 1794,
      "๗": 1795,
      "๘": 1796,
      "๙": 1797,
      "๚": 1798,
      "๛": 1799,
      "ກ": 1800,
      "ຄ": 1801,
      "ຍ": 1802,
      "ດ": 1803,
      "ຕ": 1804,
      "ຖ": 1805,
      "ນ": 1806,
      "ປ": 1807,
      "ພ": 1808,
      "ມ": 1809,
      "ຢ": 1810,
      "ລ": 1811,
      "ວ": 1812,
      "ສ": 1813,
      "ອ": 1814,
      "ຯ": 1815,
      "ະ": 1816,
      "ັ": 1817,
      "າ": 1818,
      "ິ": 1819,
      "ີ": 1820,
      "ຸ": 1821,
      "ເ": 1822,
      "ແ": 1823,
      "ໂ": 1824,
      "່": 1825,
      "་": 1826,
      "༠": 1827,
      "༡": 1828,
      "༢": 1829,
      "༣": 1830,
      "༤": 1831,
      "༥": 1832,
      "༦": 1833,
      "༧": 1834,
      "༨": 1835,
      "༩": 1836,
      "ཀ": 1837,
      "ག": 1838,
      "ང": 1839,
      "ཆ": 1840,
      "ཉ": 1841,
      "ད": 1842,
      "བ": 1843,
      "མ": 1844,
      "ཞ": 1845,
      "འ": 1846,
      "ར": 1847,
      "ཥ": 1848,
      "ི": 1849,
      "ུ": 1850,
      "ོ": 1851,
      "ྟ": 1852,
      "ྱ": 1853,
      "ྲ": 1854,
      "ླ": 1855,
      "က": 1856,
      "စ": 1857,
      "တ": 1858,
      "ထ": 1859,
      "န": 1860,
      "ပ": 1861,
      "ရ": 1862,
      "လ": 1863,
      "ဝ": 1864,
      "ဟ": 1865,
      "အ": 1866,
      "ာ": 1867,
      "ိ": 1868,
      "ီ": 1869,
      "ု": 1870,
      "ူ": 1871,
      "း": 1872,
      "္": 1873,
      "ა": 1874,
      "ბ": 1875,
      "გ": 1876,
      "დ": 1877,
      "ე": 1878,
      "ვ": 1879,
      "ზ": 1880,
      "თ": 1881,
      "ი": 1882,
      "კ": 1883,
      "ლ": 1884,
      "მ": 1885,
      "ნ": 1886,
      "ო": 1887,
      "პ": 1888,
      "ჟ": 1889,
      "რ": 1890,
      "ს": 1891,
      "ტ": 1892,
      "უ": 1893,
      "ფ": 1894,
      "ქ": 1895,
      "ღ": 1896,
      "ყ": 1897,
      "შ": 1898,
      "ჩ": 1899,
      "ც": 1900,
      "ძ": 1901,
      "წ": 1902,
      "ჭ": 1903,
      "ხ": 1904,
      "ჯ": 1905,
      "ჰ": 1906,
      "ᄋ": 1907,
      "ᄼ": 1908,
      "ᄽ": 1909,
      "ᄾ": 1910,
      "ᄿ": 1911,
      "ᅎ": 1912,
      "ᅏ": 1913,
      "ᅐ": 1914,
      "ᅑ": 1915,
      "ᅔ": 1916,
      "ᅕ": 1917,
      "ᆩ": 1918,
      "ᆻ": 1919,
      "ᆼ": 1920,
      "ᇢ": 1921,
      "ᇦ": 1922,
      "ᇰ": 1923,
      "ᇴ": 1924,
      "ሀ": 1925,
      "ሁ": 1926,
      "ሂ": 1927,
      "ሃ": 1928,
      "ህ": 1929,
      "ለ": 1930,
      "ሊ": 1931,
      "ላ": 1932,
      "ል": 1933,
      "ሕ": 1934,
      "መ": 1935,
      "ማ": 1936,
      "ሜ": 1937,
      "ም": 1938,
      "ረ": 1939,
      "ሩ": 1940,
      "ሪ": 1941,
      "ራ": 1942,
      "ሬ": 1943,
      "ር": 1944,
      "ሰ": 1945,
      "ስ": 1946,
      "ሶ": 1947,
      "ሽ": 1948,
      "ቃ": 1949,
      "ቅ": 1950,
      "ቡ": 1951,
      "ቢ": 1952,
      "ብ": 1953,
      "ቦ": 1954,
      "ቨ": 1955,
      "ተ": 1956,
      "ት": 1957,
      "ቶ": 1958,
      "ቻ": 1959,
      "ኅ": 1960,
      "ና": 1961,
      "ን": 1962,
      "ኛ": 1963,
      "አ": 1964,
      "ኤ": 1965,
      "እ": 1966,
      "ከ": 1967,
      "ኪ": 1968,
      "ካ": 1969,
      "ኬ": 1970,
      "ክ": 1971,
      "ዋ": 1972,
      "ው": 1973,
      "ዓ": 1974,
      "ዚ": 1975,
      "ዝ": 1976,
      "የ": 1977,
      "ያ": 1978,
      "ይ": 1979,
      "ደ": 1980,
      "ዳ": 1981,
      "ዴ": 1982,
      "ድ": 1983,
      "ጀ": 1984,
      "ጄ": 1985,
      "ጅ": 1986,
      "ጆ": 1987,
      "ገ": 1988,
      "ጊ": 1989,
      "ጋ": 1990,
      "ግ": 1991,
      "ጎ": 1992,
      "ጽ": 1993,
      "ፅ": 1994,
      "ፋ": 1995,
      "ፍ": 1996,
      "ፑ": 1997,
      "ፔ": 1998,
      "ፕ": 1999,
      "Ꭰ": 2000,
      "Ꭱ": 2001,
      "Ꭲ": 2002,
      "Ꭴ": 2003,
      "Ꭶ": 2004,
      "Ꭹ": 2005,
      "Ꮃ": 2006,
      "Ꮆ": 2007,
      "Ꮇ": 2008,
      "Ꮈ": 2009,
      "Ꮎ": 2010,
      "Ꮑ": 2011,
      "Ꮒ": 2012,
      "Ꮕ": 2013,
      "Ꮖ": 2014,
      "Ꮗ": 2015,
      "Ꮙ": 2016,
      "Ꮜ": 2017,
      "Ꮝ": 2018,
      "Ꮢ": 2019,
      "Ꮧ": 2020,
      "Ꮪ": 2021,
      "Ꮳ": 2022,
      "Ꮵ": 2023,
      "Ꮷ": 2024,
      "Ꮺ": 2025,
      "Ꮿ": 2026,
      "Ᏻ": 2027,
      "ᐃ": 2028,
      "ᐅ": 2029,
      "ᐆ": 2030,
      "ᐊ": 2031,
      "ᐱ": 2032,
      "ᐳ": 2033,
      "ᐸ": 2034,
      "ᑎ": 2035,
      "ᑐ": 2036,
      "ᑕ": 2037,
      "ᑦ": 2038,
      "ᑭ": 2039,
      "ᑯ": 2040,
      "ᑲ": 2041,
      "ᒃ": 2042,
      "ᒋ": 2043,
      "ᒥ": 2044,
      "ᒪ": 2045,
      "ᓂ": 2046,
      "ᓇ": 2047,
      "ᓈ": 2048,
      "ᓐ": 2049,
      "ᓕ": 2050,
      "ᓗ": 2051,
      "ᓛ": 2052,
      "ᓪ": 2053,
      "ᓯ": 2054,
      "ᓰ": 2055,
      "ᓱ": 2056,
      "ᓴ": 2057,
      "ᔅ": 2058,
      "ᔪ": 2059,
      "ᔭ": 2060,
      "ᕆ": 2061,
      "ᕈ": 2062,
      "ᕋ": 2063,
      "ᕐ": 2064,
      "ᕖ": 2065,
      "ᖃ": 2066,
      "ᖅ": 2067,
      "ᚼ": 2068,
      "ᛒ": 2069,
      "ក": 2070,
      "ខ": 2071,
      "គ": 2072,
      "ង": 2073,
      "ច": 2074,
      "ឆ": 2075,
      "ជ": 2076,
      "ញ": 2077,
      "ដ": 2078,
      "ឋ": 2079,
      "ឌ": 2080,
      "ណ": 2081,
      "ត": 2082,
      "ថ": 2083,
      "ទ": 2084,
      "ន": 2085,
      "ប": 2086,
      "ភ": 2087,
      "ម": 2088,
      "យ": 2089,
      "រ": 2090,
      "ល": 2091,
      "វ": 2092,
      "ស": 2093,
      "ហ": 2094,
      "អ": 2095,
      "ឥ": 2096,
      "ា": 2097,
      "ិ": 2098,
      "ី": 2099,
      "ឹ": 2100,
      "ុ": 2101,
      "ូ": 2102,
      "ួ": 2103,
      "ើ": 2104,
      "េ": 2105,
      "ែ": 2106,
      "ៃ": 2107,
      "ោ": 2108,
      "ៅ": 2109,
      "ំ": 2110,
      "៉": 2111,
      "់": 2112,
      "៎": 2113,
      "្": 2114,
      "᠁": 2115,
      "ᵊ": 2116,
      "Ḃ": 2117,
      "ḃ": 2118,
      "ḇ": 2119,
      "Ḋ": 2120,
      "ḋ": 2121,
      "ḍ": 2122,
      "Ḏ": 2123,
      "ḏ": 2124,
      "ḛ": 2125,
      "Ḟ": 2126,
      "ḟ": 2127,
      "ḡ": 2128,
      "Ḥ": 2129,
      "ḥ": 2130,
      "Ḩ": 2131,
      "ḫ": 2132,
      "Ḳ": 2133,
      "ḳ": 2134,
      "ḵ": 2135,
      "ḷ": 2136,
      "ḹ": 2137,
      "Ṁ": 2138,
      "ṁ": 2139,
      "ṃ": 2140,
      "ṅ": 2141,
      "ṇ": 2142,
      "Ṉ": 2143,
      "Ṗ": 2144,
      "ṗ": 2145,
      "Ṛ": 2146,
      "ṛ": 2147,
      "ṝ": 2148,
      "Ṡ": 2149,
      "ṡ": 2150,
      "Ṣ": 2151,
      "ṣ": 2152,
      "Ṫ": 2153,
      "ṫ": 2154,
      "Ṭ": 2155,
      "ṭ": 2156,
      "ṯ": 2157,
      "Ẁ": 2158,
      "ẁ": 2159,
      "Ẃ": 2160,
      "ẃ": 2161,
      "Ẅ": 2162,
      "ẅ": 2163,
      "Ẓ": 2164,
      "ẓ": 2165,
      "ẗ": 2166,
      "ạ": 2167,
      "Ả": 2168,
      "ả": 2169,
      "Ấ": 2170,
      "ấ": 2171,
      "ầ": 2172,
      "ẩ": 2173,
      "ẫ": 2174,
      "ậ": 2175,
      "ắ": 2176,
      "ằ": 2177,
      "ẳ": 2178,
      "ặ": 2179,
      "ẹ": 2180,
      "ẻ": 2181,
      "ẽ": 2182,
      "ế": 2183,
      "ề": 2184,
      "ể": 2185,
      "ễ": 2186,
      "ệ": 2187,
      "ỉ": 2188,
      "ị": 2189,
      "ọ": 2190,
      "ỏ": 2191,
      "ố": 2192,
      "ồ": 2193,
      "Ổ": 2194,
      "ổ": 2195,
      "ỗ": 2196,
      "ộ": 2197,
      "ớ": 2198,
      "ờ": 2199,
      "ở": 2200,
      "ỡ": 2201,
      "ợ": 2202,
      "ụ": 2203,
      "ủ": 2204,
      "ứ": 2205,
      "ừ": 2206,
      "ử": 2207,
      "ữ": 2208,
      "ự": 2209,
      "Ỳ": 2210,
      "ỳ": 2211,
      "ỹ": 2212,
      "ἀ": 2213,
      "ἁ": 2214,
      "ἂ": 2215,
      "ἃ": 2216,
      "ἄ": 2217,
      "ἅ": 2218,
      "Ἀ": 2219,
      "Ἁ": 2220,
      "Ἂ": 2221,
      "Ἄ": 2222,
      "Ἅ": 2223,
      "ἐ": 2224,
      "ἑ": 2225,
      "ἔ": 2226,
      "ἕ": 2227,
      "Ἐ": 2228,
      "Ἑ": 2229,
      "Ἕ": 2230,
      "ἠ": 2231,
      "ἡ": 2232,
      "ἣ": 2233,
      "ἥ": 2234,
      "ἦ": 2235,
      "Ἠ": 2236,
      "Ἡ": 2237,
      "ἰ": 2238,
      "ἱ": 2239,
      "ἳ": 2240,
      "ἴ": 2241,
      "ἵ": 2242,
      "ἶ": 2243,
      "Ἰ": 2244,
      "Ἱ": 2245,
      "ὀ": 2246,
      "ὁ": 2247,
      "ὃ": 2248,
      "ὄ": 2249,
      "ὅ": 2250,
      "Ὀ": 2251,
      "Ὁ": 2252,
      "ὐ": 2253,
      "ὑ": 2254,
      "ὔ": 2255,
      "ὕ": 2256,
      "ὖ": 2257,
      "ὠ": 2258,
      "ὡ": 2259,
      "ὥ": 2260,
      "Ὤ": 2261,
      "ὰ": 2262,
      "ὲ": 2263,
      "ὴ": 2264,
      "ὶ": 2265,
      "ὸ": 2266,
      "ὺ": 2267,
      "ᾍ": 2268,
      "ᾰ": 2269,
      "ᾱ": 2270,
      "ᾶ": 2271,
      "ᾷ": 2272,
      "ῃ": 2273,
      "ῆ": 2274,
      "ῐ": 2275,
      "ῒ": 2276,
      "ῖ": 2277,
      "ῤ": 2278,
      "ῥ": 2279,
      "ῦ": 2280,
      "Ῥ": 2281,
      "ῳ": 2282,
      "ῶ": 2283,
      "῾": 2284,
      "​": 2285,
      "‌": 2286,
      "‍": 2287,
      "‎": 2288,
      "‏": 2289,
      "‐": 2290,
      "‑": 2291,
      "–": 2292,
      "—": 2293,
      "―": 2294,
      "‖": 2295,
      "‗": 2296,
      "‘": 2297,
      "’": 2298,
      "‚": 2299,
      "‛": 2300,
      "“": 2301,
      "”": 2302,
      "„": 2303,
      "†": 2304,
      "‡": 2305,
      "•": 2306,
      "…": 2307,
      "‬": 2308,
      "‮": 2309,
      "′": 2310,
      "″": 2311,
      "‹": 2312,
      "›": 2313,
      "‼": 2314,
      "‿": 2315,
      "⁄": 2316,
      "⁷": 2317,
      "⁼": 2318,
      "ⁿ": 2319,
      "₁": 2320,
      "₍": 2321,
      "₎": 2322,
      "₠": 2323,
      "₧": 2324,
      "₪": 2325,
      "€": 2326,
      "₯": 2327,
      "ℂ": 2328,
      "℃": 2329,
      "ℎ": 2330,
      "ℏ": 2331,
      "™": 2332,
      "ℭ": 2333,
      "℮": 2334,
      "ℵ": 2335,
      "Ⅰ": 2336,
      "Ⅲ": 2337,
      "Ⅽ": 2338,
      "Ⅾ": 2339,
      "ⅰ": 2340,
      "ⅽ": 2341,
      "ⅾ": 2342,
      "←": 2343,
      "↑": 2344,
      "→": 2345,
      "↓": 2346,
      "↔": 2347,
      "↕": 2348,
      "↗": 2349,
      "↘": 2350,
      "↨": 2351,
      "↵": 2352,
      "⇌": 2353,
      "⇒": 2354,
      "∀": 2355,
      "∂": 2356,
      "∃": 2357,
      "∅": 2358,
      "∆": 2359,
      "∈": 2360,
      "∑": 2361,
      "−": 2362,
      "∙": 2363,
      "√": 2364,
      "∞": 2365,
      "∟": 2366,
      "∧": 2367,
      "∨": 2368,
      "∩": 2369,
      "∪": 2370,
      "∫": 2371,
      "∴": 2372,
      "≅": 2373,
      "≈": 2374,
      "≠": 2375,
      "≡": 2376,
      "≤": 2377,
      "≥": 2378,
      "⊆": 2379,
      "⊇": 2380,
      "⊦": 2381,
      "⋮": 2382,
      "⋯": 2383,
      "⋰": 2384,
      "⋱": 2385,
      "⌂": 2386,
      "⌐": 2387,
      "⌠": 2388,
      "⌡": 2389,
      "⍋": 2390,
      "─": 2391,
      "━": 2392,
      "│": 2393,
      "┌": 2394,
      "┐": 2395,
      "└": 2396,
      "┘": 2397,
      "├": 2398,
      "┤": 2399,
      "┬": 2400,
      "┴": 2401,
      "┼": 2402,
      "═": 2403,
      "║": 2404,
      "╒": 2405,
      "╓": 2406,
      "╔": 2407,
      "╕": 2408,
      "╖": 2409,
      "╗": 2410,
      "╘": 2411,
      "╙": 2412,
      "╚": 2413,
      "╛": 2414,
      "╜": 2415,
      "╝": 2416,
      "╞": 2417,
      "╟": 2418,
      "╠": 2419,
      "╡": 2420,
      "╢": 2421,
      "╣": 2422,
      "╤": 2423,
      "╥": 2424,
      "╦": 2425,
      "╧": 2426,
      "╨": 2427,
      "╩": 2428,
      "╪": 2429,
      "╫": 2430,
      "╬": 2431,
      "╭": 2432,
      "╮": 2433,
      "▀": 2434,
      "▄": 2435,
      "█": 2436,
      "▌": 2437,
      "▐": 2438,
      "░": 2439,
      "▒": 2440,
      "▓": 2441,
      "■": 2442,
      "▬": 2443,
      "▲": 2444,
      "►": 2445,
      "▼": 2446,
      "▽": 2447,
      "◄": 2448,
      "◊": 2449,
      "○": 2450,
      "●": 2451,
      "◘": 2452,
      "◙": 2453,
      "☄": 2454,
      "☆": 2455,
      "☧": 2456,
      "☺": 2457,
      "☻": 2458,
      "☼": 2459,
      "♀": 2460,
      "♂": 2461,
      "♈": 2462,
      "♊": 2463,
      "♑": 2464,
      "♒": 2465,
      "♠": 2466,
      "♣": 2467,
      "♥": 2468,
      "♦": 2469,
      "♪": 2470,
      "♫": 2471,
      "♭": 2472,
      "♯": 2473,
      "、": 2474,
      "。": 2475,
      "〇": 2476,
      "〈": 2477,
      "〉": 2478,
      "《": 2479,
      "》": 2480,
      "「": 2481,
      "」": 2482,
      "〡": 2483,
      "〢": 2484,
      "〣": 2485,
      "〤": 2486,
      "〥": 2487,
      "〦": 2488,
      "〧": 2489,
      "〨": 2490,
      "〩": 2491,
      "ぁ": 2492,
      "あ": 2493,
      "ぃ": 2494,
      "い": 2495,
      "う": 2496,
      "ぇ": 2497,
      "え": 2498,
      "お": 2499,
      "か": 2500,
      "が": 2501,
      "き": 2502,
      "ぎ": 2503,
      "く": 2504,
      "ぐ": 2505,
      "け": 2506,
      "げ": 2507,
      "こ": 2508,
      "ご": 2509,
      "さ": 2510,
      "ざ": 2511,
      "し": 2512,
      "じ": 2513,
      "す": 2514,
      "ず": 2515,
      "せ": 2516,
      "ぜ": 2517,
      "そ": 2518,
      "ぞ": 2519,
      "た": 2520,
      "だ": 2521,
      "ち": 2522,
      "ぢ": 2523,
      "っ": 2524,
      "つ": 2525,
      "づ": 2526,
      "て": 2527,
      "で": 2528,
      "と": 2529,
      "ど": 2530,
      "な": 2531,
      "に": 2532,
      "ぬ": 2533,
      "ね": 2534,
      "の": 2535,
      "は": 2536,
      "ば": 2537,
      "ぱ": 2538,
      "ひ": 2539,
      "び": 2540,
      "ぴ": 2541,
      "ふ": 2542,
      "ぶ": 2543,
      "ぷ": 2544,
      "へ": 2545,
      "べ": 2546,
      "ぺ": 2547,
      "ほ": 2548,
      "ぼ": 2549,
      "ぽ": 2550,
      "ま": 2551,
      "み": 2552,
      "む": 2553,
      "め": 2554,
      "も": 2555,
      "ゃ": 2556,
      "や": 2557,
      "ゅ": 2558,
      "ゆ": 2559,
      "ょ": 2560,
      "よ": 2561,
      "ら": 2562,
      "り": 2563,
      "る": 2564,
      "れ": 2565,
      "ろ": 2566,
      "わ": 2567,
      "ゐ": 2568,
      "ゑ": 2569,
      "を": 2570,
      "ん": 2571,
      "ゔ": 2572,
      "゛": 2573,
      "゜": 2574,
      "ゝ": 2575,
      "ァ": 2576,
      "ア": 2577,
      "ィ": 2578,
      "イ": 2579,
      "ゥ": 2580,
      "ウ": 2581,
      "ェ": 2582,
      "エ": 2583,
      "ォ": 2584,
      "オ": 2585,
      "カ": 2586,
      "ガ": 2587,
      "キ": 2588,
      "ギ": 2589,
      "ク": 2590,
      "グ": 2591,
      "ケ": 2592,
      "ゲ": 2593,
      "コ": 2594,
      "ゴ": 2595,
      "サ": 2596,
      "ザ": 2597,
      "シ": 2598,
      "ジ": 2599,
      "ス": 2600,
      "ズ": 2601,
      "セ": 2602,
      "ゼ": 2603,
      "ソ": 2604,
      "ゾ": 2605,
      "タ": 2606,
      "ダ": 2607,
      "チ": 2608,
      "ッ": 2609,
      "ツ": 2610,
      "テ": 2611,
      "デ": 2612,
      "ト": 2613,
      "ド": 2614,
      "ナ": 2615,
      "ニ": 2616,
      "ヌ": 2617,
      "ネ": 2618,
      "ノ": 2619,
      "ハ": 2620,
      "バ": 2621,
      "パ": 2622,
      "ヒ": 2623,
      "ビ": 2624,
      "ピ": 2625,
      "フ": 2626,
      "ブ": 2627,
      "プ": 2628,
      "ヘ": 2629,
      "ベ": 2630,
      "ペ": 2631,
      "ホ": 2632,
      "ボ": 2633,
      "ポ": 2634,
      "マ": 2635,
      "ミ": 2636,
      "ム": 2637,
      "メ": 2638,
      "モ": 2639,
      "ャ": 2640,
      "ヤ": 2641,
      "ュ": 2642,
      "ユ": 2643,
      "ョ": 2644,
      "ヨ": 2645,
      "ラ": 2646,
      "リ": 2647,
      "ル": 2648,
      "レ": 2649,
      "ロ": 2650,
      "ワ": 2651,
      "ン": 2652,
      "ヴ": 2653,
      "・": 2654,
      "ー": 2655,
      "ㄍ": 2656,
      "ㄓ": 2657,
      "ㄡ": 2658,
      "ㄤ": 2659,
      "ㄨ": 2660,
      "ㄱ": 2661,
      "ㄲ": 2662,
      "ㄳ": 2663,
      "ㄴ": 2664,
      "ㄵ": 2665,
      "ㄶ": 2666,
      "ㄷ": 2667,
      "ㄸ": 2668,
      "ㄹ": 2669,
      "ㄺ": 2670,
      "ㄻ": 2671,
      "ㄼ": 2672,
      "ㄽ": 2673,
      "ㄾ": 2674,
      "ㄿ": 2675,
      "ㅀ": 2676,
      "ㅁ": 2677,
      "ㅂ": 2678,
      "ㅃ": 2679,
      "ㅄ": 2680,
      "ㅅ": 2681,
      "ㅆ": 2682,
      "ㅇ": 2683,
      "ㅈ": 2684,
      "ㅉ": 2685,
      "ㅊ": 2686,
      "ㅋ": 2687,
      "ㅌ": 2688,
      "ㅍ": 2689,
      "ㅎ": 2690,
      "ㅏ": 2691,
      "ㅐ": 2692,
      "ㅑ": 2693,
      "ㅒ": 2694,
      "ㅓ": 2695,
      "ㅔ": 2696,
      "ㅕ": 2697,
      "ㅖ": 2698,
      "ㅗ": 2699,
      "ㅘ": 2700,
      "ㅙ": 2701,
      "ㅚ": 2702,
      "ㅛ": 2703,
      "ㅜ": 2704,
      "ㅝ": 2705,
      "ㅞ": 2706,
      "ㅟ": 2707,
      "ㅠ": 2708,
      "ㅡ": 2709,
      "ㅢ": 2710,
      "ㅣ": 2711,
      "ㅥ": 2712,
      "ㅦ": 2713,
      "ㅧ": 2714,
      "ㅨ": 2715,
      "ㅩ": 2716,
      "ㅪ": 2717,
      "ㅫ": 2718,
      "ㅬ": 2719,
      "ㅭ": 2720,
      "ㅮ": 2721,
      "ㅯ": 2722,
      "ㅰ": 2723,
      "ㅱ": 2724,
      "ㅲ": 2725,
      "ㅳ": 2726,
      "ㅴ": 2727,
      "ㅵ": 2728,
      "ㅶ": 2729,
      "ㅷ": 2730,
      "ㅸ": 2731,
      "ㅹ": 2732,
      "ㅺ": 2733,
      "ㅻ": 2734,
      "ㅼ": 2735,
      "ㅽ": 2736,
      "ㅾ": 2737,
      "ㅿ": 2738,
      "ㆀ": 2739,
      "ㆁ": 2740,
      "ㆂ": 2741,
      "ㆃ": 2742,
      "ㆄ": 2743,
      "ㆅ": 2744,
      "ㆆ": 2745,
      "ㆇ": 2746,
      "ㆈ": 2747,
      "ㆉ": 2748,
      "ㆊ": 2749,
      "ㆋ": 2750,
      "ㆌ": 2751,
      "ㆍ": 2752,
      "ㆎ": 2753,
      "䓬": 2754,
      "一": 2755,
      "丁": 2756,
      "七": 2757,
      "万": 2758,
      "三": 2759,
      "上": 2760,
      "下": 2761,
      "不": 2762,
      "与": 2763,
      "丑": 2764,
      "专": 2765,
      "且": 2766,
      "丕": 2767,
      "世": 2768,
      "丘": 2769,
      "丙": 2770,
      "业": 2771,
      "东": 2772,
      "丝": 2773,
      "丟": 2774,
      "両": 2775,
      "两": 2776,
      "严": 2777,
      "並": 2778,
      "个": 2779,
      "中": 2780,
      "丰": 2781,
      "串": 2782,
      "丶": 2783,
      "丸": 2784,
      "丹": 2785,
      "为": 2786,
      "主": 2787,
      "丽": 2788,
      "乃": 2789,
      "久": 2790,
      "么": 2791,
      "义": 2792,
      "之": 2793,
      "乌": 2794,
      "乍": 2795,
      "乐": 2796,
      "乒": 2797,
      "乓": 2798,
      "乔": 2799,
      "乗": 2800,
      "乘": 2801,
      "乙": 2802,
      "九": 2803,
      "也": 2804,
      "乡": 2805,
      "书": 2806,
      "乱": 2807,
      "乳": 2808,
      "乾": 2809,
      "亂": 2810,
      "了": 2811,
      "予": 2812,
      "争": 2813,
      "事": 2814,
      "二": 2815,
      "云": 2816,
      "互": 2817,
      "五": 2818,
      "井": 2819,
      "亚": 2820,
      "亜": 2821,
      "亞": 2822,
      "亡": 2823,
      "交": 2824,
      "亥": 2825,
      "亦": 2826,
      "产": 2827,
      "亨": 2828,
      "亩": 2829,
      "享": 2830,
      "京": 2831,
      "亮": 2832,
      "亲": 2833,
      "人": 2834,
      "什": 2835,
      "仁": 2836,
      "仅": 2837,
      "今": 2838,
      "介": 2839,
      "仏": 2840,
      "仑": 2841,
      "仓": 2842,
      "仔": 2843,
      "仕": 2844,
      "他": 2845,
      "付": 2846,
      "仙": 2847,
      "仟": 2848,
      "代": 2849,
      "令": 2850,
      "以": 2851,
      "仮": 2852,
      "仰": 2853,
      "仲": 2854,
      "件": 2855,
      "价": 2856,
      "任": 2857,
      "份": 2858,
      "企": 2859,
      "伊": 2860,
      "伍": 2861,
      "伏": 2862,
      "伐": 2863,
      "休": 2864,
      "会": 2865,
      "伝": 2866,
      "伞": 2867,
      "传": 2868,
      "伦": 2869,
      "伪": 2870,
      "伯": 2871,
      "伴": 2872,
      "伶": 2873,
      "伽": 2874,
      "但": 2875,
      "佇": 2876,
      "佈": 2877,
      "位": 2878,
      "低": 2879,
      "住": 2880,
      "佐": 2881,
      "佑": 2882,
      "体": 2883,
      "何": 2884,
      "余": 2885,
      "佛": 2886,
      "作": 2887,
      "你": 2888,
      "佩": 2889,
      "佰": 2890,
      "佳": 2891,
      "使": 2892,
      "來": 2893,
      "依": 2894,
      "侬": 2895,
      "侯": 2896,
      "便": 2897,
      "係": 2898,
      "俄": 2899,
      "俊": 2900,
      "保": 2901,
      "俠": 2902,
      "信": 2903,
      "修": 2904,
      "俱": 2905,
      "俳": 2906,
      "倉": 2907,
      "個": 2908,
      "倒": 2909,
      "候": 2910,
      "値": 2911,
      "倫": 2912,
      "倭": 2913,
      "值": 2914,
      "假": 2915,
      "偕": 2916,
      "停": 2917,
      "健": 2918,
      "側": 2919,
      "偵": 2920,
      "偶": 2921,
      "偽": 2922,
      "傅": 2923,
      "傑": 2924,
      "備": 2925,
      "储": 2926,
      "催": 2927,
      "傳": 2928,
      "傻": 2929,
      "働": 2930,
      "像": 2931,
      "僕": 2932,
      "僖": 2933,
      "僚": 2934,
      "儀": 2935,
      "億": 2936,
      "儒": 2937,
      "優": 2938,
      "儲": 2939,
      "允": 2940,
      "元": 2941,
      "兄": 2942,
      "充": 2943,
      "兆": 2944,
      "先": 2945,
      "光": 2946,
      "克": 2947,
      "免": 2948,
      "児": 2949,
      "兒": 2950,
      "兔": 2951,
      "党": 2952,
      "入": 2953,
      "內": 2954,
      "全": 2955,
      "兩": 2956,
      "八": 2957,
      "公": 2958,
      "六": 2959,
      "兰": 2960,
      "共": 2961,
      "关": 2962,
      "兴": 2963,
      "兵": 2964,
      "具": 2965,
      "典": 2966,
      "兹": 2967,
      "兼": 2968,
      "内": 2969,
      "円": 2970,
      "冊": 2971,
      "册": 2972,
      "再": 2973,
      "冒": 2974,
      "冕": 2975,
      "写": 2976,
      "军": 2977,
      "农": 2978,
      "冬": 2979,
      "冯": 2980,
      "冰": 2981,
      "冲": 2982,
      "况": 2983,
      "冶": 2984,
      "冷": 2985,
      "准": 2986,
      "凋": 2987,
      "凍": 2988,
      "减": 2989,
      "凝": 2990,
      "几": 2991,
      "処": 2992,
      "凧": 2993,
      "凯": 2994,
      "凱": 2995,
      "凸": 2996,
      "出": 2997,
      "击": 2998,
      "函": 2999,
      "刀": 3000,
      "分": 3001,
      "切": 3002,
      "刑": 3003,
      "划": 3004,
      "列": 3005,
      "刘": 3006,
      "刚": 3007,
      "初": 3008,
      "判": 3009,
      "別": 3010,
      "利": 3011,
      "别": 3012,
      "刮": 3013,
      "到": 3014,
      "制": 3015,
      "刺": 3016,
      "剂": 3017,
      "則": 3018,
      "前": 3019,
      "剑": 3020,
      "剖": 3021,
      "剛": 3022,
      "剣": 3023,
      "剤": 3024,
      "剧": 3025,
      "剩": 3026,
      "副": 3027,
      "剰": 3028,
      "割": 3029,
      "創": 3030,
      "劃": 3031,
      "劇": 3032,
      "劉": 3033,
      "力": 3034,
      "功": 3035,
      "加": 3036,
      "务": 3037,
      "动": 3038,
      "助": 3039,
      "努": 3040,
      "劫": 3041,
      "劳": 3042,
      "労": 3043,
      "効": 3044,
      "劾": 3045,
      "势": 3046,
      "勃": 3047,
      "勇": 3048,
      "勒": 3049,
      "動": 3050,
      "務": 3051,
      "勞": 3052,
      "勢": 3053,
      "勤": 3054,
      "勸": 3055,
      "勾": 3056,
      "勿": 3057,
      "包": 3058,
      "匈": 3059,
      "化": 3060,
      "北": 3061,
      "匯": 3062,
      "匹": 3063,
      "区": 3064,
      "医": 3065,
      "匿": 3066,
      "區": 3067,
      "十": 3068,
      "千": 3069,
      "卄": 3070,
      "卅": 3071,
      "升": 3072,
      "午": 3073,
      "半": 3074,
      "卌": 3075,
      "华": 3076,
      "协": 3077,
      "卐": 3078,
      "卑": 3079,
      "卓": 3080,
      "協": 3081,
      "单": 3082,
      "南": 3083,
      "単": 3084,
      "博": 3085,
      "卜": 3086,
      "占": 3087,
      "卡": 3088,
      "卢": 3089,
      "卤": 3090,
      "卦": 3091,
      "卫": 3092,
      "卯": 3093,
      "印": 3094,
      "危": 3095,
      "却": 3096,
      "卷": 3097,
      "卻": 3098,
      "厄": 3099,
      "历": 3100,
      "压": 3101,
      "厕": 3102,
      "厘": 3103,
      "原": 3104,
      "厥": 3105,
      "厦": 3106,
      "厳": 3107,
      "去": 3108,
      "县": 3109,
      "叁": 3110,
      "参": 3111,
      "叄": 3112,
      "又": 3113,
      "叉": 3114,
      "及": 3115,
      "友": 3116,
      "双": 3117,
      "反": 3118,
      "収": 3119,
      "发": 3120,
      "叔": 3121,
      "取": 3122,
      "变": 3123,
      "叟": 3124,
      "叠": 3125,
      "叡": 3126,
      "口": 3127,
      "古": 3128,
      "句": 3129,
      "叨": 3130,
      "只": 3131,
      "叫": 3132,
      "可": 3133,
      "台": 3134,
      "史": 3135,
      "右": 3136,
      "叶": 3137,
      "号": 3138,
      "司": 3139,
      "吃": 3140,
      "各": 3141,
      "合": 3142,
      "吉": 3143,
      "同": 3144,
      "名": 3145,
      "后": 3146,
      "向": 3147,
      "吒": 3148,
      "吗": 3149,
      "君": 3150,
      "吞": 3151,
      "含": 3152,
      "启": 3153,
      "吳": 3154,
      "吴": 3155,
      "吹": 3156,
      "吾": 3157,
      "呀": 3158,
      "呆": 3159,
      "呉": 3160,
      "告": 3161,
      "呒": 3162,
      "员": 3163,
      "呢": 3164,
      "呤": 3165,
      "周": 3166,
      "味": 3167,
      "呼": 3168,
      "命": 3169,
      "咁": 3170,
      "和": 3171,
      "咖": 3172,
      "咸": 3173,
      "哀": 3174,
      "品": 3175,
      "哆": 3176,
      "哈": 3177,
      "响": 3178,
      "哎": 3179,
      "員": 3180,
      "哥": 3181,
      "哩": 3182,
      "哪": 3183,
      "哲": 3184,
      "唇": 3185,
      "唐": 3186,
      "唔": 3187,
      "唧": 3188,
      "唯": 3189,
      "唱": 3190,
      "商": 3191,
      "啊": 3192,
      "問": 3193,
      "啓": 3194,
      "啟": 3195,
      "啡": 3196,
      "啤": 3197,
      "啥": 3198,
      "啦": 3199,
      "啱": 3200,
      "喀": 3201,
      "善": 3202,
      "喇": 3203,
      "喉": 3204,
      "喜": 3205,
      "喬": 3206,
      "單": 3207,
      "喺": 3208,
      "嗎": 3209,
      "嗜": 3210,
      "嗰": 3211,
      "嘉": 3212,
      "嘌": 3213,
      "嘛": 3214,
      "嘸": 3215,
      "器": 3216,
      "嚴": 3217,
      "四": 3218,
      "回": 3219,
      "因": 3220,
      "团": 3221,
      "団": 3222,
      "园": 3223,
      "図": 3224,
      "固": 3225,
      "国": 3226,
      "图": 3227,
      "圆": 3228,
      "圈": 3229,
      "國": 3230,
      "圍": 3231,
      "圏": 3232,
      "園": 3233,
      "圓": 3234,
      "圖": 3235,
      "團": 3236,
      "土": 3237,
      "圣": 3238,
      "圧": 3239,
      "在": 3240,
      "圭": 3241,
      "地": 3242,
      "场": 3243,
      "址": 3244,
      "坂": 3245,
      "均": 3246,
      "坎": 3247,
      "坏": 3248,
      "坐": 3249,
      "坑": 3250,
      "坚": 3251,
      "坛": 3252,
      "坞": 3253,
      "坡": 3254,
      "坦": 3255,
      "垂": 3256,
      "型": 3257,
      "垓": 3258,
      "垩": 3259,
      "埃": 3260,
      "城": 3261,
      "埔": 3262,
      "域": 3263,
      "執": 3264,
      "培": 3265,
      "基": 3266,
      "堂": 3267,
      "堅": 3268,
      "堆": 3269,
      "堉": 3270,
      "堕": 3271,
      "堡": 3272,
      "堤": 3273,
      "堰": 3274,
      "報": 3275,
      "場": 3276,
      "塁": 3277,
      "塔": 3278,
      "塗": 3279,
      "塚": 3280,
      "塞": 3281,
      "塩": 3282,
      "塵": 3283,
      "境": 3284,
      "墓": 3285,
      "増": 3286,
      "墜": 3287,
      "墨": 3288,
      "墩": 3289,
      "墳": 3290,
      "壁": 3291,
      "壊": 3292,
      "壘": 3293,
      "士": 3294,
      "壬": 3295,
      "壮": 3296,
      "声": 3297,
      "壹": 3298,
      "壺": 3299,
      "夂": 3300,
      "处": 3301,
      "备": 3302,
      "変": 3303,
      "夊": 3304,
      "复": 3305,
      "夏": 3306,
      "外": 3307,
      "多": 3308,
      "夜": 3309,
      "夢": 3310,
      "大": 3311,
      "天": 3312,
      "太": 3313,
      "夫": 3314,
      "央": 3315,
      "失": 3316,
      "头": 3317,
      "夷": 3318,
      "奇": 3319,
      "奈": 3320,
      "奏": 3321,
      "契": 3322,
      "奔": 3323,
      "奖": 3324,
      "套": 3325,
      "奥": 3326,
      "奧": 3327,
      "奪": 3328,
      "女": 3329,
      "奴": 3330,
      "奶": 3331,
      "好": 3332,
      "如": 3333,
      "妈": 3334,
      "妊": 3335,
      "妥": 3336,
      "妮": 3337,
      "妻": 3338,
      "姆": 3339,
      "始": 3340,
      "姓": 3341,
      "委": 3342,
      "姚": 3343,
      "姦": 3344,
      "姬": 3345,
      "威": 3346,
      "娃": 3347,
      "娛": 3348,
      "娜": 3349,
      "娠": 3350,
      "婆": 3351,
      "婉": 3352,
      "婚": 3353,
      "婦": 3354,
      "媒": 3355,
      "媽": 3356,
      "嬉": 3357,
      "嬰": 3358,
      "嬴": 3359,
      "子": 3360,
      "孔": 3361,
      "孕": 3362,
      "字": 3363,
      "存": 3364,
      "孙": 3365,
      "孚": 3366,
      "孛": 3367,
      "孝": 3368,
      "孟": 3369,
      "季": 3370,
      "孤": 3371,
      "学": 3372,
      "孫": 3373,
      "學": 3374,
      "宁": 3375,
      "宇": 3376,
      "守": 3377,
      "安": 3378,
      "宋": 3379,
      "完": 3380,
      "宗": 3381,
      "官": 3382,
      "宙": 3383,
      "定": 3384,
      "宜": 3385,
      "宝": 3386,
      "实": 3387,
      "実": 3388,
      "客": 3389,
      "宣": 3390,
      "室": 3391,
      "宪": 3392,
      "宫": 3393,
      "宮": 3394,
      "害": 3395,
      "宴": 3396,
      "家": 3397,
      "容": 3398,
      "宽": 3399,
      "宾": 3400,
      "宿": 3401,
      "寅": 3402,
      "密": 3403,
      "富": 3404,
      "寒": 3405,
      "寓": 3406,
      "寛": 3407,
      "寝": 3408,
      "察": 3409,
      "寧": 3410,
      "寨": 3411,
      "審": 3412,
      "寫": 3413,
      "寶": 3414,
      "寸": 3415,
      "对": 3416,
      "导": 3417,
      "対": 3418,
      "封": 3419,
      "射": 3420,
      "将": 3421,
      "專": 3422,
      "尉": 3423,
      "尊": 3424,
      "尋": 3425,
      "對": 3426,
      "小": 3427,
      "少": 3428,
      "尔": 3429,
      "尤": 3430,
      "尭": 3431,
      "尼": 3432,
      "尽": 3433,
      "尾": 3434,
      "尿": 3435,
      "局": 3436,
      "屁": 3437,
      "层": 3438,
      "屄": 3439,
      "居": 3440,
      "屋": 3441,
      "展": 3442,
      "属": 3443,
      "屠": 3444,
      "層": 3445,
      "履": 3446,
      "屬": 3447,
      "山": 3448,
      "屿": 3449,
      "岐": 3450,
      "岛": 3451,
      "岩": 3452,
      "岸": 3453,
      "峡": 3454,
      "峨": 3455,
      "島": 3456,
      "峻": 3457,
      "峽": 3458,
      "崇": 3459,
      "崗": 3460,
      "崩": 3461,
      "嵯": 3462,
      "嶋": 3463,
      "川": 3464,
      "州": 3465,
      "巡": 3466,
      "巢": 3467,
      "工": 3468,
      "巧": 3469,
      "巫": 3470,
      "差": 3471,
      "己": 3472,
      "已": 3473,
      "巳": 3474,
      "巴": 3475,
      "巾": 3476,
      "币": 3477,
      "市": 3478,
      "布": 3479,
      "师": 3480,
      "希": 3481,
      "帕": 3482,
      "帖": 3483,
      "帜": 3484,
      "帝": 3485,
      "带": 3486,
      "師": 3487,
      "席": 3488,
      "帮": 3489,
      "帯": 3490,
      "常": 3491,
      "幅": 3492,
      "幕": 3493,
      "幣": 3494,
      "干": 3495,
      "平": 3496,
      "年": 3497,
      "幹": 3498,
      "幺": 3499,
      "幻": 3500,
      "幼": 3501,
      "幽": 3502,
      "幾": 3503,
      "广": 3504,
      "広": 3505,
      "庄": 3506,
      "庆": 3507,
      "庇": 3508,
      "序": 3509,
      "库": 3510,
      "应": 3511,
      "底": 3512,
      "店": 3513,
      "庙": 3514,
      "庚": 3515,
      "府": 3516,
      "庞": 3517,
      "度": 3518,
      "座": 3519,
      "庭": 3520,
      "庶": 3521,
      "康": 3522,
      "庸": 3523,
      "廁": 3524,
      "廈": 3525,
      "廉": 3526,
      "廣": 3527,
      "延": 3528,
      "廷": 3529,
      "建": 3530,
      "廿": 3531,
      "开": 3532,
      "弁": 3533,
      "异": 3534,
      "弈": 3535,
      "式": 3536,
      "引": 3537,
      "弗": 3538,
      "弘": 3539,
      "弟": 3540,
      "张": 3541,
      "弥": 3542,
      "弦": 3543,
      "弩": 3544,
      "張": 3545,
      "強": 3546,
      "弹": 3547,
      "强": 3548,
      "弾": 3549,
      "彈": 3550,
      "彌": 3551,
      "当": 3552,
      "录": 3553,
      "彗": 3554,
      "形": 3555,
      "彦": 3556,
      "彩": 3557,
      "彪": 3558,
      "影": 3559,
      "役": 3560,
      "彻": 3561,
      "彼": 3562,
      "征": 3563,
      "径": 3564,
      "待": 3565,
      "很": 3566,
      "律": 3567,
      "後": 3568,
      "徒": 3569,
      "得": 3570,
      "御": 3571,
      "復": 3572,
      "循": 3573,
      "微": 3574,
      "徳": 3575,
      "徴": 3576,
      "德": 3577,
      "徽": 3578,
      "心": 3579,
      "必": 3580,
      "忒": 3581,
      "志": 3582,
      "応": 3583,
      "忠": 3584,
      "快": 3585,
      "念": 3586,
      "忽": 3587,
      "怀": 3588,
      "态": 3589,
      "怖": 3590,
      "思": 3591,
      "急": 3592,
      "性": 3593,
      "怪": 3594,
      "总": 3595,
      "恆": 3596,
      "恋": 3597,
      "恐": 3598,
      "恒": 3599,
      "恩": 3600,
      "恭": 3601,
      "息": 3602,
      "恰": 3603,
      "恺": 3604,
      "悖": 3605,
      "患": 3606,
      "悪": 3607,
      "悯": 3608,
      "情": 3609,
      "惑": 3610,
      "惟": 3611,
      "惠": 3612,
      "惡": 3613,
      "惧": 3614,
      "惯": 3615,
      "想": 3616,
      "意": 3617,
      "愛": 3618,
      "感": 3619,
      "慈": 3620,
      "態": 3621,
      "慌": 3622,
      "慕": 3623,
      "慣": 3624,
      "憲": 3625,
      "憶": 3626,
      "應": 3627,
      "懶": 3628,
      "懷": 3629,
      "戀": 3630,
      "戈": 3631,
      "戊": 3632,
      "戌": 3633,
      "戏": 3634,
      "成": 3635,
      "我": 3636,
      "战": 3637,
      "戦": 3638,
      "截": 3639,
      "戰": 3640,
      "戲": 3641,
      "戴": 3642,
      "戶": 3643,
      "户": 3644,
      "戸": 3645,
      "房": 3646,
      "所": 3647,
      "扉": 3648,
      "手": 3649,
      "才": 3650,
      "扎": 3651,
      "扑": 3652,
      "打": 3653,
      "托": 3654,
      "扩": 3655,
      "扬": 3656,
      "扮": 3657,
      "扰": 3658,
      "扶": 3659,
      "承": 3660,
      "技": 3661,
      "抑": 3662,
      "投": 3663,
      "抗": 3664,
      "折": 3665,
      "抚": 3666,
      "択": 3667,
      "护": 3668,
      "报": 3669,
      "押": 3670,
      "抽": 3671,
      "拉": 3672,
      "拓": 3673,
      "拔": 3674,
      "拖": 3675,
      "拜": 3676,
      "拟": 3677,
      "拡": 3678,
      "括": 3679,
      "拳": 3680,
      "拾": 3681,
      "拿": 3682,
      "持": 3683,
      "指": 3684,
      "挙": 3685,
      "振": 3686,
      "挿": 3687,
      "捌": 3688,
      "捜": 3689,
      "换": 3690,
      "捨": 3691,
      "据": 3692,
      "捷": 3693,
      "捻": 3694,
      "授": 3695,
      "掌": 3696,
      "排": 3697,
      "探": 3698,
      "接": 3699,
      "控": 3700,
      "推": 3701,
      "掲": 3702,
      "描": 3703,
      "提": 3704,
      "插": 3705,
      "揚": 3706,
      "換": 3707,
      "搖": 3708,
      "搜": 3709,
      "搞": 3710,
      "携": 3711,
      "搿": 3712,
      "摂": 3713,
      "摄": 3714,
      "摆": 3715,
      "摩": 3716,
      "撃": 3717,
      "撒": 3718,
      "撞": 3719,
      "播": 3720,
      "擊": 3721,
      "操": 3722,
      "擦": 3723,
      "擬": 3724,
      "攀": 3725,
      "支": 3726,
      "攵": 3727,
      "收": 3728,
      "攻": 3729,
      "放": 3730,
      "政": 3731,
      "故": 3732,
      "效": 3733,
      "敏": 3734,
      "教": 3735,
      "散": 3736,
      "敦": 3737,
      "数": 3738,
      "整": 3739,
      "敷": 3740,
      "數": 3741,
      "文": 3742,
      "斉": 3743,
      "斋": 3744,
      "斎": 3745,
      "斐": 3746,
      "斗": 3747,
      "料": 3748,
      "断": 3749,
      "斯": 3750,
      "新": 3751,
      "斷": 3752,
      "方": 3753,
      "施": 3754,
      "旅": 3755,
      "旋": 3756,
      "族": 3757,
      "旗": 3758,
      "无": 3759,
      "既": 3760,
      "日": 3761,
      "旧": 3762,
      "时": 3763,
      "昂": 3764,
      "昆": 3765,
      "昌": 3766,
      "明": 3767,
      "易": 3768,
      "星": 3769,
      "映": 3770,
      "春": 3771,
      "昧": 3772,
      "昭": 3773,
      "是": 3774,
      "昱": 3775,
      "昴": 3776,
      "显": 3777,
      "時": 3778,
      "晉": 3779,
      "晋": 3780,
      "晓": 3781,
      "普": 3782,
      "景": 3783,
      "晰": 3784,
      "晶": 3785,
      "智": 3786,
      "暑": 3787,
      "暖": 3788,
      "暗": 3789,
      "暦": 3790,
      "暨": 3791,
      "暴": 3792,
      "曆": 3793,
      "曖": 3794,
      "曜": 3795,
      "曲": 3796,
      "更": 3797,
      "書": 3798,
      "曼": 3799,
      "替": 3800,
      "最": 3801,
      "會": 3802,
      "月": 3803,
      "有": 3804,
      "朋": 3805,
      "服": 3806,
      "朗": 3807,
      "望": 3808,
      "朝": 3809,
      "期": 3810,
      "木": 3811,
      "未": 3812,
      "末": 3813,
      "本": 3814,
      "札": 3815,
      "术": 3816,
      "朱": 3817,
      "机": 3818,
      "杀": 3819,
      "杂": 3820,
      "权": 3821,
      "杉": 3822,
      "李": 3823,
      "杏": 3824,
      "村": 3825,
      "杜": 3826,
      "条": 3827,
      "来": 3828,
      "杨": 3829,
      "杭": 3830,
      "杯": 3831,
      "杰": 3832,
      "東": 3833,
      "杼": 3834,
      "松": 3835,
      "板": 3836,
      "极": 3837,
      "构": 3838,
      "析": 3839,
      "林": 3840,
      "果": 3841,
      "枪": 3842,
      "枯": 3843,
      "柏": 3844,
      "柒": 3845,
      "染": 3846,
      "柔": 3847,
      "查": 3848,
      "柬": 3849,
      "柯": 3850,
      "柱": 3851,
      "査": 3852,
      "栄": 3853,
      "标": 3854,
      "树": 3855,
      "栖": 3856,
      "校": 3857,
      "株": 3858,
      "核": 3859,
      "根": 3860,
      "格": 3861,
      "栽": 3862,
      "桂": 3863,
      "桃": 3864,
      "案": 3865,
      "桑": 3866,
      "桓": 3867,
      "档": 3868,
      "桥": 3869,
      "桧": 3870,
      "梁": 3871,
      "梅": 3872,
      "條": 3873,
      "梨": 3874,
      "梯": 3875,
      "械": 3876,
      "梵": 3877,
      "棉": 3878,
      "棋": 3879,
      "棍": 3880,
      "棒": 3881,
      "棕": 3882,
      "棣": 3883,
      "森": 3884,
      "植": 3885,
      "椎": 3886,
      "検": 3887,
      "椭": 3888,
      "楊": 3889,
      "楕": 3890,
      "業": 3891,
      "楯": 3892,
      "極": 3893,
      "楷": 3894,
      "楼": 3895,
      "楽": 3896,
      "概": 3897,
      "榴": 3898,
      "構": 3899,
      "槍": 3900,
      "様": 3901,
      "槤": 3902,
      "樂": 3903,
      "標": 3904,
      "模": 3905,
      "樣": 3906,
      "権": 3907,
      "樹": 3908,
      "橄": 3909,
      "橋": 3910,
      "橘": 3911,
      "機": 3912,
      "橫": 3913,
      "橿": 3914,
      "檀": 3915,
      "檔": 3916,
      "檢": 3917,
      "權": 3918,
      "欖": 3919,
      "欠": 3920,
      "次": 3921,
      "欢": 3922,
      "欧": 3923,
      "欽": 3924,
      "歇": 3925,
      "歌": 3926,
      "歐": 3927,
      "止": 3928,
      "正": 3929,
      "步": 3930,
      "武": 3931,
      "歧": 3932,
      "歩": 3933,
      "歯": 3934,
      "歳": 3935,
      "歴": 3936,
      "歷": 3937,
      "歸": 3938,
      "歹": 3939,
      "死": 3940,
      "殊": 3941,
      "殖": 3942,
      "段": 3943,
      "殷": 3944,
      "殺": 3945,
      "殻": 3946,
      "殼": 3947,
      "殿": 3948,
      "毀": 3949,
      "母": 3950,
      "毒": 3951,
      "比": 3952,
      "毕": 3953,
      "毛": 3954,
      "毫": 3955,
      "氏": 3956,
      "氐": 3957,
      "民": 3958,
      "气": 3959,
      "気": 3960,
      "氘": 3961,
      "氟": 3962,
      "氢": 3963,
      "氣": 3964,
      "氦": 3965,
      "氧": 3966,
      "氨": 3967,
      "氩": 3968,
      "氮": 3969,
      "氯": 3970,
      "氰": 3971,
      "水": 3972,
      "氷": 3973,
      "永": 3974,
      "汀": 3975,
      "汇": 3976,
      "汉": 3977,
      "汏": 3978,
      "汗": 3979,
      "江": 3980,
      "池": 3981,
      "汤": 3982,
      "汴": 3983,
      "汶": 3984,
      "決": 3985,
      "汽": 3986,
      "汾": 3987,
      "沃": 3988,
      "沈": 3989,
      "沉": 3990,
      "沌": 3991,
      "沖": 3992,
      "沙": 3993,
      "沟": 3994,
      "没": 3995,
      "沢": 3996,
      "沱": 3997,
      "河": 3998,
      "沸": 3999,
      "油": 4000,
      "治": 4001,
      "泉": 4002,
      "泊": 4003,
      "泌": 4004,
      "法": 4005,
      "泛": 4006,
      "泡": 4007,
      "波": 4008,
      "泰": 4009,
      "泳": 4010,
      "泽": 4011,
      "洋": 4012,
      "洗": 4013,
      "洛": 4014,
      "洞": 4015,
      "津": 4016,
      "洪": 4017,
      "洲": 4018,
      "活": 4019,
      "派": 4020,
      "流": 4021,
      "浆": 4022,
      "测": 4023,
      "济": 4024,
      "浓": 4025,
      "浙": 4026,
      "浩": 4027,
      "浪": 4028,
      "浮": 4029,
      "海": 4030,
      "浸": 4031,
      "涅": 4032,
      "消": 4033,
      "涉": 4034,
      "涎": 4035,
      "液": 4036,
      "涵": 4037,
      "淀": 4038,
      "淇": 4039,
      "淝": 4040,
      "深": 4041,
      "淳": 4042,
      "淵": 4043,
      "混": 4044,
      "添": 4045,
      "清": 4046,
      "済": 4047,
      "渉": 4048,
      "渐": 4049,
      "減": 4050,
      "温": 4051,
      "測": 4052,
      "港": 4053,
      "游": 4054,
      "渺": 4055,
      "湖": 4056,
      "湘": 4057,
      "湾": 4058,
      "満": 4059,
      "源": 4060,
      "準": 4061,
      "溝": 4062,
      "溫": 4063,
      "溴": 4064,
      "滅": 4065,
      "滋": 4066,
      "滑": 4067,
      "滕": 4068,
      "滤": 4069,
      "滨": 4070,
      "滷": 4071,
      "滿": 4072,
      "漁": 4073,
      "演": 4074,
      "漠": 4075,
      "漢": 4076,
      "漫": 4077,
      "漿": 4078,
      "潔": 4079,
      "潟": 4080,
      "澗": 4081,
      "澤": 4082,
      "澳": 4083,
      "激": 4084,
      "濁": 4085,
      "濃": 4086,
      "濟": 4087,
      "瀉": 4088,
      "瀕": 4089,
      "瀬": 4090,
      "灣": 4091,
      "火": 4092,
      "灭": 4093,
      "灰": 4094,
      "灵": 4095,
      "灸": 4096,
      "炉": 4097,
      "炎": 4098,
      "炒": 4099,
      "炔": 4100,
      "炙": 4101,
      "炭": 4102,
      "炮": 4103,
      "炸": 4104,
      "点": 4105,
      "炼": 4106,
      "烃": 4107,
      "烈": 4108,
      "烏": 4109,
      "烤": 4110,
      "烧": 4111,
      "热": 4112,
      "烯": 4113,
      "烷": 4114,
      "烹": 4115,
      "烽": 4116,
      "焓": 4117,
      "無": 4118,
      "焦": 4119,
      "然": 4120,
      "焼": 4121,
      "煉": 4122,
      "煤": 4123,
      "熈": 4124,
      "熊": 4125,
      "熙": 4126,
      "熱": 4127,
      "熵": 4128,
      "燃": 4129,
      "燈": 4130,
      "燒": 4131,
      "燕": 4132,
      "燭": 4133,
      "爆": 4134,
      "爭": 4135,
      "爱": 4136,
      "爵": 4137,
      "父": 4138,
      "爾": 4139,
      "牆": 4140,
      "片": 4141,
      "版": 4142,
      "牌": 4143,
      "牙": 4144,
      "牛": 4145,
      "牧": 4146,
      "物": 4147,
      "牲": 4148,
      "特": 4149,
      "犠": 4150,
      "犧": 4151,
      "犬": 4152,
      "犯": 4153,
      "状": 4154,
      "犹": 4155,
      "狄": 4156,
      "狐": 4157,
      "独": 4158,
      "狸": 4159,
      "猜": 4160,
      "猩": 4161,
      "猫": 4162,
      "猶": 4163,
      "猿": 4164,
      "獄": 4165,
      "獅": 4166,
      "獎": 4167,
      "獏": 4168,
      "獣": 4169,
      "獨": 4170,
      "率": 4171,
      "玉": 4172,
      "王": 4173,
      "玖": 4174,
      "玛": 4175,
      "环": 4176,
      "现": 4177,
      "玻": 4178,
      "珀": 4179,
      "珊": 4180,
      "珍": 4181,
      "珠": 4182,
      "珥": 4183,
      "珪": 4184,
      "班": 4185,
      "現": 4186,
      "球": 4187,
      "理": 4188,
      "琉": 4189,
      "琛": 4190,
      "琥": 4191,
      "琴": 4192,
      "瑙": 4193,
      "瑚": 4194,
      "瑞": 4195,
      "瑟": 4196,
      "瑤": 4197,
      "瑪": 4198,
      "璃": 4199,
      "璋": 4200,
      "環": 4201,
      "瓜": 4202,
      "瓦": 4203,
      "瓶": 4204,
      "甘": 4205,
      "甙": 4206,
      "甚": 4207,
      "甜": 4208,
      "生": 4209,
      "產": 4210,
      "産": 4211,
      "用": 4212,
      "田": 4213,
      "由": 4214,
      "甲": 4215,
      "申": 4216,
      "电": 4217,
      "男": 4218,
      "甸": 4219,
      "町": 4220,
      "画": 4221,
      "界": 4222,
      "留": 4223,
      "畢": 4224,
      "略": 4225,
      "番": 4226,
      "畫": 4227,
      "異": 4228,
      "畳": 4229,
      "畴": 4230,
      "當": 4231,
      "疆": 4232,
      "疗": 4233,
      "疚": 4234,
      "疣": 4235,
      "疫": 4236,
      "疾": 4237,
      "病": 4238,
      "症": 4239,
      "痘": 4240,
      "痧": 4241,
      "痿": 4242,
      "療": 4243,
      "癌": 4244,
      "癸": 4245,
      "発": 4246,
      "登": 4247,
      "發": 4248,
      "白": 4249,
      "百": 4250,
      "的": 4251,
      "皆": 4252,
      "皇": 4253,
      "皮": 4254,
      "盃": 4255,
      "益": 4256,
      "盎": 4257,
      "盔": 4258,
      "盖": 4259,
      "盘": 4260,
      "盛": 4261,
      "盟": 4262,
      "監": 4263,
      "盤": 4264,
      "盪": 4265,
      "目": 4266,
      "盲": 4267,
      "直": 4268,
      "相": 4269,
      "省": 4270,
      "県": 4271,
      "真": 4272,
      "眠": 4273,
      "着": 4274,
      "督": 4275,
      "知": 4276,
      "石": 4277,
      "码": 4278,
      "砂": 4279,
      "研": 4280,
      "砲": 4281,
      "破": 4282,
      "砷": 4283,
      "砹": 4284,
      "硬": 4285,
      "硼": 4286,
      "碑": 4287,
      "碘": 4288,
      "碧": 4289,
      "碱": 4290,
      "碳": 4291,
      "確": 4292,
      "碼": 4293,
      "磁": 4294,
      "磚": 4295,
      "磨": 4296,
      "磯": 4297,
      "磷": 4298,
      "示": 4299,
      "礼": 4300,
      "社": 4301,
      "祈": 4302,
      "祐": 4303,
      "祖": 4304,
      "祝": 4305,
      "神": 4306,
      "祭": 4307,
      "祷": 4308,
      "禁": 4309,
      "福": 4310,
      "禧": 4311,
      "禮": 4312,
      "禺": 4313,
      "离": 4314,
      "秀": 4315,
      "私": 4316,
      "秋": 4317,
      "种": 4318,
      "科": 4319,
      "秦": 4320,
      "秭": 4321,
      "积": 4322,
      "称": 4323,
      "移": 4324,
      "程": 4325,
      "税": 4326,
      "稚": 4327,
      "種": 4328,
      "稲": 4329,
      "穀": 4330,
      "穂": 4331,
      "穌": 4332,
      "積": 4333,
      "穗": 4334,
      "穰": 4335,
      "穴": 4336,
      "究": 4337,
      "穷": 4338,
      "空": 4339,
      "突": 4340,
      "窒": 4341,
      "窟": 4342,
      "竇": 4343,
      "立": 4344,
      "站": 4345,
      "竜": 4346,
      "竞": 4347,
      "章": 4348,
      "端": 4349,
      "竹": 4350,
      "笃": 4351,
      "笑": 4352,
      "笔": 4353,
      "笛": 4354,
      "笠": 4355,
      "符": 4356,
      "笨": 4357,
      "第": 4358,
      "筆": 4359,
      "等": 4360,
      "筋": 4361,
      "筑": 4362,
      "筒": 4363,
      "筝": 4364,
      "筷": 4365,
      "简": 4366,
      "算": 4367,
      "管": 4368,
      "箭": 4369,
      "箱": 4370,
      "箴": 4371,
      "箸": 4372,
      "節": 4373,
      "篆": 4374,
      "築": 4375,
      "篮": 4376,
      "簡": 4377,
      "簧": 4378,
      "籍": 4379,
      "米": 4380,
      "类": 4381,
      "粉": 4382,
      "粒": 4383,
      "粤": 4384,
      "粥": 4385,
      "粮": 4386,
      "粵": 4387,
      "粹": 4388,
      "粽": 4389,
      "精": 4390,
      "糖": 4391,
      "糞": 4392,
      "糧": 4393,
      "糰": 4394,
      "系": 4395,
      "紀": 4396,
      "約": 4397,
      "紅": 4398,
      "紋": 4399,
      "納": 4400,
      "純": 4401,
      "紙": 4402,
      "級": 4403,
      "素": 4404,
      "索": 4405,
      "紧": 4406,
      "累": 4407,
      "細": 4408,
      "終": 4409,
      "組": 4410,
      "経": 4411,
      "結": 4412,
      "絕": 4413,
      "絞": 4414,
      "統": 4415,
      "絲": 4416,
      "絶": 4417,
      "綏": 4418,
      "經": 4419,
      "継": 4420,
      "続": 4421,
      "綠": 4422,
      "綢": 4423,
      "維": 4424,
      "綱": 4425,
      "綴": 4426,
      "綿": 4427,
      "総": 4428,
      "緑": 4429,
      "緒": 4430,
      "線": 4431,
      "締": 4432,
      "緣": 4433,
      "編": 4434,
      "緯": 4435,
      "縁": 4436,
      "縄": 4437,
      "縣": 4438,
      "縮": 4439,
      "縱": 4440,
      "總": 4441,
      "繁": 4442,
      "繊": 4443,
      "繍": 4444,
      "織": 4445,
      "繚": 4446,
      "繪": 4447,
      "纖": 4448,
      "红": 4449,
      "纤": 4450,
      "约": 4451,
      "级": 4452,
      "纪": 4453,
      "纬": 4454,
      "纯": 4455,
      "纳": 4456,
      "纺": 4457,
      "纽": 4458,
      "线": 4459,
      "组": 4460,
      "细": 4461,
      "织": 4462,
      "终": 4463,
      "经": 4464,
      "结": 4465,
      "络": 4466,
      "绝": 4467,
      "统": 4468,
      "绣": 4469,
      "继": 4470,
      "绪": 4471,
      "续": 4472,
      "维": 4473,
      "综": 4474,
      "绿": 4475,
      "缓": 4476,
      "编": 4477,
      "缩": 4478,
      "缪": 4479,
      "缺": 4480,
      "罐": 4481,
      "网": 4482,
      "罕": 4483,
      "罗": 4484,
      "罪": 4485,
      "置": 4486,
      "罵": 4487,
      "羅": 4488,
      "羊": 4489,
      "美": 4490,
      "群": 4491,
      "羧": 4492,
      "義": 4493,
      "羯": 4494,
      "羽": 4495,
      "翁": 4496,
      "翅": 4497,
      "翰": 4498,
      "翼": 4499,
      "老": 4500,
      "考": 4501,
      "者": 4502,
      "而": 4503,
      "耐": 4504,
      "耕": 4505,
      "耳": 4506,
      "耶": 4507,
      "耷": 4508,
      "联": 4509,
      "聖": 4510,
      "聚": 4511,
      "聞": 4512,
      "聯": 4513,
      "聰": 4514,
      "聲": 4515,
      "職": 4516,
      "聽": 4517,
      "聿": 4518,
      "肃": 4519,
      "肅": 4520,
      "肆": 4521,
      "肇": 4522,
      "肉": 4523,
      "肌": 4524,
      "肖": 4525,
      "肛": 4526,
      "肝": 4527,
      "股": 4528,
      "肢": 4529,
      "肥": 4530,
      "肩": 4531,
      "肪": 4532,
      "肯": 4533,
      "育": 4534,
      "肾": 4535,
      "背": 4536,
      "胎": 4537,
      "胖": 4538,
      "胚": 4539,
      "胞": 4540,
      "胡": 4541,
      "胰": 4542,
      "胸": 4543,
      "胺": 4544,
      "能": 4545,
      "脂": 4546,
      "脇": 4547,
      "脈": 4548,
      "脊": 4549,
      "脑": 4550,
      "脱": 4551,
      "脳": 4552,
      "脷": 4553,
      "腊": 4554,
      "腎": 4555,
      "腓": 4556,
      "腦": 4557,
      "腰": 4558,
      "腳": 4559,
      "腸": 4560,
      "腺": 4561,
      "膏": 4562,
      "膜": 4563,
      "膠": 4564,
      "膽": 4565,
      "臘": 4566,
      "臣": 4567,
      "臥": 4568,
      "臨": 4569,
      "自": 4570,
      "臭": 4571,
      "至": 4572,
      "致": 4573,
      "臺": 4574,
      "與": 4575,
      "興": 4576,
      "舉": 4577,
      "舌": 4578,
      "舞": 4579,
      "航": 4580,
      "般": 4581,
      "舰": 4582,
      "舱": 4583,
      "船": 4584,
      "艦": 4585,
      "艮": 4586,
      "良": 4587,
      "色": 4588,
      "艺": 4589,
      "艾": 4590,
      "节": 4591,
      "芒": 4592,
      "芝": 4593,
      "芦": 4594,
      "芬": 4595,
      "芭": 4596,
      "花": 4597,
      "芳": 4598,
      "芸": 4599,
      "苋": 4600,
      "苏": 4601,
      "苑": 4602,
      "苗": 4603,
      "若": 4604,
      "苯": 4605,
      "英": 4606,
      "苴": 4607,
      "苷": 4608,
      "苹": 4609,
      "苻": 4610,
      "范": 4611,
      "茅": 4612,
      "茨": 4613,
      "茲": 4614,
      "茵": 4615,
      "茶": 4616,
      "草": 4617,
      "荒": 4618,
      "荟": 4619,
      "荣": 4620,
      "荧": 4621,
      "药": 4622,
      "荷": 4623,
      "莉": 4624,
      "莎": 4625,
      "莫": 4626,
      "莱": 4627,
      "莽": 4628,
      "菊": 4629,
      "菌": 4630,
      "菜": 4631,
      "菩": 4632,
      "華": 4633,
      "菲": 4634,
      "萄": 4635,
      "萊": 4636,
      "萎": 4637,
      "营": 4638,
      "萧": 4639,
      "萨": 4640,
      "萬": 4641,
      "落": 4642,
      "葉": 4643,
      "著": 4644,
      "葛": 4645,
      "葡": 4646,
      "葬": 4647,
      "蒂": 4648,
      "蒋": 4649,
      "蒙": 4650,
      "蒲": 4651,
      "蒸": 4652,
      "蓋": 4653,
      "蓑": 4654,
      "蓝": 4655,
      "蓟": 4656,
      "蓬": 4657,
      "蓮": 4658,
      "蔣": 4659,
      "蔥": 4660,
      "薄": 4661,
      "薊": 4662,
      "薛": 4663,
      "薩": 4664,
      "薫": 4665,
      "薬": 4666,
      "藁": 4667,
      "藍": 4668,
      "藏": 4669,
      "藤": 4670,
      "藥": 4671,
      "藻": 4672,
      "蘇": 4673,
      "蘭": 4674,
      "虎": 4675,
      "處": 4676,
      "虛": 4677,
      "號": 4678,
      "虫": 4679,
      "蚁": 4680,
      "蚂": 4681,
      "蚓": 4682,
      "蚟": 4683,
      "蚯": 4684,
      "蛇": 4685,
      "蛋": 4686,
      "蛍": 4687,
      "蛙": 4688,
      "蛛": 4689,
      "蜂": 4690,
      "蜒": 4691,
      "蜘": 4692,
      "蜜": 4693,
      "蜡": 4694,
      "蝌": 4695,
      "蝙": 4696,
      "蝠": 4697,
      "蝦": 4698,
      "蝴": 4699,
      "蝶": 4700,
      "融": 4701,
      "蟄": 4702,
      "蟲": 4703,
      "蠕": 4704,
      "血": 4705,
      "衆": 4706,
      "行": 4707,
      "衍": 4708,
      "術": 4709,
      "衛": 4710,
      "衡": 4711,
      "衣": 4712,
      "表": 4713,
      "衰": 4714,
      "袁": 4715,
      "袍": 4716,
      "被": 4717,
      "裁": 4718,
      "装": 4719,
      "裏": 4720,
      "裔": 4721,
      "裕": 4722,
      "裝": 4723,
      "裡": 4724,
      "裴": 4725,
      "製": 4726,
      "複": 4727,
      "襪": 4728,
      "襲": 4729,
      "西": 4730,
      "要": 4731,
      "見": 4732,
      "規": 4733,
      "視": 4734,
      "覚": 4735,
      "覧": 4736,
      "親": 4737,
      "観": 4738,
      "覺": 4739,
      "觀": 4740,
      "见": 4741,
      "视": 4742,
      "觉": 4743,
      "角": 4744,
      "解": 4745,
      "触": 4746,
      "觸": 4747,
      "言": 4748,
      "訇": 4749,
      "計": 4750,
      "訊": 4751,
      "訓": 4752,
      "託": 4753,
      "記": 4754,
      "訟": 4755,
      "設": 4756,
      "訴": 4757,
      "訶": 4758,
      "診": 4759,
      "証": 4760,
      "詔": 4761,
      "評": 4762,
      "詞": 4763,
      "詩": 4764,
      "話": 4765,
      "該": 4766,
      "詹": 4767,
      "誉": 4768,
      "誌": 4769,
      "認": 4770,
      "誕": 4771,
      "語": 4772,
      "誠": 4773,
      "誤": 4774,
      "說": 4775,
      "説": 4776,
      "読": 4777,
      "調": 4778,
      "請": 4779,
      "論": 4780,
      "諦": 4781,
      "諧": 4782,
      "諸": 4783,
      "諺": 4784,
      "諾": 4785,
      "謀": 4786,
      "謙": 4787,
      "講": 4788,
      "謝": 4789,
      "謠": 4790,
      "證": 4791,
      "識": 4792,
      "譚": 4793,
      "譜": 4794,
      "警": 4795,
      "議": 4796,
      "護": 4797,
      "讀": 4798,
      "變": 4799,
      "计": 4800,
      "认": 4801,
      "让": 4802,
      "议": 4803,
      "记": 4804,
      "讲": 4805,
      "许": 4806,
      "论": 4807,
      "设": 4808,
      "证": 4809,
      "诃": 4810,
      "识": 4811,
      "词": 4812,
      "译": 4813,
      "话": 4814,
      "诞": 4815,
      "该": 4816,
      "语": 4817,
      "说": 4818,
      "请": 4819,
      "诺": 4820,
      "调": 4821,
      "谋": 4822,
      "谍": 4823,
      "谔": 4824,
      "谛": 4825,
      "谟": 4826,
      "谢": 4827,
      "谱": 4828,
      "谷": 4829,
      "豆": 4830,
      "豊": 4831,
      "豚": 4832,
      "象": 4833,
      "豢": 4834,
      "豪": 4835,
      "豬": 4836,
      "豹": 4837,
      "豺": 4838,
      "貓": 4839,
      "貝": 4840,
      "貞": 4841,
      "財": 4842,
      "貨": 4843,
      "貳": 4844,
      "貴": 4845,
      "費": 4846,
      "貿": 4847,
      "資": 4848,
      "賛": 4849,
      "賞": 4850,
      "賢": 4851,
      "質": 4852,
      "賭": 4853,
      "賽": 4854,
      "贛": 4855,
      "贝": 4856,
      "负": 4857,
      "贡": 4858,
      "财": 4859,
      "贤": 4860,
      "质": 4861,
      "贰": 4862,
      "贵": 4863,
      "贸": 4864,
      "费": 4865,
      "贼": 4866,
      "资": 4867,
      "赋": 4868,
      "赌": 4869,
      "赖": 4870,
      "赛": 4871,
      "赣": 4872,
      "赤": 4873,
      "赦": 4874,
      "赫": 4875,
      "走": 4876,
      "赵": 4877,
      "起": 4878,
      "超": 4879,
      "越": 4880,
      "趣": 4881,
      "足": 4882,
      "跃": 4883,
      "跌": 4884,
      "路": 4885,
      "跳": 4886,
      "踏": 4887,
      "蹄": 4888,
      "蹈": 4889,
      "蹦": 4890,
      "身": 4891,
      "車": 4892,
      "軍": 4893,
      "軟": 4894,
      "転": 4895,
      "軽": 4896,
      "載": 4897,
      "輭": 4898,
      "輯": 4899,
      "輸": 4900,
      "輻": 4901,
      "輾": 4902,
      "轉": 4903,
      "轟": 4904,
      "车": 4905,
      "轨": 4906,
      "转": 4907,
      "轮": 4908,
      "软": 4909,
      "轰": 4910,
      "轴": 4911,
      "辅": 4912,
      "辐": 4913,
      "辑": 4914,
      "输": 4915,
      "辖": 4916,
      "辛": 4917,
      "辞": 4918,
      "辟": 4919,
      "辣": 4920,
      "辩": 4921,
      "辭": 4922,
      "辰": 4923,
      "農": 4924,
      "辺": 4925,
      "込": 4926,
      "辽": 4927,
      "达": 4928,
      "过": 4929,
      "迈": 4930,
      "运": 4931,
      "近": 4932,
      "这": 4933,
      "进": 4934,
      "远": 4935,
      "连": 4936,
      "迦": 4937,
      "迪": 4938,
      "述": 4939,
      "迹": 4940,
      "送": 4941,
      "逆": 4942,
      "选": 4943,
      "逊": 4944,
      "逐": 4945,
      "這": 4946,
      "通": 4947,
      "速": 4948,
      "造": 4949,
      "連": 4950,
      "進": 4951,
      "逸": 4952,
      "遊": 4953,
      "運": 4954,
      "過": 4955,
      "道": 4956,
      "達": 4957,
      "遗": 4958,
      "遠": 4959,
      "遣": 4960,
      "適": 4961,
      "遷": 4962,
      "選": 4963,
      "遺": 4964,
      "遼": 4965,
      "避": 4966,
      "邁": 4967,
      "邊": 4968,
      "邏": 4969,
      "邑": 4970,
      "邓": 4971,
      "那": 4972,
      "邦": 4973,
      "邪": 4974,
      "邮": 4975,
      "邱": 4976,
      "郁": 4977,
      "郎": 4978,
      "郑": 4979,
      "郝": 4980,
      "郡": 4981,
      "部": 4982,
      "都": 4983,
      "鄭": 4984,
      "酉": 4985,
      "配": 4986,
      "酒": 4987,
      "酗": 4988,
      "酥": 4989,
      "酪": 4990,
      "酵": 4991,
      "酶": 4992,
      "酸": 4993,
      "醇": 4994,
      "醗": 4995,
      "醚": 4996,
      "醫": 4997,
      "醬": 4998,
      "采": 4999,
      "釈": 5000,
      "里": 5001,
      "重": 5002,
      "野": 5003,
      "量": 5004,
      "釐": 5005,
      "金": 5006,
      "針": 5007,
      "鉄": 5008,
      "鉱": 5009,
      "銀": 5010,
      "銃": 5011,
      "銅": 5012,
      "銘": 5013,
      "鋼": 5014,
      "錐": 5015,
      "錢": 5016,
      "錨": 5017,
      "錬": 5018,
      "錯": 5019,
      "録": 5020,
      "鍛": 5021,
      "鍼": 5022,
      "鎚": 5023,
      "鎮": 5024,
      "鏡": 5025,
      "鐘": 5026,
      "鐵": 5027,
      "鑑": 5028,
      "钆": 5029,
      "针": 5030,
      "钙": 5031,
      "钟": 5032,
      "钡": 5033,
      "钦": 5034,
      "钫": 5035,
      "钬": 5036,
      "钴": 5037,
      "钿": 5038,
      "铁": 5039,
      "铈": 5040,
      "铋": 5041,
      "铍": 5042,
      "铒": 5043,
      "铕": 5044,
      "铜": 5045,
      "铝": 5046,
      "铟": 5047,
      "铪": 5048,
      "铬": 5049,
      "铭": 5050,
      "铯": 5051,
      "铱": 5052,
      "银": 5053,
      "锋": 5054,
      "锎": 5055,
      "锑": 5056,
      "锔": 5057,
      "锕": 5058,
      "锗": 5059,
      "锚": 5060,
      "锡": 5061,
      "锤": 5062,
      "锥": 5063,
      "锫": 5064,
      "键": 5065,
      "锿": 5066,
      "镄": 5067,
      "镅": 5068,
      "镇": 5069,
      "镉": 5070,
      "镓": 5071,
      "镜": 5072,
      "镝": 5073,
      "長": 5074,
      "长": 5075,
      "門": 5076,
      "閉": 5077,
      "開": 5078,
      "閑": 5079,
      "間": 5080,
      "関": 5081,
      "閣": 5082,
      "閩": 5083,
      "閲": 5084,
      "闘": 5085,
      "關": 5086,
      "门": 5087,
      "闪": 5088,
      "问": 5089,
      "间": 5090,
      "闻": 5091,
      "闽": 5092,
      "阉": 5093,
      "阜": 5094,
      "队": 5095,
      "防": 5096,
      "阳": 5097,
      "阴": 5098,
      "阿": 5099,
      "陀": 5100,
      "际": 5101,
      "陆": 5102,
      "降": 5103,
      "限": 5104,
      "陕": 5105,
      "陛": 5106,
      "陝": 5107,
      "院": 5108,
      "除": 5109,
      "险": 5110,
      "陰": 5111,
      "陳": 5112,
      "陵": 5113,
      "陶": 5114,
      "陷": 5115,
      "陸": 5116,
      "険": 5117,
      "陽": 5118,
      "隆": 5119,
      "隈": 5120,
      "隊": 5121,
      "隋": 5122,
      "階": 5123,
      "随": 5124,
      "隐": 5125,
      "隔": 5126,
      "際": 5127,
      "障": 5128,
      "隧": 5129,
      "險": 5130,
      "隷": 5131,
      "隸": 5132,
      "隼": 5133,
      "雀": 5134,
      "雄": 5135,
      "雅": 5136,
      "集": 5137,
      "雌": 5138,
      "雍": 5139,
      "雑": 5140,
      "雕": 5141,
      "雞": 5142,
      "離": 5143,
      "難": 5144,
      "雨": 5145,
      "雪": 5146,
      "雲": 5147,
      "零": 5148,
      "雷": 5149,
      "電": 5150,
      "震": 5151,
      "霊": 5152,
      "霍": 5153,
      "霜": 5154,
      "霰": 5155,
      "露": 5156,
      "霸": 5157,
      "靈": 5158,
      "青": 5159,
      "靖": 5160,
      "静": 5161,
      "非": 5162,
      "面": 5163,
      "革": 5164,
      "鞘": 5165,
      "韃": 5166,
      "韓": 5167,
      "韦": 5168,
      "音": 5169,
      "韻": 5170,
      "響": 5171,
      "項": 5172,
      "頓": 5173,
      "領": 5174,
      "頚": 5175,
      "頡": 5176,
      "頭": 5177,
      "頻": 5178,
      "頼": 5179,
      "題": 5180,
      "額": 5181,
      "顔": 5182,
      "顕": 5183,
      "願": 5184,
      "顛": 5185,
      "類": 5186,
      "顯": 5187,
      "页": 5188,
      "顺": 5189,
      "顿": 5190,
      "颈": 5191,
      "颉": 5192,
      "频": 5193,
      "题": 5194,
      "颜": 5195,
      "颠": 5196,
      "風": 5197,
      "飄": 5198,
      "风": 5199,
      "飛": 5200,
      "飞": 5201,
      "食": 5202,
      "飢": 5203,
      "飯": 5204,
      "飲": 5205,
      "飼": 5206,
      "飽": 5207,
      "餅": 5208,
      "養": 5209,
      "餐": 5210,
      "館": 5211,
      "饅": 5212,
      "饉": 5213,
      "饑": 5214,
      "饥": 5215,
      "饪": 5216,
      "饭": 5217,
      "饮": 5218,
      "饰": 5219,
      "饺": 5220,
      "饿": 5221,
      "馆": 5222,
      "馈": 5223,
      "馏": 5224,
      "馕": 5225,
      "首": 5226,
      "香": 5227,
      "馬": 5228,
      "駆": 5229,
      "駐": 5230,
      "騎": 5231,
      "験": 5232,
      "騰": 5233,
      "驚": 5234,
      "马": 5235,
      "驱": 5236,
      "驼": 5237,
      "骂": 5238,
      "骆": 5239,
      "验": 5240,
      "骑": 5241,
      "骨": 5242,
      "骰": 5243,
      "骼": 5244,
      "髄": 5245,
      "體": 5246,
      "高": 5247,
      "髦": 5248,
      "髭": 5249,
      "髮": 5250,
      "鬥": 5251,
      "鬱": 5252,
      "鬼": 5253,
      "魁": 5254,
      "魏": 5255,
      "魔": 5256,
      "魚": 5257,
      "魯": 5258,
      "鮑": 5259,
      "鯨": 5260,
      "鰓": 5261,
      "鰭": 5262,
      "鱼": 5263,
      "鲁": 5264,
      "鲍": 5265,
      "鲜": 5266,
      "鲸": 5267,
      "鳥": 5268,
      "鴉": 5269,
      "鴻": 5270,
      "鴿": 5271,
      "鵝": 5272,
      "鶏": 5273,
      "鶯": 5274,
      "鷦": 5275,
      "鷯": 5276,
      "鷹": 5277,
      "鸟": 5278,
      "鸠": 5279,
      "鸡": 5280,
      "鸭": 5281,
      "鹃": 5282,
      "鹳": 5283,
      "鹿": 5284,
      "麒": 5285,
      "麟": 5286,
      "麥": 5287,
      "麦": 5288,
      "麻": 5289,
      "麼": 5290,
      "黃": 5291,
      "黄": 5292,
      "黎": 5293,
      "黏": 5294,
      "黑": 5295,
      "黒": 5296,
      "默": 5297,
      "黙": 5298,
      "點": 5299,
      "黨": 5300,
      "鼓": 5301,
      "鼠": 5302,
      "鼻": 5303,
      "齊": 5304,
      "齋": 5305,
      "齐": 5306,
      "齒": 5307,
      "齡": 5308,
      "龍": 5309,
      "龙": 5310,
      "가": 5311,
      "각": 5312,
      "간": 5313,
      "갈": 5314,
      "감": 5315,
      "갑": 5316,
      "값": 5317,
      "강": 5318,
      "개": 5319,
      "객": 5320,
      "갠": 5321,
      "갯": 5322,
      "거": 5323,
      "건": 5324,
      "검": 5325,
      "겁": 5326,
      "것": 5327,
      "겉": 5328,
      "게": 5329,
      "겐": 5330,
      "겔": 5331,
      "겠": 5332,
      "겨": 5333,
      "격": 5334,
      "결": 5335,
      "경": 5336,
      "계": 5337,
      "고": 5338,
      "곡": 5339,
      "곤": 5340,
      "골": 5341,
      "곰": 5342,
      "곱": 5343,
      "공": 5344,
      "과": 5345,
      "관": 5346,
      "괄": 5347,
      "괌": 5348,
      "광": 5349,
      "괴": 5350,
      "교": 5351,
      "구": 5352,
      "국": 5353,
      "군": 5354,
      "굴": 5355,
      "권": 5356,
      "궐": 5357,
      "귀": 5358,
      "귈": 5359,
      "균": 5360,
      "귤": 5361,
      "그": 5362,
      "극": 5363,
      "근": 5364,
      "귿": 5365,
      "글": 5366,
      "금": 5367,
      "급": 5368,
      "기": 5369,
      "긴": 5370,
      "길": 5371,
      "김": 5372,
      "깨": 5373,
      "께": 5374,
      "끓": 5375,
      "끼": 5376,
      "나": 5377,
      "낙": 5378,
      "난": 5379,
      "날": 5380,
      "남": 5381,
      "낭": 5382,
      "낱": 5383,
      "내": 5384,
      "낸": 5385,
      "냉": 5386,
      "냐": 5387,
      "냥": 5388,
      "너": 5389,
      "넌": 5390,
      "널": 5391,
      "넘": 5392,
      "네": 5393,
      "넬": 5394,
      "넷": 5395,
      "년": 5396,
      "념": 5397,
      "녕": 5398,
      "노": 5399,
      "녹": 5400,
      "논": 5401,
      "놀": 5402,
      "놈": 5403,
      "농": 5404,
      "뇌": 5405,
      "뇨": 5406,
      "누": 5407,
      "뉴": 5408,
      "늄": 5409,
      "느": 5410,
      "는": 5411,
      "능": 5412,
      "니": 5413,
      "닉": 5414,
      "닝": 5415,
      "다": 5416,
      "단": 5417,
      "달": 5418,
      "담": 5419,
      "당": 5420,
      "닿": 5421,
      "대": 5422,
      "댕": 5423,
      "더": 5424,
      "덕": 5425,
      "덜": 5426,
      "덤": 5427,
      "덩": 5428,
      "데": 5429,
      "덴": 5430,
      "델": 5431,
      "도": 5432,
      "독": 5433,
      "돈": 5434,
      "돋": 5435,
      "돌": 5436,
      "돔": 5437,
      "동": 5438,
      "되": 5439,
      "된": 5440,
      "두": 5441,
      "둘": 5442,
      "둥": 5443,
      "뒤": 5444,
      "듐": 5445,
      "드": 5446,
      "들": 5447,
      "등": 5448,
      "디": 5449,
      "딘": 5450,
      "딩": 5451,
      "딱": 5452,
      "똥": 5453,
      "라": 5454,
      "락": 5455,
      "란": 5456,
      "랄": 5457,
      "람": 5458,
      "랍": 5459,
      "랏": 5460,
      "랑": 5461,
      "래": 5462,
      "랙": 5463,
      "랜": 5464,
      "램": 5465,
      "랫": 5466,
      "랭": 5467,
      "량": 5468,
      "러": 5469,
      "런": 5470,
      "럴": 5471,
      "럼": 5472,
      "럽": 5473,
      "레": 5474,
      "렉": 5475,
      "렌": 5476,
      "렐": 5477,
      "려": 5478,
      "력": 5479,
      "련": 5480,
      "렬": 5481,
      "령": 5482,
      "례": 5483,
      "로": 5484,
      "록": 5485,
      "론": 5486,
      "롤": 5487,
      "롬": 5488,
      "롭": 5489,
      "뢰": 5490,
      "료": 5491,
      "룡": 5492,
      "루": 5493,
      "룩": 5494,
      "룬": 5495,
      "룰": 5496,
      "룹": 5497,
      "룻": 5498,
      "뤼": 5499,
      "류": 5500,
      "륙": 5501,
      "륨": 5502,
      "르": 5503,
      "른": 5504,
      "를": 5505,
      "름": 5506,
      "리": 5507,
      "릭": 5508,
      "린": 5509,
      "릴": 5510,
      "림": 5511,
      "립": 5512,
      "릿": 5513,
      "링": 5514,
      "마": 5515,
      "막": 5516,
      "만": 5517,
      "말": 5518,
      "맘": 5519,
      "맙": 5520,
      "매": 5521,
      "맥": 5522,
      "맨": 5523,
      "맹": 5524,
      "머": 5525,
      "먼": 5526,
      "메": 5527,
      "멕": 5528,
      "멘": 5529,
      "멜": 5530,
      "멤": 5531,
      "면": 5532,
      "멸": 5533,
      "명": 5534,
      "모": 5535,
      "목": 5536,
      "몬": 5537,
      "몰": 5538,
      "몸": 5539,
      "못": 5540,
      "몽": 5541,
      "무": 5542,
      "묵": 5543,
      "문": 5544,
      "물": 5545,
      "뮈": 5546,
      "뮤": 5547,
      "뮬": 5548,
      "뮴": 5549,
      "믈": 5550,
      "미": 5551,
      "민": 5552,
      "밀": 5553,
      "밍": 5554,
      "및": 5555,
      "바": 5556,
      "박": 5557,
      "반": 5558,
      "받": 5559,
      "발": 5560,
      "밟": 5561,
      "방": 5562,
      "배": 5563,
      "백": 5564,
      "밴": 5565,
      "밸": 5566,
      "뱀": 5567,
      "뱅": 5568,
      "버": 5569,
      "번": 5570,
      "벌": 5571,
      "법": 5572,
      "베": 5573,
      "벤": 5574,
      "벨": 5575,
      "벼": 5576,
      "벽": 5577,
      "변": 5578,
      "별": 5579,
      "병": 5580,
      "보": 5581,
      "복": 5582,
      "본": 5583,
      "볼": 5584,
      "봄": 5585,
      "봉": 5586,
      "부": 5587,
      "북": 5588,
      "분": 5589,
      "불": 5590,
      "붕": 5591,
      "븀": 5592,
      "브": 5593,
      "블": 5594,
      "비": 5595,
      "빅": 5596,
      "빈": 5597,
      "빌": 5598,
      "빙": 5599,
      "빠": 5600,
      "뼈": 5601,
      "사": 5602,
      "삭": 5603,
      "산": 5604,
      "살": 5605,
      "삼": 5606,
      "상": 5607,
      "새": 5608,
      "색": 5609,
      "생": 5610,
      "샤": 5611,
      "샨": 5612,
      "서": 5613,
      "석": 5614,
      "선": 5615,
      "설": 5616,
      "섬": 5617,
      "섭": 5618,
      "섯": 5619,
      "성": 5620,
      "세": 5621,
      "센": 5622,
      "셀": 5623,
      "셈": 5624,
      "셔": 5625,
      "션": 5626,
      "셰": 5627,
      "셸": 5628,
      "소": 5629,
      "속": 5630,
      "손": 5631,
      "송": 5632,
      "쇼": 5633,
      "수": 5634,
      "순": 5635,
      "술": 5636,
      "숫": 5637,
      "쉬": 5638,
      "슈": 5639,
      "슐": 5640,
      "슘": 5641,
      "스": 5642,
      "슨": 5643,
      "슬": 5644,
      "습": 5645,
      "승": 5646,
      "시": 5647,
      "식": 5648,
      "신": 5649,
      "실": 5650,
      "심": 5651,
      "십": 5652,
      "싱": 5653,
      "쌍": 5654,
      "쓰": 5655,
      "씨": 5656,
      "아": 5657,
      "악": 5658,
      "안": 5659,
      "알": 5660,
      "암": 5661,
      "압": 5662,
      "앙": 5663,
      "애": 5664,
      "액": 5665,
      "앤": 5666,
      "앨": 5667,
      "앵": 5668,
      "야": 5669,
      "약": 5670,
      "양": 5671,
      "얘": 5672,
      "어": 5673,
      "억": 5674,
      "언": 5675,
      "얼": 5676,
      "엄": 5677,
      "업": 5678,
      "없": 5679,
      "에": 5680,
      "엑": 5681,
      "엔": 5682,
      "엘": 5683,
      "엠": 5684,
      "엥": 5685,
      "여": 5686,
      "역": 5687,
      "연": 5688,
      "열": 5689,
      "염": 5690,
      "엽": 5691,
      "영": 5692,
      "예": 5693,
      "옐": 5694,
      "옛": 5695,
      "오": 5696,
      "온": 5697,
      "올": 5698,
      "옷": 5699,
      "옹": 5700,
      "와": 5701,
      "완": 5702,
      "왕": 5703,
      "왜": 5704,
      "외": 5705,
      "요": 5706,
      "용": 5707,
      "우": 5708,
      "운": 5709,
      "울": 5710,
      "움": 5711,
      "워": 5712,
      "원": 5713,
      "월": 5714,
      "웨": 5715,
      "웰": 5716,
      "웹": 5717,
      "위": 5718,
      "윈": 5719,
      "윗": 5720,
      "유": 5721,
      "육": 5722,
      "율": 5723,
      "으": 5724,
      "윽": 5725,
      "은": 5726,
      "읃": 5727,
      "을": 5728,
      "음": 5729,
      "읍": 5730,
      "읏": 5731,
      "응": 5732,
      "읒": 5733,
      "읓": 5734,
      "읔": 5735,
      "읕": 5736,
      "읖": 5737,
      "읗": 5738,
      "의": 5739,
      "이": 5740,
      "익": 5741,
      "인": 5742,
      "일": 5743,
      "임": 5744,
      "입": 5745,
      "잇": 5746,
      "잉": 5747,
      "자": 5748,
      "작": 5749,
      "잔": 5750,
      "잠": 5751,
      "장": 5752,
      "재": 5753,
      "잭": 5754,
      "쟁": 5755,
      "저": 5756,
      "적": 5757,
      "전": 5758,
      "절": 5759,
      "점": 5760,
      "접": 5761,
      "젓": 5762,
      "정": 5763,
      "제": 5764,
      "젠": 5765,
      "젤": 5766,
      "조": 5767,
      "족": 5768,
      "존": 5769,
      "종": 5770,
      "좌": 5771,
      "주": 5772,
      "준": 5773,
      "줄": 5774,
      "중": 5775,
      "쥐": 5776,
      "즈": 5777,
      "즘": 5778,
      "증": 5779,
      "지": 5780,
      "직": 5781,
      "진": 5782,
      "질": 5783,
      "집": 5784,
      "징": 5785,
      "째": 5786,
      "쪽": 5787,
      "쯔": 5788,
      "차": 5789,
      "찬": 5790,
      "찰": 5791,
      "창": 5792,
      "채": 5793,
      "처": 5794,
      "척": 5795,
      "천": 5796,
      "철": 5797,
      "첩": 5798,
      "첫": 5799,
      "청": 5800,
      "체": 5801,
      "첸": 5802,
      "첼": 5803,
      "초": 5804,
      "촉": 5805,
      "촘": 5806,
      "총": 5807,
      "추": 5808,
      "축": 5809,
      "출": 5810,
      "춤": 5811,
      "충": 5812,
      "취": 5813,
      "츠": 5814,
      "층": 5815,
      "치": 5816,
      "칙": 5817,
      "친": 5818,
      "칠": 5819,
      "침": 5820,
      "칭": 5821,
      "카": 5822,
      "칵": 5823,
      "칸": 5824,
      "칼": 5825,
      "캐": 5826,
      "캔": 5827,
      "캘": 5828,
      "캣": 5829,
      "커": 5830,
      "컨": 5831,
      "컬": 5832,
      "컴": 5833,
      "컵": 5834,
      "컷": 5835,
      "케": 5836,
      "켄": 5837,
      "켈": 5838,
      "켓": 5839,
      "코": 5840,
      "콕": 5841,
      "콘": 5842,
      "콜": 5843,
      "콧": 5844,
      "콩": 5845,
      "콰": 5846,
      "쾰": 5847,
      "쿠": 5848,
      "쿡": 5849,
      "쿨": 5850,
      "퀴": 5851,
      "퀼": 5852,
      "크": 5853,
      "큰": 5854,
      "클": 5855,
      "키": 5856,
      "킨": 5857,
      "킬": 5858,
      "타": 5859,
      "탄": 5860,
      "탈": 5861,
      "탕": 5862,
      "태": 5863,
      "택": 5864,
      "탤": 5865,
      "탱": 5866,
      "터": 5867,
      "턴": 5868,
      "털": 5869,
      "텀": 5870,
      "테": 5871,
      "텍": 5872,
      "텐": 5873,
      "텔": 5874,
      "토": 5875,
      "톤": 5876,
      "톰": 5877,
      "통": 5878,
      "투": 5879,
      "툴": 5880,
      "툼": 5881,
      "튜": 5882,
      "트": 5883,
      "튼": 5884,
      "틀": 5885,
      "티": 5886,
      "틴": 5887,
      "틸": 5888,
      "팅": 5889,
      "파": 5890,
      "판": 5891,
      "패": 5892,
      "팩": 5893,
      "팬": 5894,
      "팰": 5895,
      "팻": 5896,
      "팽": 5897,
      "퍼": 5898,
      "펌": 5899,
      "펑": 5900,
      "페": 5901,
      "펜": 5902,
      "펠": 5903,
      "편": 5904,
      "평": 5905,
      "폐": 5906,
      "포": 5907,
      "폭": 5908,
      "폰": 5909,
      "폴": 5910,
      "표": 5911,
      "푸": 5912,
      "푼": 5913,
      "풀": 5914,
      "퓨": 5915,
      "퓸": 5916,
      "프": 5917,
      "플": 5918,
      "피": 5919,
      "픽": 5920,
      "핀": 5921,
      "필": 5922,
      "핑": 5923,
      "하": 5924,
      "학": 5925,
      "한": 5926,
      "할": 5927,
      "함": 5928,
      "합": 5929,
      "항": 5930,
      "해": 5931,
      "핵": 5932,
      "핸": 5933,
      "햄": 5934,
      "햇": 5935,
      "행": 5936,
      "향": 5937,
      "허": 5938,
      "헌": 5939,
      "험": 5940,
      "헝": 5941,
      "헤": 5942,
      "헥": 5943,
      "헨": 5944,
      "헬": 5945,
      "헴": 5946,
      "혁": 5947,
      "현": 5948,
      "혈": 5949,
      "협": 5950,
      "형": 5951,
      "혜": 5952,
      "호": 5953,
      "혼": 5954,
      "홀": 5955,
      "홈": 5956,
      "홍": 5957,
      "화": 5958,
      "확": 5959,
      "환": 5960,
      "활": 5961,
      "황": 5962,
      "회": 5963,
      "획": 5964,
      "효": 5965,
      "후": 5966,
      "훈": 5967,
      "훔": 5968,
      "휴": 5969,
      "흄": 5970,
      "흐": 5971,
      "흑": 5972,
      "희": 5973,
      "히": 5974,
      "힌": 5975,
      "힐": 5976,
      "힘": 5977,
      "힙": 5978,
      "": 5979,
      "": 5980,
      "ﷲ": 5981,
      "ﺀ": 5982,
      "ﺃ": 5983,
      "ﺍ": 5984,
      "ﺎ": 5985,
      "ﺏ": 5986,
      "ﺒ": 5987,
      "ﺕ": 5988,
      "ﺙ": 5989,
      "ﺝ": 5990,
      "ﺡ": 5991,
      "ﺥ": 5992,
      "ﺩ": 5993,
      "ﺫ": 5994,
      "ﺭ": 5995,
      "ﺯ": 5996,
      "ﺱ": 5997,
      "ﺵ": 5998,
      "ﺹ": 5999,
      "ﺽ": 6000,
      "ﻁ": 6001,
      "ﻅ": 6002,
      "ﻉ": 6003,
      "ﻋ": 6004,
      "ﻍ": 6005,
      "ﻑ": 6006,
      "ﻕ": 6007,
      "ﻙ": 6008,
      "ﻝ": 6009,
      "ﻡ": 6010,
      "ﻥ": 6011,
      "ﻫ": 6012,
      "ﻭ": 6013,
      "ﻯ": 6014,
      "ﻰ": 6015,
      "ﻱ": 6016,
      "ﻳ": 6017,
      "ﻴ": 6018,
      "﻿": 6019,
      "！": 6020,
      "＇": 6021,
      "（": 6022,
      "）": 6023,
      "，": 6024,
      "－": 6025,
      "１": 6026,
      "２": 6027,
      "３": 6028,
      "４": 6029,
      "５": 6030,
      "；": 6031,
      "＝": 6032,
      "？": 6033,
      "Ｓ": 6034,
      "Ｖ": 6035,
      "Ｗ": 6036,
      "｀": 6037,
      "ｃ": 6038,
      "ｈ": 6039,
      "～": 6040,
      "ｷ": 6041,
      "ﾀ": 6042,
      "ﾟ": 6043,
      "￣": 6044,
      "�": 6045,
      "𐌰": 6046,
      "𐌲": 6047,
      "𐌳": 6048,
      "𐌴": 6049,
      "𐌶": 6050,
      "𐌹": 6051,
      "𐌺": 6052,
      "𐌻": 6053,
      "𐌽": 6054,
      "𐌿": 6055,
      "𐍂": 6056,
      "𐍃": 6057,
      "𐍄": 6058,
      "𐍆": 6059,
      "𨧀": 6060,
      "𨨏": 6061,
      "𨭆": 6062,
      "th": 6063,
      "in": 6064,
      "er": 6065,
      "an": 6066,
      "on": 6067,
      "]]": 6068,
      "[[": 6069,
      "the": 6070,
      "or": 6071,
      "en": 6072,
      "es": 6073,
      "at": 6074,
      "al": 6075,
      "is": 6076,
      "ar": 6077,
      "ed": 6078,
      "of": 6079,
      "''": 6080,
      "ic": 6081,
      "as": 6082,
      "it": 6083,
      "and": 6084,
      "re": 6085,
      "ion": 6086,
      "le": 6087,
      "om": 6088,
      "ing": 6089,
      "to": 6090,
      "ot": 6091,
      "ou": 6092,
      "am": 6093,
      "st": 6094,
      "ent": 6095,
      "qu": 6096,
      "ac": 6097,
      "el": 6098,
      "id": 6099,
      "ol": 6100,
      "he": 6101,
      "il": 6102,
      "quot": 6103,
      "us": 6104,
      "ro": 6105,
      "ch": 6106,
      "im": 6107,
      "==": 6108,
      "ad": 6109,
      "ag": 6110,
      "for": 6111,
      "ter": 6112,
      "]],": 6113,
      "ig": 6114,
      "ation": 6115,
      "ly": 6116,
      "ec": 6117,
      "tr": 6118,
      "ur": 6119,
      "iv": 6120,
      "lt": 6121,
      "et": 6122,
      "</": 6123,
      "The": 6124,
      "con": 6125,
      "19": 6126,
      "ht": 6127,
      "ir": 6128,
      "em": 6129,
      "un": 6130,
      "ut": 6131,
      "com": 6132,
      "ow": 6133,
      "ers": 6134,
      "ce": 6135,
      "ex": 6136,
      "be": 6137,
      "gt": 6138,
      "amp": 6139,
      "wh": 6140,
      "se": 6141,
      "su": 6142,
      "ist": 6143,
      "00": 6144,
      "ab": 6145,
      "de": 6146,
      "est": 6147,
      "op": 6148,
      "ap": 6149,
      "ay": 6150,
      "ith": 6151,
      "ver": 6152,
      "um": 6153,
      "pr": 6154,
      "by": 6155,
      "ate": 6156,
      "'''": 6157,
      "av": 6158,
      "are": 6159,
      "fr": 6160,
      "age": 6161,
      "sp": 6162,
      "was": 6163,
      "that": 6164,
      "all": 6165,
      "with": 6166,
      "ul": 6167,
      "ther": 6168,
      "In": 6169,
      "ww": 6170,
      "od": 6171,
      "ess": 6172,
      "ain": 6173,
      "pl": 6174,
      "]].": 6175,
      "ib": 6176,
      "ct": 6177,
      "pro": 6178,
      "oun": 6179,
      "os": 6180,
      "ies": 6181,
      "if": 6182,
      "ment": 6183,
      "ian": 6184,
      "oc": 6185,
      "art": 6186,
      "ity": 6187,
      "ia": 6188,
      "ame": 6189,
      "his": 6190,
      "ory": 6191,
      "ish": 6192,
      "*[[": 6193,
      "gr": 6194,
      "cl": 6195,
      "ant": 6196,
      "ear": 6197,
      "ip": 6198,
      "ere": 6199,
      "ich": 6200,
      "ical": 6201,
      "ial": 6202,
      "200": 6203,
      "from": 6204,
      "man": 6205,
      "br": 6206,
      "ew": 6207,
      "ill": 6208,
      "ect": 6209,
      "tp": 6210,
      "so": 6211,
      "per": 6212,
      "//": 6213,
      "ive": 6214,
      "http": 6215,
      "://": 6216,
      "Ch": 6217,
      "sh": 6218,
      "ge": 6219,
      "act": 6220,
      "ard": 6221,
      "not": 6222,
      "tim": 6223,
      "og": 6224,
      "ld": 6225,
      "ell": 6226,
      "mo": 6227,
      "ak": 6228,
      "ort": 6229,
      "end": 6230,
      "ight": 6231,
      "str": 6232,
      "ary": 6233,
      "our": 6234,
      "ext": 6235,
      "ine": 6236,
      "ome": 6237,
      "one": 6238,
      "ber": 6239,
      "ord": 6240,
      "which": 6241,
      "ign": 6242,
      "ud": 6243,
      "ang": 6244,
      "ass": 6245,
      "}}": 6246,
      "ev": 6247,
      "ated": 6248,
      "ave": 6249,
      "{{": 6250,
      "bl": 6251,
      "www": 6252,
      "ph": 6253,
      ";/": 6254,
      "ast": 6255,
      "res": 6256,
      "St": 6257,
      "over": 6258,
      "rev": 6259,
      "]])": 6260,
      "===": 6261,
      ";&": 6262,
      "form": 6263,
      "Un": 6264,
      "iz": 6265,
      "out": 6266,
      "du": 6267,
      "comp": 6268,
      "pe": 6269,
      "ous": 6270,
      "rit": 6271,
      "ision": 6272,
      "]]''": 6273,
      "contr": 6274,
      "ure": 6275,
      "ace": 6276,
      "pt": 6277,
      "ence": 6278,
      "oug": 6279,
      "18": 6280,
      "''[[": 6281,
      "te": 6282,
      "bo": 6283,
      "ath": 6284,
      "we": 6285,
      "its": 6286,
      "land": 6287,
      "ore": 6288,
      "ound": 6289,
      "cent": 6290,
      "ong": 6291,
      "ions": 6292,
      "ern": 6293,
      "also": 6294,
      "ks": 6295,
      "An": 6296,
      "ov": 6297,
      "af": 6298,
      "tit": 6299,
      "||": 6300,
      "ik": 6301,
      "wor": 6302,
      "text": 6303,
      "tern": 6304,
      "fer": 6305,
      "erv": 6306,
      "have": 6307,
      "ibut": 6308,
      "mer": 6309,
      "me": 6310,
      "has": 6311,
      "ally": 6312,
      "other": 6313,
      "ans": 6314,
      "title": 6315,
      "pres": 6316,
      "dis": 6317,
      "cr": 6318,
      "ne": 6319,
      "ateg": 6320,
      "Al": 6321,
      "were": 6322,
      "ire": 6323,
      "this": 6324,
      "ach": 6325,
      "own": 6326,
      "part": 6327,
      "ide": 6328,
      "Fr": 6329,
      "co": 6330,
      "can": 6331,
      "ations": 6332,
      "ult": 6333,
      "sy": 6334,
      "ack": 6335,
      "Ar": 6336,
      "ind": 6337,
      "col": 6338,
      "page": 6339,
      "199": 6340,
      "=&": 6341,
      "int": 6342,
      "aw": 6343,
      "Th": 6344,
      "ough": 6345,
      "ie": 6346,
      ")|": 6347,
      "but": 6348,
      "ategory": 6349,
      "use": 6350,
      "able": 6351,
      "ates": 6352,
      "contribut": 6353,
      "ition": 6354,
      "ml": 6355,
      "der": 6356,
      "ics": 6357,
      "ism": 6358,
      "Category": 6359,
      "15": 6360,
      "up": 6361,
      "dr": 6362,
      "po": 6363,
      "En": 6364,
      "revision": 6365,
      "sub": 6366,
      "port": 6367,
      "mon": 6368,
      "ould": 6369,
      "contributor": 6370,
      "ob": 6371,
      "estamp": 6372,
      "timestamp": 6373,
      "10": 6374,
      "ok": 6375,
      "olog": 6376,
      "au": 6377,
      ").": 6378,
      "ely": 6379,
      "ree": 6380,
      "fl": 6381,
      "ens": 6382,
      "org": 6383,
      "their": 6384,
      "ite": 6385,
      "ele": 6386,
      "gen": 6387,
      "pos": 6388,
      "min": 6389,
      "fir": 6390,
      "It": 6391,
      "tw": 6392,
      "|-": 6393,
      "ance": 6394,
      "sc": 6395,
      "ited": 6396,
      "),": 6397,
      "ice": 6398,
      "ever": 6399,
      "ile": 6400,
      "ction": 6401,
      "ue": 6402,
      "ust": 6403,
      "most": 6404,
      "used": 6405,
      "ict": 6406,
      "had": 6407,
      "Con": 6408,
      "ater": 6409,
      "sup": 6410,
      "ash": 6411,
      "ational": 6412,
      "who": 6413,
      "comment": 6414,
      "lin": 6415,
      "--": 6416,
      "ces": 6417,
      "ra": 6418,
      "pu": 6419,
      "angu": 6420,
      "bec": 6421,
      "more": 6422,
      "gl": 6423,
      "year": 6424,
      "rel": 6425,
      "ond": 6426,
      "Com": 6427,
      "att": 6428,
      "ied": 6429,
      "first": 6430,
      "ican": 6431,
      "12": 6432,
      "([[": 6433,
      "some": 6434,
      "He": 6435,
      "Amer": 6436,
      "ase": 6437,
      "des": 6438,
      "cont": 6439,
      "oll": 6440,
      "ff": 6441,
      "17": 6442,
      "arr": 6443,
      "any": 6444,
      "les": 6445,
      "Re": 6446,
      "been": 6447,
      "many": 6448,
      "ty": 6449,
      ";#": 6450,
      "io": 6451,
      "no": 6452,
      "ee": 6453,
      "langu": 6454,
      "ma": 6455,
      "ents": 6456,
      "coun": 6457,
      "ername": 6458,
      "username": 6459,
      "16": 6460,
      "ten": 6461,
      "such": 6462,
      "hy": 6463,
      "right": 6464,
      "kn": 6465,
      "20": 6466,
      "Pr": 6467,
      "This": 6468,
      "cess": 6469,
      "igh": 6470,
      "ors": 6471,
      "198": 6472,
      "stem": 6473,
      "publ": 6474,
      "old": 6475,
      "play": 6476,
      "they": 6477,
      "incl": 6478,
      "ular": 6479,
      "ivers": 6480,
      "reg": 6481,
      "Im": 6482,
      "cre": 6483,
      "14": 6484,
      "ug": 6485,
      "ual": 6486,
      "arg": 6487,
      "ced": 6488,
      "them": 6489,
      "do": 6490,
      "ade": 6491,
      "ood": 6492,
      "into": 6493,
      "eral": 6494,
      "umb": 6495,
      "than": 6496,
      "main": 6497,
      "'',": 6498,
      "vel": 6499,
      "*[": 6500,
      "inter": 6501,
      "ark": 6502,
      "fin": 6503,
      "space": 6504,
      "cons": 6505,
      "ious": 6506,
      "off": 6507,
      "two": 6508,
      "United": 6509,
      "time": 6510,
      "align": 6511,
      "air": 6512,
      "ings": 6513,
      "13": 6514,
      "new": 6515,
      "pol": 6516,
      "ail": 6517,
      "par": 6518,
      "197": 6519,
      "work": 6520,
      "way": 6521,
      "**": 6522,
      "td": 6523,
      "Is": 6524,
      "As": 6525,
      "bet": 6526,
      "her": 6527,
      "uc": 6528,
      "math": 6529,
      "ject": 6530,
      "ese": 6531,
      "reat": 6532,
      "only": 6533,
      "system": 6534,
      "language": 6535,
      "cy": 6536,
      "ific": 6537,
      "erve": 6538,
      "mod": 6539,
      "arch": 6540,
      "ose": 6541,
      "ah": 6542,
      "cur": 6543,
      "American": 6544,
      "ost": 6545,
      "row": 6546,
      "ative": 6547,
      "New": 6548,
      "For": 6549,
      "ology": 6550,
      "25": 6551,
      "dash": 6552,
      "ret": 6553,
      "call": 6554,
      "there": 6555,
      "ters": 6556,
      "uring": 6557,
      "ke": 6558,
      "ys": 6559,
      "produ": 6560,
      "II": 6561,
      "mov": 6562,
      "red": 6563,
      "ann": 6564,
      "Image": 6565,
      "after": 6566,
      "pop": 6567,
      "ts": 6568,
      "under": 6569,
      "prov": 6570,
      "ons": 6571,
      "html": 6572,
      "fe": 6573,
      "ople": 6574,
      "istory": 6575,
      "may": 6576,
      "would": 6577,
      "try": 6578,
      "Ger": 6579,
      "num": 6580,
      "ix": 6581,
      "Ex": 6582,
      "sm": 6583,
      "uro": 6584,
      "Wh": 6585,
      "fil": 6586,
      "eng": 6587,
      "ities": 6588,
      "oup": 6589,
      "med": 6590,
      "app": 6591,
      "ient": 6592,
      "iet": 6593,
      "ick": 6594,
      "vers": 6595,
      "]]&": 6596,
      "rec": 6597,
      "Chr": 6598,
      "comm": 6599,
      "eld": 6600,
      "ower": 6601,
      "dif": 6602,
      "overn": 6603,
      "ms": 6604,
      "ier": 6605,
      "dec": 6606,
      "ake": 6607,
      "ember": 6608,
      "ident": 6609,
      "oh": 6610,
      "preserve": 6611,
      "iss": 6612,
      "ution": 6613,
      "196": 6614,
      "xml": 6615,
      "ween": 6616,
      "ful": 6617,
      "ft": 6618,
      "when": 6619,
      "ub": 6620,
      "Sp": 6621,
      "ists": 6622,
      "=\"": 6623,
      "\">": 6624,
      "owever": 6625,
      "Tr": 6626,
      "day": 6627,
      "grap": 6628,
      "ins": 6629,
      "Brit": 6630,
      "known": 6631,
      "Br": 6632,
      "ica": 6633,
      "ased": 6634,
      "fore": 6635,
      "about": 6636,
      "tain": 6637,
      "]]</": 6638,
      ";[[": 6639,
      "between": 6640,
      "11": 6641,
      "set": 6642,
      "ages": 6643,
      "ually": 6644,
      "ince": 6645,
      "rough": 6646,
      "includ": 6647,
      "spec": 6648,
      "ton": 6649,
      "States": 6650,
      "small": 6651,
      "02": 6652,
      "nb": 6653,
      "oy": 6654,
      "where": 6655,
      "ible": 6656,
      "vi": 6657,
      "ike": 6658,
      "ury": 6659,
      "writ": 6660,
      "ating": 6661,
      "ca": 6662,
      "years": 6663,
      "high": 6664,
      "urn": 6665,
      "bel": 6666,
      "De": 6667,
      "Euro": 6668,
      "though": 6669,
      "sim": 6670,
      "ale": 6671,
      "dom": 6672,
      "uss": 6673,
      "serv": 6674,
      "03": 6675,
      "name": 6676,
      "px": 6677,
      "ement": 6678,
      "2006": 6679,
      "center": 6680,
      "ames": 6681,
      "2005": 6682,
      "ref": 6683,
      "cept": 6684,
      "leg": 6685,
      "called": 6686,
      "then": 6687,
      "these": 6688,
      "ium": 6689,
      "nbsp": 6690,
      "Col": 6691,
      "him": 6692,
      "glish": 6693,
      "let": 6694,
      "sec": 6695,
      "Cl": 6696,
      "Le": 6697,
      "people": 6698,
      "ser": 6699,
      "ball": 6700,
      "ry": 6701,
      "char": 6702,
      "public": 6703,
      "var": 6704,
      "ily": 6705,
      "als": 6706,
      "ank": 6707,
      "add": 6708,
      "number": 6709,
      "will": 6710,
      "ures": 6711,
      "left": 6712,
      "top": 6713,
      "well": 6714,
      "mus": 6715,
      "Sh": 6716,
      "Gr": 6717,
      "my": 6718,
      "ple": 6719,
      "anc": 6720,
      "English": 6721,
      "ife": 6722,
      "000": 6723,
      "ise": 6724,
      "thumb": 6725,
      "cap": 6726,
      "gram": 6727,
      "Europe": 6728,
      "group": 6729,
      "order": 6730,
      "az": 6731,
      "irect": 6732,
      "Sc": 6733,
      "inv": 6734,
      "elf": 6735,
      "see": 6736,
      "ship": 6737,
      "Bo": 6738,
      "Univers": 6739,
      "uch": 6740,
      "Christ": 6741,
      "led": 6742,
      "through": 6743,
      "overnment": 6744,
      "world": 6745,
      "ically": 6746,
      "inn": 6747,
      "often": 6748,
      "Joh": 6749,
      "point": 6750,
      "Pro": 6751,
      "outh": 6752,
      ";,": 6753,
      "ax": 6754,
      "jp": 6755,
      "son": 6756,
      "Or": 6757,
      "net": 6758,
      "Wor": 6759,
      ".&": 6760,
      "pers": 6761,
      "ider": 6762,
      "differ": 6763,
      "emb": 6764,
      "30": 6765,
      "trans": 6766,
      "orn": 6767,
      "found": 6768,
      "fi": 6769,
      "ollow": 6770,
      "ward": 6771,
      "Ind": 6772,
      "fun": 6773,
      "requ": 6774,
      "194": 6775,
      "line": 6776,
      "ep": 6777,
      "Au": 6778,
      "sk": 6779,
      "24": 6780,
      "jpg": 6781,
      "ted": 6782,
      "At": 6783,
      "Nor": 6784,
      "back": 6785,
      "ature": 6786,
      "ros": 6787,
      "fact": 6788,
      "ished": 6789,
      "Ge": 6790,
      "War": 6791,
      "iam": 6792,
      "velop": 6793,
      "refer": 6794,
      "Ad": 6795,
      "fam": 6796,
      "now": 6797,
      "195": 6798,
      "develop": 6799,
      "onom": 6800,
      "stru": 6801,
      "being": 6802,
      "war": 6803,
      "sl": 6804,
      "ians": 6805,
      "igin": 6806,
      "23": 6807,
      "dep": 6808,
      "ural": 6809,
      "soc": 6810,
      "ve": 6811,
      "stit": 6812,
      "urch": 6813,
      "John": 6814,
      "cer": 6815,
      "present": 6816,
      "ru": 6817,
      "sty": 6818,
      "ock": 6819,
      "made": 6820,
      "ime": 6821,
      "cho": 6822,
      "stand": 6823,
      "examp": 6824,
      ";.": 6825,
      "nor": 6826,
      "British": 6827,
      "inc": 6828,
      "read": 6829,
      "On": 6830,
      "ild": 6831,
      "lar": 6832,
      "oman": 6833,
      "fo": 6834,
      "class": 6835,
      "iev": 6836,
      "again": 6837,
      "ble": 6838,
      "press": 6839,
      "ized": 6840,
      "22": 6841,
      "Bl": 6842,
      "Mar": 6843,
      "RE": 6844,
      "word": 6845,
      "ote": 6846,
      "ause": 6847,
      "ina": 6848,
      "Em": 6849,
      "''.": 6850,
      "common": 6851,
      "bu": 6852,
      "por": 6853,
      "less": 6854,
      "che": 6855,
      "ange": 6856,
      "state": 6857,
      "University": 6858,
      "Se": 6859,
      "follow": 6860,
      "chn": 6861,
      "sur": 6862,
      "century": 6863,
      "IS": 6864,
      "like": 6865,
      "ives": 6866,
      "King": 6867,
      "ternal": 6868,
      "both": 6869,
      "go": 6870,
      "during": 6871,
      "peri": 6872,
      "early": 6873,
      "lo": 6874,
      "government": 6875,
      "ulation": 6876,
      "See": 6877,
      "ench": 6878,
      "ctr": 6879,
      "ize": 6880,
      "lex": 6881,
      "origin": 6882,
      "ont": 6883,
      "ude": 6884,
      "sign": 6885,
      "eff": 6886,
      "ility": 6887,
      "beg": 6888,
      "very": 6889,
      "law": 6890,
      "German": 6891,
      "film": 6892,
      "even": 6893,
      "long": 6894,
      "lit": 6895,
      "uk": 6896,
      "style": 6897,
      "icle": 6898,
      "Car": 6899,
      "Can": 6900,
      "ially": 6901,
      "oper": 6902,
      "jor": 6903,
      "hum": 6904,
      "ndash": 6905,
      "28": 6906,
      "Gu": 6907,
      "World": 6908,
      "loc": 6909,
      "polit": 6910,
      "music": 6911,
      "ences": 6912,
      "gy": 6913,
      "same": 6914,
      "resp": 6915,
      "els": 6916,
      "unt": 6917,
      "charac": 6918,
      "26": 6919,
      "ital": 6920,
      "ouse": 6921,
      "atic": 6922,
      "sol": 6923,
      "lead": 6924,
      "htm": 6925,
      "contin": 6926,
      "example": 6927,
      "IP": 6928,
      "consider": 6929,
      "power": 6930,
      "car": 6931,
      "yn": 6932,
      "50": 6933,
      "lect": 6934,
      "la": 6935,
      "2004": 6936,
      "US": 6937,
      "stud": 6938,
      "Austr": 6939,
      "sing": 6940,
      "color": 6941,
      "ene": 6942,
      "later": 6943,
      "oth": 6944,
      "each": 6945,
      "suc": 6946,
      "27": 6947,
      "Ph": 6948,
      "including": 6949,
      "List": 6950,
      "disc": 6951,
      "minor": 6952,
      "program": 6953,
      "ments": 6954,
      "equ": 6955,
      "40": 6956,
      "while": 6957,
      "aim": 6958,
      "|[[": 6959,
      "sever": 6960,
      "French": 6961,
      "thor": 6962,
      "iqu": 6963,
      "There": 6964,
      "links": 6965,
      "]]'": 6966,
      "ternational": 6967,
      "cell": 6968,
      "However": 6969,
      "mark": 6970,
      "BC": 6971,
      "div": 6972,
      ":''": 6973,
      "cle": 6974,
      "partic": 6975,
      "ently": 6976,
      "gu": 6977,
      "ional": 6978,
      "depend": 6979,
      "gener": 6980,
      "three": 6981,
      "ator": 6982,
      "Pe": 6983,
      "lands": 6984,
      "organ": 6985,
      "became": 6986,
      "0s": 6987,
      "ox": 6988,
      "val": 6989,
      "exp": 6990,
      "result": 6991,
      "formation": 6992,
      "poss": 6993,
      "book": 6994,
      "Be": 6995,
      "view": 6996,
      "Pol": 6997,
      "ius": 6998,
      "before": 6999,
      "different": 7000,
      "cor": 7001,
      "History": 7002,
      "bre": 7003,
      ";''": 7004,
      "193": 7005,
      "met": 7006,
      "*''[[": 7007,
      "curr": 7008,
      "ilit": 7009,
      "bert": 7010,
      "ste": 7011,
      "(''": 7012,
      "Gen": 7013,
      "city": 7014,
      "term": 7015,
      "ience": 7016,
      "commun": 7017,
      "ants": 7018,
      "29": 7019,
      "Coun": 7020,
      "box": 7021,
      "ived": 7022,
      "Af": 7023,
      "ization": 7024,
      "trad": 7025,
      "king": 7026,
      "what": 7027,
      "ought": 7028,
      "Am": 7029,
      "because": 7030,
      "appear": 7031,
      "put": 7032,
      "life": 7033,
      "larg": 7034,
      "major": 7035,
      "21": 7036,
      "design": 7037,
      "istor": 7038,
      "]]'',": 7039,
      "Ed": 7040,
      "direct": 7041,
      "much": 7042,
      "..": 7043,
      "fa": 7044,
      "could": 7045,
      "version": 7046,
      "person": 7047,
      "El": 7048,
      "game": 7049,
      "iver": 7050,
      "Ap": 7051,
      "enn": 7052,
      "history": 7053,
      "pre": 7054,
      "cult": 7055,
      "crip": 7056,
      "imes": 7057,
      "Eng": 7058,
      "]]:": 7059,
      "compu": 7060,
      "ason": 7061,
      "Roman": 7062,
      "ting": 7063,
      "struct": 7064,
      "aking": 7065,
      "econom": 7066,
      "ief": 7067,
      "mat": 7068,
      "Cal": 7069,
      "ane": 7070,
      "ral": 7071,
      "using": 7072,
      "second": 7073,
      "based": 7074,
      "Pl": 7075,
      "success": 7076,
      "ata": 7077,
      "ley": 7078,
      "non": 7079,
      "several": 7080,
      "against": 7081,
      "ck": 7082,
      "Ir": 7083,
      "import": 7084,
      "Comm": 7085,
      "since": 7086,
      "bro": 7087,
      "di": 7088,
      "God": 7089,
      "ices": 7090,
      "Cent": 7091,
      "flu": 7092,
      "dist": 7093,
      "large": 7094,
      "2002": 7095,
      "last": 7096,
      "01": 7097,
      "rad": 7098,
      "those": 7099,
      "Char": 7100,
      "author": 7101,
      "death": 7102,
      "tal": 7103,
      "wid": 7104,
      "aid": 7105,
      "vent": 7106,
      "ja": 7107,
      "show": 7108,
      "thod": 7109,
      "uary": 7110,
      "field": 7111,
      "allow": 7112,
      "iation": 7113,
      "graph": 7114,
      "acc": 7115,
      "Ac": 7116,
      "mdash": 7117,
      "Ro": 7118,
      "dem": 7119,
      "process": 7120,
      "tle": 7121,
      "Par": 7122,
      "Pres": 7123,
      "rop": 7124,
      "chool": 7125,
      "esp": 7126,
      "90": 7127,
      "electr": 7128,
      "plic": 7129,
      "ae": 7130,
      "head": 7131,
      "cour": 7132,
      "ove": 7133,
      "ense": 7134,
      "hand": 7135,
      "side": 7136,
      "remain": 7137,
      "ency": 7138,
      "Afr": 7139,
      "effect": 7140,
      "olution": 7141,
      "techn": 7142,
      "2003": 7143,
      "popular": 7144,
      "claim": 7145,
      "plac": 7146,
      "Some": 7147,
      "ross": 7148,
      "ases": 7149,
      "Her": 7150,
      "ively": 7151,
      "cal": 7152,
      "lim": 7153,
      "ars": 7154,
      "Christian": 7155,
      "''&": 7156,
      "iction": 7157,
      "/>": 7158,
      "start": 7159,
      "pass": 7160,
      ";|": 7161,
      "Ab": 7162,
      "IPA": 7163,
      "Co": 7164,
      "ories": 7165,
      ":'''": 7166,
      "character": 7167,
      "External": 7168,
      "edia": 7169,
      "gh": 7170,
      "ger": 7171,
      "Ear": 7172,
      "run": 7173,
      "BN": 7174,
      "men": 7175,
      "ground": 7176,
      "Ele": 7177,
      "National": 7178,
      "series": 7179,
      "still": 7180,
      "iven": 7181,
      "vir": 7182,
      "stat": 7183,
      "apan": 7184,
      "cript": 7185,
      "graphy": 7186,
      "four": 7187,
      "country": 7188,
      "Fl": 7189,
      "Canad": 7190,
      "thern": 7191,
      "real": 7192,
      "und": 7193,
      "80": 7194,
      "usually": 7195,
      "ection": 7196,
      "ister": 7197,
      "defin": 7198,
      "down": 7199,
      "ird": 7200,
      "yl": 7201,
      "ork": 7202,
      "Man": 7203,
      "modern": 7204,
      "iety": 7205,
      "spe": 7206,
      "icial": 7207,
      "ilitary": 7208,
      "gre": 7209,
      "itions": 7210,
      "record": 7211,
      "ended": 7212,
      "]]),": 7213,
      "support": 7214,
      "human": 7215,
      "Japan": 7216,
      "iving": 7217,
      "article": 7218,
      "ified": 7219,
      "amb": 7220,
      "key": 7221,
      "indu": 7222,
      "did": 7223,
      "ilar": 7224,
      "rele": 7225,
      "European": 7226,
      ")]]": 7227,
      "action": 7228,
      "Ital": 7229,
      "place": 7230,
      "ines": 7231,
      "All": 7232,
      "Russ": 7233,
      "ute": 7234,
      "vis": 7235,
      "ior": 7236,
      "'''[[": 7237,
      "ided": 7238,
      "nam": 7239,
      "until": 7240,
      "DI": 7241,
      "oks": 7242,
      "36": 7243,
      "incre": 7244,
      "ilos": 7245,
      "great": 7246,
      "ument": 7247,
      "Dr": 7248,
      "omet": 7249,
      "35": 7250,
      "embers": 7251,
      "/&": 7252,
      "mill": 7253,
      "self": 7254,
      "area": 7255,
      "ets": 7256,
      "====": 7257,
      "Ne": 7258,
      "include": 7259,
      "computer": 7260,
      "Austral": 7261,
      "Dec": 7262,
      "theory": 7263,
      "hav": 7264,
      "ilosop": 7265,
      "ably": 7266,
      "ming": 7267,
      "nl": 7268,
      "ai": 7269,
      "however": 7270,
      "ones": 7271,
      "Gree": 7272,
      "Dis": 7273,
      "list": 7274,
      "ISBN": 7275,
      "We": 7276,
      "]]).": 7277,
      "population": 7278,
      "uses": 7279,
      "Part": 7280,
      "tem": 7281,
      "ues": 7282,
      "And": 7283,
      "hel": 7284,
      "abl": 7285,
      "period": 7286,
      "Will": 7287,
      "she": 7288,
      "Dav": 7289,
      "general": 7290,
      "aff": 7291,
      "elect": 7292,
      "ways": 7293,
      "miss": 7294,
      "They": 7295,
      "phys": 7296,
      ".)": 7297,
      "omin": 7298,
      "ody": 7299,
      "'')": 7300,
      "South": 7301,
      "ony": 7302,
      "sport": 7303,
      "ivil": 7304,
      "aut": 7305,
      "level": 7306,
      "England": 7307,
      "04": 7308,
      "bs": 7309,
      "aft": 7310,
      "exist": 7311,
      "York": 7312,
      "tries": 7313,
      "typ": 7314,
      "37": 7315,
      "ired": 7316,
      "une": 7317,
      "ster": 7318,
      "da": 7319,
      "team": 7320,
      "water": 7321,
      "particular": 7322,
      "Ber": 7323,
      "Gre": 7324,
      "bi": 7325,
      "These": 7326,
      "den": 7327,
      "TD": 7328,
      "bg": 7329,
      "position": 7330,
      "ness": 7331,
      "edu": 7332,
      "ised": 7333,
      "stant": 7334,
      "attle": 7335,
      "foot": 7336,
      "pat": 7337,
      "bin": 7338,
      "expl": 7339,
      "light": 7340,
      "around": 7341,
      "bas": 7342,
      "99": 7343,
      "relig": 7344,
      "tribut": 7345,
      "ven": 7346,
      "ung": 7347,
      "ately": 7348,
      "Church": 7349,
      "Jew": 7350,
      "sv": 7351,
      "just": 7352,
      "2000": 7353,
      "def": 7354,
      "nat": 7355,
      "mar": 7356,
      "har": 7357,
      "ards": 7358,
      "code": 7359,
      "Bar": 7360,
      "prev": 7361,
      "does": 7362,
      "ological": 7363,
      "home": 7364,
      "mag": 7365,
      "political": 7366,
      "sequ": 7367,
      "estern": 7368,
      "members": 7369,
      "acy": 7370,
      "considered": 7371,
      "sum": 7372,
      "open": 7373,
      "contain": 7374,
      "important": 7375,
      "CT": 7376,
      "national": 7377,
      "2001": 7378,
      "North": 7379,
      "sour": 7380,
      "oss": 7381,
      "earch": 7382,
      "His": 7383,
      "05": 7384,
      "ocr": 7385,
      "ling": 7386,
      "ability": 7387,
      "France": 7388,
      "ink": 7389,
      "issu": 7390,
      "Sy": 7391,
      "Greek": 7392,
      "45": 7393,
      "tow": 7394,
      "feat": 7395,
      "empt": 7396,
      "ometimes": 7397,
      "aster": 7398,
      "akes": 7399,
      "ott": 7400,
      "similar": 7401,
      "pract": 7402,
      "within": 7403,
      "bur": 7404,
      "ected": 7405,
      "38": 7406,
      "sym": 7407,
      "cir": 7408,
      "band": 7409,
      "Aug": 7410,
      "short": 7411,
      "=[[": 7412,
      "times": 7413,
      "tic": 7414,
      "itional": 7415,
      "Germany": 7416,
      "among": 7417,
      "vision": 7418,
      "olv": 7419,
      "appro": 7420,
      ".]]": 7421,
      "univers": 7422,
      "mean": 7423,
      "Hol": 7424,
      "every": 7425,
      "you": 7426,
      "One": 7427,
      "Me": 7428,
      "histor": 7429,
      "influ": 7430,
      "Cr": 7431,
      "case": 7432,
      "crit": 7433,
      "make": 7434,
      "International": 7435,
      "ides": 7436,
      "should": 7437,
      "ner": 7438,
      "Fe": 7439,
      "thing": 7440,
      "omen": 7441,
      "NA": 7442,
      "establ": 7443,
      "bit": 7444,
      "cop": 7445,
      "mal": 7446,
      "another": 7447,
      "due": 7448,
      "ured": 7449,
      "languages": 7450,
      "lib": 7451,
      ".,": 7452,
      "By": 7453,
      "Min": 7454,
      "Kingdom": 7455,
      "]]'''": 7456,
      "ague": 7457,
      "ze": 7458,
      "adv": 7459,
      "ither": 7460,
      "47": 7461,
      "chang": 7462,
      "aul": 7463,
      "hal": 7464,
      "West": 7465,
      "ban": 7466,
      "pire": 7467,
      "ths": 7468,
      "given": 7469,
      "proble": 7470,
      "After": 7471,
      "ival": 7472,
      "err": 7473,
      "ays": 7474,
      "believ": 7475,
      "ped": 7476,
      "ler": 7477,
      "descr": 7478,
      "48": 7479,
      "Air": 7480,
      "player": 7481,
      "ots": 7482,
      "vol": 7483,
      "ality": 7484,
      "Te": 7485,
      "without": 7486,
      "istic": 7487,
      "08": 7488,
      "log": 7489,
      "although": 7490,
      "countries": 7491,
      "alth": 7492,
      "*''": 7493,
      "far": 7494,
      "continu": 7495,
      "ison": 7496,
      "orge": 7497,
      ";)": 7498,
      "Ma": 7499,
      "hold": 7500,
      "get": 7501,
      "information": 7502,
      "ats": 7503,
      "Dem": 7504,
      "August": 7505,
      "note": 7506,
      "ording": 7507,
      "few": 7508,
      "100": 7509,
      "change": 7510,
      "rem": 7511,
      "sch": 7512,
      "icult": 7513,
      "46": 7514,
      "free": 7515,
      "tra": 7516,
      "sometimes": 7517,
      "Wik": 7518,
      "95": 7519,
      "Sec": 7520,
      "ander": 7521,
      "occ": 7522,
      "doc": 7523,
      "#[[": 7524,
      "lege": 7525,
      "hol": 7526,
      "prof": 7527,
      "represent": 7528,
      "rown": 7529,
      "ches": 7530,
      "following": 7531,
      "function": 7532,
      "President": 7533,
      "posed": 7534,
      "ford": 7535,
      "onic": 7536,
      "cil": 7537,
      "must": 7538,
      ":&": 7539,
      "06": 7540,
      "33": 7541,
      "ng": 7542,
      "ivid": 7543,
      "William": 7544,
      "anim": 7545,
      "det": 7546,
      "product": 7547,
      "stitution": 7548,
      "rul": 7549,
      "need": 7550,
      "Republic": 7551,
      "To": 7552,
      "Sw": 7553,
      "control": 7554,
      "David": 7555,
      "formed": 7556,
      "become": 7557,
      "philosop": 7558,
      "works": 7559,
      "object": 7560,
      "proper": 7561,
      "pur": 7562,
      "Alex": 7563,
      "school": 7564,
      "zh": 7565,
      "family": 7566,
      "rodu": 7567,
      "America": 7568,
      "May": 7569,
      "idd": 7570,
      "span": 7571,
      "written": 7572,
      "ances": 7573,
      "gress": 7574,
      ",&": 7575,
      "Mo": 7576,
      "tele": 7577,
      "cu": 7578,
      "rael": 7579,
      "Union": 7580,
      "George": 7581,
      "military": 7582,
      "possible": 7583,
      "East": 7584,
      "km": 7585,
      "image": 7586,
      "urther": 7587,
      "cul": 7588,
      "Cor": 7589,
      "hard": 7590,
      "original": 7591,
      "When": 7592,
      "body": 7593,
      "lab": 7594,
      "various": 7595,
      "Jan": 7596,
      "prot": 7597,
      "Sch": 7598,
      "certain": 7599,
      "Mon": 7600,
      "ask": 7601,
      "Nov": 7602,
      "RECT": 7603,
      "idge": 7604,
      "DIRECT": 7605,
      "groups": 7606,
      "aud": 7607,
      "lear": 7608,
      "REDIRECT": 7609,
      "96": 7610,
      "rece": 7611,
      "bus": 7612,
      "face": 7613,
      "low": 7614,
      "ividual": 7615,
      "ests": 7616,
      "Qu": 7617,
      "come": 7618,
      "Other": 7619,
      "carr": 7620,
      "ert": 7621,
      "anal": 7622,
      "Mus": 7623,
      "forms": 7624,
      "gg": 7625,
      "systems": 7626,
      "1999": 7627,
      "oftw": 7628,
      "]];": 7629,
      "del": 7630,
      "ondon": 7631,
      "mis": 7632,
      "asp": 7633,
      "mult": 7634,
      "began": 7635,
      "oftware": 7636,
      "anish": 7637,
      "07": 7638,
      "prim": 7639,
      "single": 7640,
      "good": 7641,
      "base": 7642,
      "born": 7643,
      "ham": 7644,
      "olic": 7645,
      "Arab": 7646,
      "31": 7647,
      "]]-": 7648,
      "uck": 7649,
      "others": 7650,
      "science": 7651,
      "town": 7652,
      "states": 7653,
      "If": 7654,
      "London": 7655,
      "ique": 7656,
      "data": 7657,
      "jo": 7658,
      "Cap": 7659,
      "City": 7660,
      "build": 7661,
      "\">#": 7662,
      "generally": 7663,
      "eas": 7664,
      "former": 7665,
      "turn": 7666,
      "Lat": 7667,
      "0px": 7668,
      "Many": 7669,
      "ification": 7670,
      "return": 7671,
      "rest": 7672,
      "attempt": 7673,
      "SI": 7674,
      "Act": 7675,
      "ends": 7676,
      "itch": 7677,
      "ana": 7678,
      "Er": 7679,
      "Cath": 7680,
      "Ag": 7681,
      "Israel": 7682,
      "ental": 7683,
      "65": 7684,
      "97": 7685,
      "million": 7686,
      "hu": 7687,
      "itive": 7688,
      "event": 7689,
      "news": 7690,
      "li": 7691,
      "ogn": 7692,
      "official": 7693,
      "mit": 7694,
      "CC": 7695,
      "Per": 7696,
      "Ser": 7697,
      "Soc": 7698,
      "85": 7699,
      "individual": 7700,
      "mathem": 7701,
      "aps": 7702,
      "how": 7703,
      "win": 7704,
      "ery": 7705,
      "ply": 7706,
      "Party": 7707,
      "method": 7708,
      "know": 7709,
      "ves": 7710,
      "Hen": 7711,
      "ales": 7712,
      "compos": 7713,
      "ta": 7714,
      "hip": 7715,
      "ps": 7716,
      "idence": 7717,
      "Charles": 7718,
      "independ": 7719,
      "trict": 7720,
      "strong": 7721,
      "Bel": 7722,
      "gov": 7723,
      "post": 7724,
      "ergy": 7725,
      "General": 7726,
      "near": 7727,
      "games": 7728,
      "(&": 7729,
      "'''&": 7730,
      "late": 7731,
      "nia": 7732,
      "lam": 7733,
      "industr": 7734,
      "dam": 7735,
      "Mac": 7736,
      "nov": 7737,
      "--&": 7738,
      "engine": 7739,
      "rather": 7740,
      "named": 7741,
      "Lib": 7742,
      "Har": 7743,
      "ential": 7744,
      "75": 7745,
      "published": 7746,
      "Ju": 7747,
      "43": 7748,
      "bar": 7749,
      "iness": 7750,
      "wik": 7751,
      ";!": 7752,
      "bir": 7753,
      "acks": 7754,
      "pen": 7755,
      "eder": 7756,
      "type": 7757,
      "fac": 7758,
      "along": 7759,
      "either": 7760,
      "conn": 7761,
      "alb": 7762,
      "ri": 7763,
      "kill": 7764,
      "introdu": 7765,
      "House": 7766,
      "ained": 7767,
      "ON": 7768,
      "tt": 7769,
      "peror": 7770,
      "ago": 7771,
      "dev": 7772,
      "development": 7773,
      "cover": 7774,
      "held": 7775,
      "ensive": 7776,
      ";!--": 7777,
      "Fin": 7778,
      "ush": 7779,
      "Port": 7780,
      "take": 7781,
      "omb": 7782,
      "aterial": 7783,
      "Gl": 7784,
      "report": 7785,
      "1998": 7786,
      "thus": 7787,
      "''',": 7788,
      "developed": 7789,
      "mot": 7790,
      "social": 7791,
      "Great": 7792,
      "alk": 7793,
      "ari": 7794,
      "means": 7795,
      "ects": 7796,
      "bgcolor": 7797,
      "que": 7798,
      "State": 7799,
      "Oc": 7800,
      "aken": 7801,
      "reed": 7802,
      "mass": 7803,
      "ning": 7804,
      "here": 7805,
      "98": 7806,
      "border": 7807,
      "ico": 7808,
      "na": 7809,
      "role": 7810,
      "edit": 7811,
      "standard": 7812,
      "42": 7813,
      "wr": 7814,
      "force": 7815,
      "].": 7816,
      "Cy": 7817,
      "iated": 7818,
      "road": 7819,
      "separ": 7820,
      "ying": 7821,
      "Canada": 7822,
      "cast": 7823,
      "size": 7824,
      "said": 7825,
      "],": 7826,
      "concept": 7827,
      "sure": 7828,
      "gar": 7829,
      "termin": 7830,
      "grow": 7831,
      "sit": 7832,
      "ey": 7833,
      "wards": 7834,
      "inese": 7835,
      "story": 7836,
      "ubl": 7837,
      "never": 7838,
      "words": 7839,
      "recent": 7840,
      "special": 7841,
      "hor": 7842,
      "tru": 7843,
      "ildr": 7844,
      "December": 7845,
      "liter": 7846,
      "flag": 7847,
      "bor": 7848,
      "oto": 7849,
      "access": 7850,
      "natural": 7851,
      "ourn": 7852,
      "Empire": 7853,
      "frequ": 7854,
      "uel": 7855,
      "Rev": 7856,
      "describ": 7857,
      "scient": 7858,
      "66": 7859,
      "Res": 7860,
      "minis": 7861,
      "ope": 7862,
      "song": 7863,
      "imate": 7864,
      "inning": 7865,
      "ildren": 7866,
      "]]''.": 7867,
      "**[[": 7868,
      "took": 7869,
      "house": 7870,
      "espec": 7871,
      "bol": 7872,
      "activ": 7873,
      "Commun": 7874,
      "ilt": 7875,
      "arm": 7876,
      "College": 7877,
      "Indian": 7878,
      "exual": 7879,
      "especially": 7880,
      "ged": 7881,
      "quest": 7882,
      "fall": 7883,
      "subject": 7884,
      "09": 7885,
      "----": 7886,
      "liam": 7887,
      "avy": 7888,
      "party": 7889,
      "January": 7890,
      "material": 7891,
      "enc": 7892,
      "Inter": 7893,
      "index": 7894,
      "49": 7895,
      "oot": 7896,
      "32": 7897,
      "png": 7898,
      "Chinese": 7899,
      "James": 7900,
      "count": 7901,
      "above": 7902,
      "research": 7903,
      "Mich": 7904,
      "UK": 7905,
      "assoc": 7906,
      "occur": 7907,
      "ole": 7908,
      "local": 7909,
      "ull": 7910,
      "Pal": 7911,
      "ather": 7912,
      "civil": 7913,
      "capital": 7914,
      "cs": 7915,
      "sound": 7916,
      "Su": 7917,
      "ering": 7918,
      "aint": 7919,
      "Comp": 7920,
      "Ant": 7921,
      "liament": 7922,
      "clos": 7923,
      "syn": 7924,
      "seen": 7925,
      "plan": 7926,
      "date": 7927,
      "church": 7928,
      "India": 7929,
      "pi": 7930,
      "placed": 7931,
      "lat": 7932,
      "avail": 7933,
      "Int": 7934,
      "wood": 7935,
      "accept": 7936,
      "igr": 7937,
      "empl": 7938,
      "sw": 7939,
      "meas": 7940,
      "China": 7941,
      "current": 7942,
      "iddle": 7943,
      "find": 7944,
      "ested": 7945,
      "Frank": 7946,
      "spir": 7947,
      "eth": 7948,
      "played": 7949,
      "involv": 7950,
      "ered": 7951,
      "stead": 7952,
      "region": 7953,
      "best": 7954,
      "Red": 7955,
      "itself": 7956,
      "Apr": 7957,
      "inst": 7958,
      "Paul": 7959,
      "ece": 7960,
      "cond": 7961,
      "ama": 7962,
      "Mor": 7963,
      "sel": 7964,
      "gypt": 7965,
      "ron": 7966,
      "craft": 7967,
      "fem": 7968,
      "March": 7969,
      "Sov": 7970,
      "round": 7971,
      "treat": 7972,
      "1997": 7973,
      "86": 7974,
      "prom": 7975,
      "roy": 7976,
      "atom": 7977,
      "regard": 7978,
      "Soviet": 7979,
      "books": 7980,
      "Fir": 7981,
      "ij": 7982,
      "width": 7983,
      "Africa": 7984,
      "Cam": 7985,
      "mem": 7986,
      "39": 7987,
      "ength": 7988,
      "Catholic": 7989,
      "Most": 7990,
      "Go": 7991,
      "came": 7992,
      "ising": 7993,
      "lete": 7994,
      "umbers": 7995,
      "camp": 7996,
      "Mod": 7997,
      "Australia": 7998,
      "famous": 7999
    },
    "merges": [
      [
        "t",
        "h"
      ],
      [
        "i",
        "n"
      ],
      [
        "e",
        "r"
      ],
      [
        "a",
        "n"
      ],
      [
        "o",
        "n"
      ],
      [
        "]",
        "]"
      ],
      [
        "[",
        "["
      ],
      [
        "th",
        "e"
      ],
      [
        "o",
        "r"
      ],
      [
        "e",
        "n"
      ],
      [
        "e",
        "s"
      ],
      [
        "a",
        "t"
      ],
      [
        "a",
        "l"
      ],
      [
        "i",
        "s"
      ],
      [
        "a",
        "r"
      ],
      [
        "e",
        "d"
      ],
      [
        "o",
        "f"
      ],
      [
        "'",
        "'"
      ],
      [
        "i",
        "c"
      ],
      [
        "a",
        "s"
      ],
      [
        "i",
        "t"
      ],
      [
        "an",
        "d"
      ],
      [
        "r",
        "e"
      ],
      [
        "i",
        "on"
      ],
      [
        "l",
        "e"
      ],
      [
        "o",
        "m"
      ],
      [
        "in",
        "g"
      ],
      [
        "t",
        "o"
      ],
      [
        "o",
        "t"
      ],
      [
        "o",
        "u"
      ],
      [
        "a",
        "m"
      ],
      [
        "s",
        "t"
      ],
      [
        "en",
        "t"
      ],
      [
        "q",
        "u"
      ],
      [
        "a",
        "c"
      ],
      [
        "e",
        "l"
      ],
      [
        "i",
        "d"
      ],
      [
        "o",
        "l"
      ],
      [
        "h",
        "e"
      ],
      [
        "i",
        "l"
      ],
      [
        "qu",
        "ot"
      ],
      [
        "u",
        "s"
      ],
      [
        "r",
        "o"
      ],
      [
        "c",
        "h"
      ],
      [
        "i",
        "m"
      ],
      [
        "=",
        "="
      ],
      [
        "a",
        "d"
      ],
      [
        "a",
        "g"
      ],
      [
        "f",
        "or"
      ],
      [
        "t",
        "er"
      ],
      [
        "]]",
        ","
      ],
      [
        "i",
        "g"
      ],
      [
        "at",
        "ion"
      ],
      [
        "l",
        "y"
      ],
      [
        "e",
        "c"
      ],
      [
        "t",
        "r"
      ],
      [
        "u",
        "r"
      ],
      [
        "i",
        "v"
      ],
      [
        "l",
        "t"
      ],
      [
        "e",
        "t"
      ],
      [
        "<",
        "/"
      ],
      [
        "T",
        "he"
      ],
      [
        "c",
        "on"
      ],
      [
        "1",
        "9"
      ],
      [
        "h",
        "t"
      ],
      [
        "i",
        "r"
      ],
      [
        "e",
        "m"
      ],
      [
        "u",
        "n"
      ],
      [
        "u",
        "t"
      ],
      [
        "c",
        "om"
      ],
      [
        "o",
        "w"
      ],
      [
        "er",
        "s"
      ],
      [
        "c",
        "e"
      ],
      [
        "e",
        "x"
      ],
      [
        "b",
        "e"
      ],
      [
        "g",
        "t"
      ],
      [
        "am",
        "p"
      ],
      [
        "w",
        "h"
      ],
      [
        "s",
        "e"
      ],
      [
        "s",
        "u"
      ],
      [
        "is",
        "t"
      ],
      [
        "0",
        "0"
      ],
      [
        "a",
        "b"
      ],
      [
        "d",
        "e"
      ],
      [
        "es",
        "t"
      ],
      [
        "o",
        "p"
      ],
      [
        "a",
        "p"
      ],
      [
        "a",
        "y"
      ],
      [
        "i",
        "th"
      ],
      [
        "v",
        "er"
      ],
      [
        "u",
        "m"
      ],
      [
        "p",
        "r"
      ],
      [
        "b",
        "y"
      ],
      [
        "at",
        "e"
      ],
      [
        "''",
        "'"
      ],
      [
        "a",
        "v"
      ],
      [
        "ar",
        "e"
      ],
      [
        "f",
        "r"
      ],
      [
        "ag",
        "e"
      ],
      [
        "s",
        "p"
      ],
      [
        "w",
        "as"
      ],
      [
        "th",
        "at"
      ],
      [
        "al",
        "l"
      ],
      [
        "w",
        "ith"
      ],
      [
        "u",
        "l"
      ],
      [
        "th",
        "er"
      ],
      [
        "I",
        "n"
      ],
      [
        "w",
        "w"
      ],
      [
        "o",
        "d"
      ],
      [
        "es",
        "s"
      ],
      [
        "a",
        "in"
      ],
      [
        "p",
        "l"
      ],
      [
        "]]",
        "."
      ],
      [
        "i",
        "b"
      ],
      [
        "c",
        "t"
      ],
      [
        "p",
        "ro"
      ],
      [
        "ou",
        "n"
      ],
      [
        "o",
        "s"
      ],
      [
        "i",
        "es"
      ],
      [
        "i",
        "f"
      ],
      [
        "m",
        "ent"
      ],
      [
        "i",
        "an"
      ],
      [
        "o",
        "c"
      ],
      [
        "ar",
        "t"
      ],
      [
        "it",
        "y"
      ],
      [
        "i",
        "a"
      ],
      [
        "am",
        "e"
      ],
      [
        "h",
        "is"
      ],
      [
        "or",
        "y"
      ],
      [
        "is",
        "h"
      ],
      [
        "*",
        "[["
      ],
      [
        "g",
        "r"
      ],
      [
        "c",
        "l"
      ],
      [
        "an",
        "t"
      ],
      [
        "e",
        "ar"
      ],
      [
        "i",
        "p"
      ],
      [
        "er",
        "e"
      ],
      [
        "ic",
        "h"
      ],
      [
        "ic",
        "al"
      ],
      [
        "i",
        "al"
      ],
      [
        "2",
        "00"
      ],
      [
        "fr",
        "om"
      ],
      [
        "m",
        "an"
      ],
      [
        "b",
        "r"
      ],
      [
        "e",
        "w"
      ],
      [
        "il",
        "l"
      ],
      [
        "ec",
        "t"
      ],
      [
        "t",
        "p"
      ],
      [
        "s",
        "o"
      ],
      [
        "p",
        "er"
      ],
      [
        "/",
        "/"
      ],
      [
        "iv",
        "e"
      ],
      [
        "ht",
        "tp"
      ],
      [
        ":",
        "//"
      ],
      [
        "C",
        "h"
      ],
      [
        "s",
        "h"
      ],
      [
        "g",
        "e"
      ],
      [
        "ac",
        "t"
      ],
      [
        "ar",
        "d"
      ],
      [
        "n",
        "ot"
      ],
      [
        "t",
        "im"
      ],
      [
        "o",
        "g"
      ],
      [
        "l",
        "d"
      ],
      [
        "el",
        "l"
      ],
      [
        "m",
        "o"
      ],
      [
        "a",
        "k"
      ],
      [
        "or",
        "t"
      ],
      [
        "en",
        "d"
      ],
      [
        "ig",
        "ht"
      ],
      [
        "st",
        "r"
      ],
      [
        "ar",
        "y"
      ],
      [
        "ou",
        "r"
      ],
      [
        "ex",
        "t"
      ],
      [
        "in",
        "e"
      ],
      [
        "om",
        "e"
      ],
      [
        "on",
        "e"
      ],
      [
        "b",
        "er"
      ],
      [
        "or",
        "d"
      ],
      [
        "wh",
        "ich"
      ],
      [
        "ig",
        "n"
      ],
      [
        "u",
        "d"
      ],
      [
        "an",
        "g"
      ],
      [
        "as",
        "s"
      ],
      [
        "}",
        "}"
      ],
      [
        "e",
        "v"
      ],
      [
        "at",
        "ed"
      ],
      [
        "av",
        "e"
      ],
      [
        "{",
        "{"
      ],
      [
        "b",
        "l"
      ],
      [
        "ww",
        "w"
      ],
      [
        "p",
        "h"
      ],
      [
        ";",
        "/"
      ],
      [
        "as",
        "t"
      ],
      [
        "r",
        "es"
      ],
      [
        "S",
        "t"
      ],
      [
        "o",
        "ver"
      ],
      [
        "re",
        "v"
      ],
      [
        "]]",
        ")"
      ],
      [
        "==",
        "="
      ],
      [
        ";",
        "&"
      ],
      [
        "for",
        "m"
      ],
      [
        "U",
        "n"
      ],
      [
        "i",
        "z"
      ],
      [
        "ou",
        "t"
      ],
      [
        "d",
        "u"
      ],
      [
        "com",
        "p"
      ],
      [
        "p",
        "e"
      ],
      [
        "ou",
        "s"
      ],
      [
        "r",
        "it"
      ],
      [
        "is",
        "ion"
      ],
      [
        "]]",
        "''"
      ],
      [
        "con",
        "tr"
      ],
      [
        "u",
        "re"
      ],
      [
        "ac",
        "e"
      ],
      [
        "p",
        "t"
      ],
      [
        "en",
        "ce"
      ],
      [
        "ou",
        "g"
      ],
      [
        "1",
        "8"
      ],
      [
        "''",
        "[["
      ],
      [
        "t",
        "e"
      ],
      [
        "b",
        "o"
      ],
      [
        "a",
        "th"
      ],
      [
        "w",
        "e"
      ],
      [
        "it",
        "s"
      ],
      [
        "l",
        "and"
      ],
      [
        "or",
        "e"
      ],
      [
        "oun",
        "d"
      ],
      [
        "c",
        "ent"
      ],
      [
        "on",
        "g"
      ],
      [
        "ion",
        "s"
      ],
      [
        "er",
        "n"
      ],
      [
        "al",
        "so"
      ],
      [
        "k",
        "s"
      ],
      [
        "A",
        "n"
      ],
      [
        "o",
        "v"
      ],
      [
        "a",
        "f"
      ],
      [
        "t",
        "it"
      ],
      [
        "|",
        "|"
      ],
      [
        "i",
        "k"
      ],
      [
        "w",
        "or"
      ],
      [
        "t",
        "ext"
      ],
      [
        "ter",
        "n"
      ],
      [
        "f",
        "er"
      ],
      [
        "er",
        "v"
      ],
      [
        "h",
        "ave"
      ],
      [
        "ib",
        "ut"
      ],
      [
        "m",
        "er"
      ],
      [
        "m",
        "e"
      ],
      [
        "h",
        "as"
      ],
      [
        "al",
        "ly"
      ],
      [
        "o",
        "ther"
      ],
      [
        "an",
        "s"
      ],
      [
        "tit",
        "le"
      ],
      [
        "pr",
        "es"
      ],
      [
        "d",
        "is"
      ],
      [
        "c",
        "r"
      ],
      [
        "n",
        "e"
      ],
      [
        "ate",
        "g"
      ],
      [
        "A",
        "l"
      ],
      [
        "w",
        "ere"
      ],
      [
        "i",
        "re"
      ],
      [
        "th",
        "is"
      ],
      [
        "ac",
        "h"
      ],
      [
        "ow",
        "n"
      ],
      [
        "p",
        "art"
      ],
      [
        "id",
        "e"
      ],
      [
        "F",
        "r"
      ],
      [
        "c",
        "o"
      ],
      [
        "c",
        "an"
      ],
      [
        "ation",
        "s"
      ],
      [
        "u",
        "lt"
      ],
      [
        "s",
        "y"
      ],
      [
        "ac",
        "k"
      ],
      [
        "A",
        "r"
      ],
      [
        "in",
        "d"
      ],
      [
        "c",
        "ol"
      ],
      [
        "p",
        "age"
      ],
      [
        "19",
        "9"
      ],
      [
        "=",
        "&"
      ],
      [
        "in",
        "t"
      ],
      [
        "a",
        "w"
      ],
      [
        "T",
        "h"
      ],
      [
        "oug",
        "h"
      ],
      [
        "i",
        "e"
      ],
      [
        ")",
        "|"
      ],
      [
        "b",
        "ut"
      ],
      [
        "ateg",
        "ory"
      ],
      [
        "us",
        "e"
      ],
      [
        "ab",
        "le"
      ],
      [
        "at",
        "es"
      ],
      [
        "contr",
        "ibut"
      ],
      [
        "it",
        "ion"
      ],
      [
        "m",
        "l"
      ],
      [
        "d",
        "er"
      ],
      [
        "ic",
        "s"
      ],
      [
        "is",
        "m"
      ],
      [
        "C",
        "ategory"
      ],
      [
        "1",
        "5"
      ],
      [
        "u",
        "p"
      ],
      [
        "d",
        "r"
      ],
      [
        "p",
        "o"
      ],
      [
        "E",
        "n"
      ],
      [
        "rev",
        "ision"
      ],
      [
        "su",
        "b"
      ],
      [
        "p",
        "ort"
      ],
      [
        "m",
        "on"
      ],
      [
        "ou",
        "ld"
      ],
      [
        "contribut",
        "or"
      ],
      [
        "o",
        "b"
      ],
      [
        "est",
        "amp"
      ],
      [
        "tim",
        "estamp"
      ],
      [
        "1",
        "0"
      ],
      [
        "o",
        "k"
      ],
      [
        "ol",
        "og"
      ],
      [
        "a",
        "u"
      ],
      [
        ")",
        "."
      ],
      [
        "el",
        "y"
      ],
      [
        "re",
        "e"
      ],
      [
        "f",
        "l"
      ],
      [
        "en",
        "s"
      ],
      [
        "or",
        "g"
      ],
      [
        "the",
        "ir"
      ],
      [
        "it",
        "e"
      ],
      [
        "e",
        "le"
      ],
      [
        "g",
        "en"
      ],
      [
        "p",
        "os"
      ],
      [
        "m",
        "in"
      ],
      [
        "f",
        "ir"
      ],
      [
        "I",
        "t"
      ],
      [
        "t",
        "w"
      ],
      [
        "|",
        "-"
      ],
      [
        "an",
        "ce"
      ],
      [
        "s",
        "c"
      ],
      [
        "it",
        "ed"
      ],
      [
        ")",
        ","
      ],
      [
        "ic",
        "e"
      ],
      [
        "e",
        "ver"
      ],
      [
        "i",
        "le"
      ],
      [
        "ct",
        "ion"
      ],
      [
        "u",
        "e"
      ],
      [
        "u",
        "st"
      ],
      [
        "mo",
        "st"
      ],
      [
        "us",
        "ed"
      ],
      [
        "ic",
        "t"
      ],
      [
        "h",
        "ad"
      ],
      [
        "C",
        "on"
      ],
      [
        "at",
        "er"
      ],
      [
        "su",
        "p"
      ],
      [
        "as",
        "h"
      ],
      [
        "ation",
        "al"
      ],
      [
        "wh",
        "o"
      ],
      [
        "com",
        "ment"
      ],
      [
        "l",
        "in"
      ],
      [
        "-",
        "-"
      ],
      [
        "c",
        "es"
      ],
      [
        "r",
        "a"
      ],
      [
        "p",
        "u"
      ],
      [
        "ang",
        "u"
      ],
      [
        "b",
        "ec"
      ],
      [
        "m",
        "ore"
      ],
      [
        "g",
        "l"
      ],
      [
        "y",
        "ear"
      ],
      [
        "re",
        "l"
      ],
      [
        "on",
        "d"
      ],
      [
        "C",
        "om"
      ],
      [
        "at",
        "t"
      ],
      [
        "i",
        "ed"
      ],
      [
        "fir",
        "st"
      ],
      [
        "ic",
        "an"
      ],
      [
        "1",
        "2"
      ],
      [
        "(",
        "[["
      ],
      [
        "s",
        "ome"
      ],
      [
        "H",
        "e"
      ],
      [
        "A",
        "mer"
      ],
      [
        "as",
        "e"
      ],
      [
        "d",
        "es"
      ],
      [
        "con",
        "t"
      ],
      [
        "ol",
        "l"
      ],
      [
        "f",
        "f"
      ],
      [
        "1",
        "7"
      ],
      [
        "ar",
        "r"
      ],
      [
        "an",
        "y"
      ],
      [
        "l",
        "es"
      ],
      [
        "R",
        "e"
      ],
      [
        "be",
        "en"
      ],
      [
        "man",
        "y"
      ],
      [
        "t",
        "y"
      ],
      [
        ";",
        "#"
      ],
      [
        "i",
        "o"
      ],
      [
        "n",
        "o"
      ],
      [
        "e",
        "e"
      ],
      [
        "l",
        "angu"
      ],
      [
        "m",
        "a"
      ],
      [
        "ent",
        "s"
      ],
      [
        "c",
        "oun"
      ],
      [
        "ern",
        "ame"
      ],
      [
        "us",
        "ername"
      ],
      [
        "1",
        "6"
      ],
      [
        "t",
        "en"
      ],
      [
        "su",
        "ch"
      ],
      [
        "h",
        "y"
      ],
      [
        "r",
        "ight"
      ],
      [
        "k",
        "n"
      ],
      [
        "2",
        "0"
      ],
      [
        "P",
        "r"
      ],
      [
        "T",
        "his"
      ],
      [
        "c",
        "ess"
      ],
      [
        "ig",
        "h"
      ],
      [
        "or",
        "s"
      ],
      [
        "19",
        "8"
      ],
      [
        "st",
        "em"
      ],
      [
        "pu",
        "bl"
      ],
      [
        "ol",
        "d"
      ],
      [
        "pl",
        "ay"
      ],
      [
        "the",
        "y"
      ],
      [
        "in",
        "cl"
      ],
      [
        "ul",
        "ar"
      ],
      [
        "iv",
        "ers"
      ],
      [
        "re",
        "g"
      ],
      [
        "I",
        "m"
      ],
      [
        "c",
        "re"
      ],
      [
        "1",
        "4"
      ],
      [
        "u",
        "g"
      ],
      [
        "u",
        "al"
      ],
      [
        "ar",
        "g"
      ],
      [
        "c",
        "ed"
      ],
      [
        "the",
        "m"
      ],
      [
        "d",
        "o"
      ],
      [
        "ad",
        "e"
      ],
      [
        "o",
        "od"
      ],
      [
        "in",
        "to"
      ],
      [
        "er",
        "al"
      ],
      [
        "um",
        "b"
      ],
      [
        "th",
        "an"
      ],
      [
        "m",
        "ain"
      ],
      [
        "''",
        ","
      ],
      [
        "v",
        "el"
      ],
      [
        "*",
        "["
      ],
      [
        "in",
        "ter"
      ],
      [
        "ar",
        "k"
      ],
      [
        "f",
        "in"
      ],
      [
        "sp",
        "ace"
      ],
      [
        "con",
        "s"
      ],
      [
        "i",
        "ous"
      ],
      [
        "of",
        "f"
      ],
      [
        "tw",
        "o"
      ],
      [
        "Un",
        "ited"
      ],
      [
        "tim",
        "e"
      ],
      [
        "al",
        "ign"
      ],
      [
        "a",
        "ir"
      ],
      [
        "ing",
        "s"
      ],
      [
        "1",
        "3"
      ],
      [
        "n",
        "ew"
      ],
      [
        "p",
        "ol"
      ],
      [
        "a",
        "il"
      ],
      [
        "p",
        "ar"
      ],
      [
        "19",
        "7"
      ],
      [
        "wor",
        "k"
      ],
      [
        "w",
        "ay"
      ],
      [
        "*",
        "*"
      ],
      [
        "t",
        "d"
      ],
      [
        "I",
        "s"
      ],
      [
        "A",
        "s"
      ],
      [
        "b",
        "et"
      ],
      [
        "h",
        "er"
      ],
      [
        "u",
        "c"
      ],
      [
        "m",
        "ath"
      ],
      [
        "j",
        "ect"
      ],
      [
        "es",
        "e"
      ],
      [
        "re",
        "at"
      ],
      [
        "on",
        "ly"
      ],
      [
        "sy",
        "stem"
      ],
      [
        "langu",
        "age"
      ],
      [
        "c",
        "y"
      ],
      [
        "if",
        "ic"
      ],
      [
        "erv",
        "e"
      ],
      [
        "m",
        "od"
      ],
      [
        "ar",
        "ch"
      ],
      [
        "o",
        "se"
      ],
      [
        "a",
        "h"
      ],
      [
        "c",
        "ur"
      ],
      [
        "Amer",
        "ican"
      ],
      [
        "o",
        "st"
      ],
      [
        "ro",
        "w"
      ],
      [
        "at",
        "ive"
      ],
      [
        "N",
        "ew"
      ],
      [
        "F",
        "or"
      ],
      [
        "olog",
        "y"
      ],
      [
        "2",
        "5"
      ],
      [
        "d",
        "ash"
      ],
      [
        "re",
        "t"
      ],
      [
        "c",
        "all"
      ],
      [
        "ther",
        "e"
      ],
      [
        "ter",
        "s"
      ],
      [
        "ur",
        "ing"
      ],
      [
        "k",
        "e"
      ],
      [
        "y",
        "s"
      ],
      [
        "pro",
        "du"
      ],
      [
        "I",
        "I"
      ],
      [
        "mo",
        "v"
      ],
      [
        "r",
        "ed"
      ],
      [
        "an",
        "n"
      ],
      [
        "Im",
        "age"
      ],
      [
        "af",
        "ter"
      ],
      [
        "p",
        "op"
      ],
      [
        "t",
        "s"
      ],
      [
        "un",
        "der"
      ],
      [
        "pro",
        "v"
      ],
      [
        "on",
        "s"
      ],
      [
        "ht",
        "ml"
      ],
      [
        "f",
        "e"
      ],
      [
        "op",
        "le"
      ],
      [
        "ist",
        "ory"
      ],
      [
        "m",
        "ay"
      ],
      [
        "w",
        "ould"
      ],
      [
        "tr",
        "y"
      ],
      [
        "G",
        "er"
      ],
      [
        "n",
        "um"
      ],
      [
        "i",
        "x"
      ],
      [
        "E",
        "x"
      ],
      [
        "s",
        "m"
      ],
      [
        "u",
        "ro"
      ],
      [
        "W",
        "h"
      ],
      [
        "f",
        "il"
      ],
      [
        "en",
        "g"
      ],
      [
        "it",
        "ies"
      ],
      [
        "ou",
        "p"
      ],
      [
        "m",
        "ed"
      ],
      [
        "ap",
        "p"
      ],
      [
        "i",
        "ent"
      ],
      [
        "i",
        "et"
      ],
      [
        "ic",
        "k"
      ],
      [
        "v",
        "ers"
      ],
      [
        "]]",
        "&"
      ],
      [
        "re",
        "c"
      ],
      [
        "Ch",
        "r"
      ],
      [
        "com",
        "m"
      ],
      [
        "el",
        "d"
      ],
      [
        "ow",
        "er"
      ],
      [
        "d",
        "if"
      ],
      [
        "over",
        "n"
      ],
      [
        "m",
        "s"
      ],
      [
        "i",
        "er"
      ],
      [
        "d",
        "ec"
      ],
      [
        "ak",
        "e"
      ],
      [
        "em",
        "ber"
      ],
      [
        "id",
        "ent"
      ],
      [
        "o",
        "h"
      ],
      [
        "pres",
        "erve"
      ],
      [
        "is",
        "s"
      ],
      [
        "ut",
        "ion"
      ],
      [
        "19",
        "6"
      ],
      [
        "x",
        "ml"
      ],
      [
        "we",
        "en"
      ],
      [
        "f",
        "ul"
      ],
      [
        "f",
        "t"
      ],
      [
        "wh",
        "en"
      ],
      [
        "u",
        "b"
      ],
      [
        "S",
        "p"
      ],
      [
        "ist",
        "s"
      ],
      [
        "=",
        "\""
      ],
      [
        "\"",
        ">"
      ],
      [
        "ow",
        "ever"
      ],
      [
        "T",
        "r"
      ],
      [
        "d",
        "ay"
      ],
      [
        "gr",
        "ap"
      ],
      [
        "in",
        "s"
      ],
      [
        "B",
        "rit"
      ],
      [
        "kn",
        "own"
      ],
      [
        "B",
        "r"
      ],
      [
        "ic",
        "a"
      ],
      [
        "as",
        "ed"
      ],
      [
        "for",
        "e"
      ],
      [
        "ab",
        "out"
      ],
      [
        "t",
        "ain"
      ],
      [
        "]]",
        "</"
      ],
      [
        ";",
        "[["
      ],
      [
        "bet",
        "ween"
      ],
      [
        "1",
        "1"
      ],
      [
        "s",
        "et"
      ],
      [
        "ag",
        "es"
      ],
      [
        "u",
        "ally"
      ],
      [
        "in",
        "ce"
      ],
      [
        "r",
        "ough"
      ],
      [
        "incl",
        "ud"
      ],
      [
        "sp",
        "ec"
      ],
      [
        "t",
        "on"
      ],
      [
        "St",
        "ates"
      ],
      [
        "sm",
        "all"
      ],
      [
        "0",
        "2"
      ],
      [
        "n",
        "b"
      ],
      [
        "o",
        "y"
      ],
      [
        "wh",
        "ere"
      ],
      [
        "ib",
        "le"
      ],
      [
        "v",
        "i"
      ],
      [
        "ik",
        "e"
      ],
      [
        "ur",
        "y"
      ],
      [
        "w",
        "rit"
      ],
      [
        "at",
        "ing"
      ],
      [
        "c",
        "a"
      ],
      [
        "year",
        "s"
      ],
      [
        "h",
        "igh"
      ],
      [
        "ur",
        "n"
      ],
      [
        "b",
        "el"
      ],
      [
        "D",
        "e"
      ],
      [
        "E",
        "uro"
      ],
      [
        "th",
        "ough"
      ],
      [
        "s",
        "im"
      ],
      [
        "al",
        "e"
      ],
      [
        "d",
        "om"
      ],
      [
        "us",
        "s"
      ],
      [
        "s",
        "erv"
      ],
      [
        "0",
        "3"
      ],
      [
        "n",
        "ame"
      ],
      [
        "p",
        "x"
      ],
      [
        "em",
        "ent"
      ],
      [
        "200",
        "6"
      ],
      [
        "cent",
        "er"
      ],
      [
        "am",
        "es"
      ],
      [
        "200",
        "5"
      ],
      [
        "re",
        "f"
      ],
      [
        "ce",
        "pt"
      ],
      [
        "le",
        "g"
      ],
      [
        "call",
        "ed"
      ],
      [
        "the",
        "n"
      ],
      [
        "the",
        "se"
      ],
      [
        "i",
        "um"
      ],
      [
        "nb",
        "sp"
      ],
      [
        "C",
        "ol"
      ],
      [
        "h",
        "im"
      ],
      [
        "gl",
        "ish"
      ],
      [
        "le",
        "t"
      ],
      [
        "s",
        "ec"
      ],
      [
        "C",
        "l"
      ],
      [
        "L",
        "e"
      ],
      [
        "pe",
        "ople"
      ],
      [
        "s",
        "er"
      ],
      [
        "b",
        "all"
      ],
      [
        "r",
        "y"
      ],
      [
        "ch",
        "ar"
      ],
      [
        "publ",
        "ic"
      ],
      [
        "v",
        "ar"
      ],
      [
        "il",
        "y"
      ],
      [
        "al",
        "s"
      ],
      [
        "an",
        "k"
      ],
      [
        "ad",
        "d"
      ],
      [
        "num",
        "ber"
      ],
      [
        "w",
        "ill"
      ],
      [
        "ur",
        "es"
      ],
      [
        "le",
        "ft"
      ],
      [
        "to",
        "p"
      ],
      [
        "w",
        "ell"
      ],
      [
        "m",
        "us"
      ],
      [
        "S",
        "h"
      ],
      [
        "G",
        "r"
      ],
      [
        "m",
        "y"
      ],
      [
        "p",
        "le"
      ],
      [
        "an",
        "c"
      ],
      [
        "En",
        "glish"
      ],
      [
        "if",
        "e"
      ],
      [
        "00",
        "0"
      ],
      [
        "is",
        "e"
      ],
      [
        "th",
        "umb"
      ],
      [
        "c",
        "ap"
      ],
      [
        "gr",
        "am"
      ],
      [
        "Euro",
        "pe"
      ],
      [
        "gr",
        "oup"
      ],
      [
        "ord",
        "er"
      ],
      [
        "a",
        "z"
      ],
      [
        "ire",
        "ct"
      ],
      [
        "S",
        "c"
      ],
      [
        "in",
        "v"
      ],
      [
        "el",
        "f"
      ],
      [
        "se",
        "e"
      ],
      [
        "sh",
        "ip"
      ],
      [
        "B",
        "o"
      ],
      [
        "Un",
        "ivers"
      ],
      [
        "u",
        "ch"
      ],
      [
        "Chr",
        "ist"
      ],
      [
        "l",
        "ed"
      ],
      [
        "th",
        "rough"
      ],
      [
        "overn",
        "ment"
      ],
      [
        "wor",
        "ld"
      ],
      [
        "ical",
        "ly"
      ],
      [
        "in",
        "n"
      ],
      [
        "of",
        "ten"
      ],
      [
        "J",
        "oh"
      ],
      [
        "po",
        "int"
      ],
      [
        "P",
        "ro"
      ],
      [
        "ou",
        "th"
      ],
      [
        ";",
        ","
      ],
      [
        "a",
        "x"
      ],
      [
        "j",
        "p"
      ],
      [
        "s",
        "on"
      ],
      [
        "O",
        "r"
      ],
      [
        "n",
        "et"
      ],
      [
        "W",
        "or"
      ],
      [
        ".",
        "&"
      ],
      [
        "p",
        "ers"
      ],
      [
        "id",
        "er"
      ],
      [
        "dif",
        "fer"
      ],
      [
        "em",
        "b"
      ],
      [
        "3",
        "0"
      ],
      [
        "tr",
        "ans"
      ],
      [
        "or",
        "n"
      ],
      [
        "f",
        "ound"
      ],
      [
        "f",
        "i"
      ],
      [
        "oll",
        "ow"
      ],
      [
        "w",
        "ard"
      ],
      [
        "In",
        "d"
      ],
      [
        "f",
        "un"
      ],
      [
        "re",
        "qu"
      ],
      [
        "19",
        "4"
      ],
      [
        "l",
        "ine"
      ],
      [
        "e",
        "p"
      ],
      [
        "A",
        "u"
      ],
      [
        "s",
        "k"
      ],
      [
        "2",
        "4"
      ],
      [
        "jp",
        "g"
      ],
      [
        "t",
        "ed"
      ],
      [
        "A",
        "t"
      ],
      [
        "N",
        "or"
      ],
      [
        "b",
        "ack"
      ],
      [
        "at",
        "ure"
      ],
      [
        "ro",
        "s"
      ],
      [
        "f",
        "act"
      ],
      [
        "ish",
        "ed"
      ],
      [
        "G",
        "e"
      ],
      [
        "W",
        "ar"
      ],
      [
        "i",
        "am"
      ],
      [
        "vel",
        "op"
      ],
      [
        "re",
        "fer"
      ],
      [
        "A",
        "d"
      ],
      [
        "f",
        "am"
      ],
      [
        "n",
        "ow"
      ],
      [
        "19",
        "5"
      ],
      [
        "de",
        "velop"
      ],
      [
        "on",
        "om"
      ],
      [
        "str",
        "u"
      ],
      [
        "be",
        "ing"
      ],
      [
        "w",
        "ar"
      ],
      [
        "s",
        "l"
      ],
      [
        "ian",
        "s"
      ],
      [
        "ig",
        "in"
      ],
      [
        "2",
        "3"
      ],
      [
        "de",
        "p"
      ],
      [
        "ur",
        "al"
      ],
      [
        "s",
        "oc"
      ],
      [
        "v",
        "e"
      ],
      [
        "st",
        "it"
      ],
      [
        "ur",
        "ch"
      ],
      [
        "Joh",
        "n"
      ],
      [
        "c",
        "er"
      ],
      [
        "pres",
        "ent"
      ],
      [
        "r",
        "u"
      ],
      [
        "st",
        "y"
      ],
      [
        "oc",
        "k"
      ],
      [
        "m",
        "ade"
      ],
      [
        "im",
        "e"
      ],
      [
        "ch",
        "o"
      ],
      [
        "st",
        "and"
      ],
      [
        "ex",
        "amp"
      ],
      [
        ";",
        "."
      ],
      [
        "n",
        "or"
      ],
      [
        "Brit",
        "ish"
      ],
      [
        "in",
        "c"
      ],
      [
        "re",
        "ad"
      ],
      [
        "O",
        "n"
      ],
      [
        "il",
        "d"
      ],
      [
        "l",
        "ar"
      ],
      [
        "om",
        "an"
      ],
      [
        "f",
        "o"
      ],
      [
        "cl",
        "ass"
      ],
      [
        "i",
        "ev"
      ],
      [
        "ag",
        "ain"
      ],
      [
        "b",
        "le"
      ],
      [
        "pr",
        "ess"
      ],
      [
        "iz",
        "ed"
      ],
      [
        "2",
        "2"
      ],
      [
        "B",
        "l"
      ],
      [
        "M",
        "ar"
      ],
      [
        "R",
        "E"
      ],
      [
        "w",
        "ord"
      ],
      [
        "ot",
        "e"
      ],
      [
        "a",
        "use"
      ],
      [
        "in",
        "a"
      ],
      [
        "E",
        "m"
      ],
      [
        "''",
        "."
      ],
      [
        "com",
        "mon"
      ],
      [
        "b",
        "u"
      ],
      [
        "p",
        "or"
      ],
      [
        "l",
        "ess"
      ],
      [
        "c",
        "he"
      ],
      [
        "an",
        "ge"
      ],
      [
        "st",
        "ate"
      ],
      [
        "Univers",
        "ity"
      ],
      [
        "S",
        "e"
      ],
      [
        "f",
        "ollow"
      ],
      [
        "ch",
        "n"
      ],
      [
        "s",
        "ur"
      ],
      [
        "cent",
        "ury"
      ],
      [
        "I",
        "S"
      ],
      [
        "l",
        "ike"
      ],
      [
        "iv",
        "es"
      ],
      [
        "K",
        "ing"
      ],
      [
        "tern",
        "al"
      ],
      [
        "bo",
        "th"
      ],
      [
        "g",
        "o"
      ],
      [
        "d",
        "uring"
      ],
      [
        "per",
        "i"
      ],
      [
        "ear",
        "ly"
      ],
      [
        "l",
        "o"
      ],
      [
        "g",
        "overnment"
      ],
      [
        "ul",
        "ation"
      ],
      [
        "S",
        "ee"
      ],
      [
        "en",
        "ch"
      ],
      [
        "c",
        "tr"
      ],
      [
        "iz",
        "e"
      ],
      [
        "le",
        "x"
      ],
      [
        "or",
        "igin"
      ],
      [
        "on",
        "t"
      ],
      [
        "u",
        "de"
      ],
      [
        "s",
        "ign"
      ],
      [
        "e",
        "ff"
      ],
      [
        "il",
        "ity"
      ],
      [
        "be",
        "g"
      ],
      [
        "ver",
        "y"
      ],
      [
        "l",
        "aw"
      ],
      [
        "Ger",
        "man"
      ],
      [
        "fil",
        "m"
      ],
      [
        "ev",
        "en"
      ],
      [
        "l",
        "ong"
      ],
      [
        "l",
        "it"
      ],
      [
        "u",
        "k"
      ],
      [
        "sty",
        "le"
      ],
      [
        "ic",
        "le"
      ],
      [
        "C",
        "ar"
      ],
      [
        "C",
        "an"
      ],
      [
        "ial",
        "ly"
      ],
      [
        "op",
        "er"
      ],
      [
        "j",
        "or"
      ],
      [
        "h",
        "um"
      ],
      [
        "n",
        "dash"
      ],
      [
        "2",
        "8"
      ],
      [
        "G",
        "u"
      ],
      [
        "Wor",
        "ld"
      ],
      [
        "l",
        "oc"
      ],
      [
        "pol",
        "it"
      ],
      [
        "mus",
        "ic"
      ],
      [
        "en",
        "ces"
      ],
      [
        "g",
        "y"
      ],
      [
        "s",
        "ame"
      ],
      [
        "res",
        "p"
      ],
      [
        "el",
        "s"
      ],
      [
        "un",
        "t"
      ],
      [
        "char",
        "ac"
      ],
      [
        "2",
        "6"
      ],
      [
        "it",
        "al"
      ],
      [
        "ou",
        "se"
      ],
      [
        "at",
        "ic"
      ],
      [
        "s",
        "ol"
      ],
      [
        "le",
        "ad"
      ],
      [
        "ht",
        "m"
      ],
      [
        "cont",
        "in"
      ],
      [
        "examp",
        "le"
      ],
      [
        "I",
        "P"
      ],
      [
        "cons",
        "ider"
      ],
      [
        "p",
        "ower"
      ],
      [
        "c",
        "ar"
      ],
      [
        "y",
        "n"
      ],
      [
        "5",
        "0"
      ],
      [
        "le",
        "ct"
      ],
      [
        "l",
        "a"
      ],
      [
        "200",
        "4"
      ],
      [
        "U",
        "S"
      ],
      [
        "st",
        "ud"
      ],
      [
        "Au",
        "str"
      ],
      [
        "s",
        "ing"
      ],
      [
        "col",
        "or"
      ],
      [
        "en",
        "e"
      ],
      [
        "l",
        "ater"
      ],
      [
        "o",
        "th"
      ],
      [
        "e",
        "ach"
      ],
      [
        "su",
        "c"
      ],
      [
        "2",
        "7"
      ],
      [
        "P",
        "h"
      ],
      [
        "includ",
        "ing"
      ],
      [
        "L",
        "ist"
      ],
      [
        "dis",
        "c"
      ],
      [
        "min",
        "or"
      ],
      [
        "pro",
        "gram"
      ],
      [
        "ment",
        "s"
      ],
      [
        "e",
        "qu"
      ],
      [
        "4",
        "0"
      ],
      [
        "wh",
        "ile"
      ],
      [
        "a",
        "im"
      ],
      [
        "|",
        "[["
      ],
      [
        "se",
        "ver"
      ],
      [
        "Fr",
        "ench"
      ],
      [
        "th",
        "or"
      ],
      [
        "i",
        "qu"
      ],
      [
        "Th",
        "ere"
      ],
      [
        "lin",
        "ks"
      ],
      [
        "]]",
        "'"
      ],
      [
        "tern",
        "ational"
      ],
      [
        "c",
        "ell"
      ],
      [
        "H",
        "owever"
      ],
      [
        "m",
        "ark"
      ],
      [
        "B",
        "C"
      ],
      [
        "d",
        "iv"
      ],
      [
        ":",
        "''"
      ],
      [
        "c",
        "le"
      ],
      [
        "part",
        "ic"
      ],
      [
        "ent",
        "ly"
      ],
      [
        "g",
        "u"
      ],
      [
        "ion",
        "al"
      ],
      [
        "dep",
        "end"
      ],
      [
        "gen",
        "er"
      ],
      [
        "th",
        "ree"
      ],
      [
        "at",
        "or"
      ],
      [
        "P",
        "e"
      ],
      [
        "land",
        "s"
      ],
      [
        "org",
        "an"
      ],
      [
        "bec",
        "ame"
      ],
      [
        "0",
        "s"
      ],
      [
        "o",
        "x"
      ],
      [
        "v",
        "al"
      ],
      [
        "ex",
        "p"
      ],
      [
        "res",
        "ult"
      ],
      [
        "form",
        "ation"
      ],
      [
        "pos",
        "s"
      ],
      [
        "bo",
        "ok"
      ],
      [
        "B",
        "e"
      ],
      [
        "vi",
        "ew"
      ],
      [
        "P",
        "ol"
      ],
      [
        "i",
        "us"
      ],
      [
        "be",
        "fore"
      ],
      [
        "differ",
        "ent"
      ],
      [
        "c",
        "or"
      ],
      [
        "H",
        "istory"
      ],
      [
        "b",
        "re"
      ],
      [
        ";",
        "''"
      ],
      [
        "19",
        "3"
      ],
      [
        "m",
        "et"
      ],
      [
        "*",
        "''[["
      ],
      [
        "cur",
        "r"
      ],
      [
        "il",
        "it"
      ],
      [
        "ber",
        "t"
      ],
      [
        "st",
        "e"
      ],
      [
        "(",
        "''"
      ],
      [
        "G",
        "en"
      ],
      [
        "c",
        "ity"
      ],
      [
        "ter",
        "m"
      ],
      [
        "i",
        "ence"
      ],
      [
        "comm",
        "un"
      ],
      [
        "ant",
        "s"
      ],
      [
        "2",
        "9"
      ],
      [
        "C",
        "oun"
      ],
      [
        "bo",
        "x"
      ],
      [
        "iv",
        "ed"
      ],
      [
        "A",
        "f"
      ],
      [
        "iz",
        "ation"
      ],
      [
        "tr",
        "ad"
      ],
      [
        "k",
        "ing"
      ],
      [
        "wh",
        "at"
      ],
      [
        "oug",
        "ht"
      ],
      [
        "A",
        "m"
      ],
      [
        "bec",
        "ause"
      ],
      [
        "app",
        "ear"
      ],
      [
        "p",
        "ut"
      ],
      [
        "l",
        "ife"
      ],
      [
        "l",
        "arg"
      ],
      [
        "ma",
        "jor"
      ],
      [
        "2",
        "1"
      ],
      [
        "des",
        "ign"
      ],
      [
        "ist",
        "or"
      ],
      [
        "]]''",
        ","
      ],
      [
        "E",
        "d"
      ],
      [
        "d",
        "irect"
      ],
      [
        "m",
        "uch"
      ],
      [
        ".",
        "."
      ],
      [
        "f",
        "a"
      ],
      [
        "c",
        "ould"
      ],
      [
        "vers",
        "ion"
      ],
      [
        "pers",
        "on"
      ],
      [
        "E",
        "l"
      ],
      [
        "g",
        "ame"
      ],
      [
        "iv",
        "er"
      ],
      [
        "A",
        "p"
      ],
      [
        "en",
        "n"
      ],
      [
        "h",
        "istory"
      ],
      [
        "p",
        "re"
      ],
      [
        "c",
        "ult"
      ],
      [
        "cr",
        "ip"
      ],
      [
        "im",
        "es"
      ],
      [
        "En",
        "g"
      ],
      [
        "]]",
        ":"
      ],
      [
        "comp",
        "u"
      ],
      [
        "as",
        "on"
      ],
      [
        "R",
        "oman"
      ],
      [
        "t",
        "ing"
      ],
      [
        "stru",
        "ct"
      ],
      [
        "ak",
        "ing"
      ],
      [
        "ec",
        "onom"
      ],
      [
        "ie",
        "f"
      ],
      [
        "m",
        "at"
      ],
      [
        "C",
        "al"
      ],
      [
        "an",
        "e"
      ],
      [
        "r",
        "al"
      ],
      [
        "us",
        "ing"
      ],
      [
        "sec",
        "ond"
      ],
      [
        "b",
        "ased"
      ],
      [
        "P",
        "l"
      ],
      [
        "suc",
        "cess"
      ],
      [
        "at",
        "a"
      ],
      [
        "le",
        "y"
      ],
      [
        "n",
        "on"
      ],
      [
        "sever",
        "al"
      ],
      [
        "again",
        "st"
      ],
      [
        "c",
        "k"
      ],
      [
        "I",
        "r"
      ],
      [
        "im",
        "port"
      ],
      [
        "Com",
        "m"
      ],
      [
        "s",
        "ince"
      ],
      [
        "b",
        "ro"
      ],
      [
        "d",
        "i"
      ],
      [
        "G",
        "od"
      ],
      [
        "ic",
        "es"
      ],
      [
        "C",
        "ent"
      ],
      [
        "fl",
        "u"
      ],
      [
        "d",
        "ist"
      ],
      [
        "lar",
        "ge"
      ],
      [
        "200",
        "2"
      ],
      [
        "l",
        "ast"
      ],
      [
        "0",
        "1"
      ],
      [
        "r",
        "ad"
      ],
      [
        "th",
        "ose"
      ],
      [
        "Ch",
        "ar"
      ],
      [
        "au",
        "thor"
      ],
      [
        "de",
        "ath"
      ],
      [
        "t",
        "al"
      ],
      [
        "w",
        "id"
      ],
      [
        "a",
        "id"
      ],
      [
        "v",
        "ent"
      ],
      [
        "j",
        "a"
      ],
      [
        "sh",
        "ow"
      ],
      [
        "th",
        "od"
      ],
      [
        "u",
        "ary"
      ],
      [
        "fi",
        "eld"
      ],
      [
        "all",
        "ow"
      ],
      [
        "i",
        "ation"
      ],
      [
        "grap",
        "h"
      ],
      [
        "ac",
        "c"
      ],
      [
        "A",
        "c"
      ],
      [
        "m",
        "dash"
      ],
      [
        "R",
        "o"
      ],
      [
        "d",
        "em"
      ],
      [
        "pro",
        "cess"
      ],
      [
        "t",
        "le"
      ],
      [
        "P",
        "ar"
      ],
      [
        "P",
        "res"
      ],
      [
        "ro",
        "p"
      ],
      [
        "cho",
        "ol"
      ],
      [
        "es",
        "p"
      ],
      [
        "9",
        "0"
      ],
      [
        "ele",
        "ctr"
      ],
      [
        "pl",
        "ic"
      ],
      [
        "a",
        "e"
      ],
      [
        "he",
        "ad"
      ],
      [
        "c",
        "our"
      ],
      [
        "ov",
        "e"
      ],
      [
        "en",
        "se"
      ],
      [
        "h",
        "and"
      ],
      [
        "s",
        "ide"
      ],
      [
        "re",
        "main"
      ],
      [
        "en",
        "cy"
      ],
      [
        "A",
        "fr"
      ],
      [
        "eff",
        "ect"
      ],
      [
        "ol",
        "ution"
      ],
      [
        "te",
        "chn"
      ],
      [
        "200",
        "3"
      ],
      [
        "pop",
        "ular"
      ],
      [
        "cl",
        "aim"
      ],
      [
        "pl",
        "ac"
      ],
      [
        "S",
        "ome"
      ],
      [
        "ros",
        "s"
      ],
      [
        "as",
        "es"
      ],
      [
        "H",
        "er"
      ],
      [
        "iv",
        "ely"
      ],
      [
        "c",
        "al"
      ],
      [
        "l",
        "im"
      ],
      [
        "ar",
        "s"
      ],
      [
        "Christ",
        "ian"
      ],
      [
        "''",
        "&"
      ],
      [
        "ict",
        "ion"
      ],
      [
        "/",
        ">"
      ],
      [
        "st",
        "art"
      ],
      [
        "p",
        "ass"
      ],
      [
        ";",
        "|"
      ],
      [
        "A",
        "b"
      ],
      [
        "IP",
        "A"
      ],
      [
        "C",
        "o"
      ],
      [
        "or",
        "ies"
      ],
      [
        ":",
        "'''"
      ],
      [
        "charac",
        "ter"
      ],
      [
        "Ex",
        "ternal"
      ],
      [
        "ed",
        "ia"
      ],
      [
        "g",
        "h"
      ],
      [
        "g",
        "er"
      ],
      [
        "E",
        "ar"
      ],
      [
        "r",
        "un"
      ],
      [
        "B",
        "N"
      ],
      [
        "m",
        "en"
      ],
      [
        "gr",
        "ound"
      ],
      [
        "E",
        "le"
      ],
      [
        "N",
        "ational"
      ],
      [
        "ser",
        "ies"
      ],
      [
        "st",
        "ill"
      ],
      [
        "iv",
        "en"
      ],
      [
        "v",
        "ir"
      ],
      [
        "st",
        "at"
      ],
      [
        "ap",
        "an"
      ],
      [
        "crip",
        "t"
      ],
      [
        "grap",
        "hy"
      ],
      [
        "f",
        "our"
      ],
      [
        "coun",
        "try"
      ],
      [
        "F",
        "l"
      ],
      [
        "Can",
        "ad"
      ],
      [
        "ther",
        "n"
      ],
      [
        "re",
        "al"
      ],
      [
        "un",
        "d"
      ],
      [
        "8",
        "0"
      ],
      [
        "us",
        "ually"
      ],
      [
        "ect",
        "ion"
      ],
      [
        "is",
        "ter"
      ],
      [
        "de",
        "fin"
      ],
      [
        "d",
        "own"
      ],
      [
        "ir",
        "d"
      ],
      [
        "y",
        "l"
      ],
      [
        "or",
        "k"
      ],
      [
        "M",
        "an"
      ],
      [
        "mod",
        "ern"
      ],
      [
        "iet",
        "y"
      ],
      [
        "sp",
        "e"
      ],
      [
        "ic",
        "ial"
      ],
      [
        "ilit",
        "ary"
      ],
      [
        "g",
        "re"
      ],
      [
        "it",
        "ions"
      ],
      [
        "rec",
        "ord"
      ],
      [
        "end",
        "ed"
      ],
      [
        "]])",
        ","
      ],
      [
        "sup",
        "port"
      ],
      [
        "hum",
        "an"
      ],
      [
        "J",
        "apan"
      ],
      [
        "iv",
        "ing"
      ],
      [
        "art",
        "icle"
      ],
      [
        "if",
        "ied"
      ],
      [
        "am",
        "b"
      ],
      [
        "ke",
        "y"
      ],
      [
        "in",
        "du"
      ],
      [
        "d",
        "id"
      ],
      [
        "il",
        "ar"
      ],
      [
        "re",
        "le"
      ],
      [
        "Europe",
        "an"
      ],
      [
        ")",
        "]]"
      ],
      [
        "act",
        "ion"
      ],
      [
        "It",
        "al"
      ],
      [
        "pl",
        "ace"
      ],
      [
        "in",
        "es"
      ],
      [
        "Al",
        "l"
      ],
      [
        "R",
        "uss"
      ],
      [
        "ut",
        "e"
      ],
      [
        "v",
        "is"
      ],
      [
        "i",
        "or"
      ],
      [
        "'''",
        "[["
      ],
      [
        "id",
        "ed"
      ],
      [
        "n",
        "am"
      ],
      [
        "unt",
        "il"
      ],
      [
        "D",
        "I"
      ],
      [
        "o",
        "ks"
      ],
      [
        "3",
        "6"
      ],
      [
        "in",
        "cre"
      ],
      [
        "il",
        "os"
      ],
      [
        "g",
        "reat"
      ],
      [
        "um",
        "ent"
      ],
      [
        "D",
        "r"
      ],
      [
        "om",
        "et"
      ],
      [
        "3",
        "5"
      ],
      [
        "emb",
        "ers"
      ],
      [
        "/",
        "&"
      ],
      [
        "m",
        "ill"
      ],
      [
        "s",
        "elf"
      ],
      [
        "are",
        "a"
      ],
      [
        "et",
        "s"
      ],
      [
        "==",
        "=="
      ],
      [
        "N",
        "e"
      ],
      [
        "incl",
        "ude"
      ],
      [
        "compu",
        "ter"
      ],
      [
        "Austr",
        "al"
      ],
      [
        "D",
        "ec"
      ],
      [
        "the",
        "ory"
      ],
      [
        "h",
        "av"
      ],
      [
        "ilos",
        "op"
      ],
      [
        "ab",
        "ly"
      ],
      [
        "m",
        "ing"
      ],
      [
        "n",
        "l"
      ],
      [
        "a",
        "i"
      ],
      [
        "h",
        "owever"
      ],
      [
        "on",
        "es"
      ],
      [
        "G",
        "ree"
      ],
      [
        "D",
        "is"
      ],
      [
        "l",
        "ist"
      ],
      [
        "IS",
        "BN"
      ],
      [
        "W",
        "e"
      ],
      [
        "]])",
        "."
      ],
      [
        "pop",
        "ulation"
      ],
      [
        "us",
        "es"
      ],
      [
        "P",
        "art"
      ],
      [
        "t",
        "em"
      ],
      [
        "u",
        "es"
      ],
      [
        "An",
        "d"
      ],
      [
        "h",
        "el"
      ],
      [
        "ab",
        "l"
      ],
      [
        "peri",
        "od"
      ],
      [
        "W",
        "ill"
      ],
      [
        "s",
        "he"
      ],
      [
        "D",
        "av"
      ],
      [
        "gen",
        "eral"
      ],
      [
        "af",
        "f"
      ],
      [
        "ele",
        "ct"
      ],
      [
        "way",
        "s"
      ],
      [
        "m",
        "iss"
      ],
      [
        "The",
        "y"
      ],
      [
        "ph",
        "ys"
      ],
      [
        ".",
        ")"
      ],
      [
        "om",
        "in"
      ],
      [
        "od",
        "y"
      ],
      [
        "''",
        ")"
      ],
      [
        "S",
        "outh"
      ],
      [
        "on",
        "y"
      ],
      [
        "sp",
        "ort"
      ],
      [
        "iv",
        "il"
      ],
      [
        "a",
        "ut"
      ],
      [
        "le",
        "vel"
      ],
      [
        "Eng",
        "land"
      ],
      [
        "0",
        "4"
      ],
      [
        "b",
        "s"
      ],
      [
        "af",
        "t"
      ],
      [
        "ex",
        "ist"
      ],
      [
        "Y",
        "ork"
      ],
      [
        "tr",
        "ies"
      ],
      [
        "ty",
        "p"
      ],
      [
        "3",
        "7"
      ],
      [
        "ir",
        "ed"
      ],
      [
        "un",
        "e"
      ],
      [
        "st",
        "er"
      ],
      [
        "d",
        "a"
      ],
      [
        "te",
        "am"
      ],
      [
        "w",
        "ater"
      ],
      [
        "partic",
        "ular"
      ],
      [
        "B",
        "er"
      ],
      [
        "G",
        "re"
      ],
      [
        "b",
        "i"
      ],
      [
        "Th",
        "ese"
      ],
      [
        "d",
        "en"
      ],
      [
        "T",
        "D"
      ],
      [
        "b",
        "g"
      ],
      [
        "pos",
        "ition"
      ],
      [
        "n",
        "ess"
      ],
      [
        "ed",
        "u"
      ],
      [
        "is",
        "ed"
      ],
      [
        "st",
        "ant"
      ],
      [
        "att",
        "le"
      ],
      [
        "fo",
        "ot"
      ],
      [
        "p",
        "at"
      ],
      [
        "b",
        "in"
      ],
      [
        "ex",
        "pl"
      ],
      [
        "l",
        "ight"
      ],
      [
        "ar",
        "ound"
      ],
      [
        "b",
        "as"
      ],
      [
        "9",
        "9"
      ],
      [
        "rel",
        "ig"
      ],
      [
        "tr",
        "ibut"
      ],
      [
        "v",
        "en"
      ],
      [
        "un",
        "g"
      ],
      [
        "at",
        "ely"
      ],
      [
        "Ch",
        "urch"
      ],
      [
        "J",
        "ew"
      ],
      [
        "s",
        "v"
      ],
      [
        "j",
        "ust"
      ],
      [
        "200",
        "0"
      ],
      [
        "de",
        "f"
      ],
      [
        "n",
        "at"
      ],
      [
        "m",
        "ar"
      ],
      [
        "h",
        "ar"
      ],
      [
        "ard",
        "s"
      ],
      [
        "co",
        "de"
      ],
      [
        "B",
        "ar"
      ],
      [
        "p",
        "rev"
      ],
      [
        "do",
        "es"
      ],
      [
        "olog",
        "ical"
      ],
      [
        "h",
        "ome"
      ],
      [
        "m",
        "ag"
      ],
      [
        "polit",
        "ical"
      ],
      [
        "se",
        "qu"
      ],
      [
        "es",
        "tern"
      ],
      [
        "m",
        "embers"
      ],
      [
        "ac",
        "y"
      ],
      [
        "consider",
        "ed"
      ],
      [
        "su",
[...]
